{
  "type": "char_bpe_tokenizer",
  "vocab": {
    "0": "<pad>",
    "1": "<unk>",
    "2": "<bos>",
    "3": "<eos>",
    "4": "00",
    "5": "01",
    "6": "02",
    "7": "03",
    "8": "04",
    "9": "05",
    "10": "06",
    "11": "07",
    "12": "08",
    "13": "09",
    "14": "0a",
    "15": "0b",
    "16": "0c",
    "17": "0d",
    "18": "0e",
    "19": "0f",
    "20": "10",
    "21": "11",
    "22": "12",
    "23": "13",
    "24": "14",
    "25": "15",
    "26": "16",
    "27": "17",
    "28": "18",
    "29": "19",
    "30": "1a",
    "31": "1b",
    "32": "1c",
    "33": "1d",
    "34": "1e",
    "35": "1f",
    "36": "20",
    "37": "21",
    "38": "22",
    "39": "23",
    "40": "24",
    "41": "25",
    "42": "26",
    "43": "27",
    "44": "28",
    "45": "29",
    "46": "2a",
    "47": "2b",
    "48": "2c",
    "49": "2d",
    "50": "2e",
    "51": "2f",
    "52": "30",
    "53": "31",
    "54": "32",
    "55": "33",
    "56": "34",
    "57": "35",
    "58": "36",
    "59": "37",
    "60": "38",
    "61": "39",
    "62": "3a",
    "63": "3b",
    "64": "3c",
    "65": "3d",
    "66": "3e",
    "67": "3f",
    "68": "40",
    "69": "41",
    "70": "42",
    "71": "43",
    "72": "44",
    "73": "45",
    "74": "46",
    "75": "47",
    "76": "48",
    "77": "49",
    "78": "4a",
    "79": "4b",
    "80": "4c",
    "81": "4d",
    "82": "4e",
    "83": "4f",
    "84": "50",
    "85": "51",
    "86": "52",
    "87": "53",
    "88": "54",
    "89": "55",
    "90": "56",
    "91": "57",
    "92": "58",
    "93": "59",
    "94": "5a",
    "95": "5b",
    "96": "5c",
    "97": "5d",
    "98": "5e",
    "99": "5f",
    "100": "60",
    "101": "61",
    "102": "62",
    "103": "63",
    "104": "64",
    "105": "65",
    "106": "66",
    "107": "67",
    "108": "68",
    "109": "69",
    "110": "6a",
    "111": "6b",
    "112": "6c",
    "113": "6d",
    "114": "6e",
    "115": "6f",
    "116": "70",
    "117": "71",
    "118": "72",
    "119": "73",
    "120": "74",
    "121": "75",
    "122": "76",
    "123": "77",
    "124": "78",
    "125": "79",
    "126": "7a",
    "127": "7b",
    "128": "7c",
    "129": "7d",
    "130": "7e",
    "131": "7f",
    "132": "80",
    "133": "81",
    "134": "82",
    "135": "83",
    "136": "84",
    "137": "85",
    "138": "86",
    "139": "87",
    "140": "88",
    "141": "89",
    "142": "8a",
    "143": "8b",
    "144": "8c",
    "145": "8d",
    "146": "8e",
    "147": "8f",
    "148": "90",
    "149": "91",
    "150": "92",
    "151": "93",
    "152": "94",
    "153": "95",
    "154": "96",
    "155": "97",
    "156": "98",
    "157": "99",
    "158": "9a",
    "159": "9b",
    "160": "9c",
    "161": "9d",
    "162": "9e",
    "163": "9f",
    "164": "a0",
    "165": "a1",
    "166": "a2",
    "167": "a3",
    "168": "a4",
    "169": "a5",
    "170": "a6",
    "171": "a7",
    "172": "a8",
    "173": "a9",
    "174": "aa",
    "175": "ab",
    "176": "ac",
    "177": "ad",
    "178": "ae",
    "179": "af",
    "180": "b0",
    "181": "b1",
    "182": "b2",
    "183": "b3",
    "184": "b4",
    "185": "b5",
    "186": "b6",
    "187": "b7",
    "188": "b8",
    "189": "b9",
    "190": "ba",
    "191": "bb",
    "192": "bc",
    "193": "bd",
    "194": "be",
    "195": "bf",
    "196": "c0",
    "197": "c1",
    "198": "c2",
    "199": "c3",
    "200": "c4",
    "201": "c5",
    "202": "c6",
    "203": "c7",
    "204": "c8",
    "205": "c9",
    "206": "ca",
    "207": "cb",
    "208": "cc",
    "209": "cd",
    "210": "ce",
    "211": "cf",
    "212": "d0",
    "213": "d1",
    "214": "d2",
    "215": "d3",
    "216": "d4",
    "217": "d5",
    "218": "d6",
    "219": "d7",
    "220": "d8",
    "221": "d9",
    "222": "da",
    "223": "db",
    "224": "dc",
    "225": "dd",
    "226": "de",
    "227": "df",
    "228": "e0",
    "229": "e1",
    "230": "e2",
    "231": "e3",
    "232": "e4",
    "233": "e5",
    "234": "e6",
    "235": "e7",
    "236": "e8",
    "237": "e9",
    "238": "ea",
    "239": "eb",
    "240": "ec",
    "241": "ed",
    "242": "ee",
    "243": "ef",
    "244": "f0",
    "245": "f1",
    "246": "f2",
    "247": "f3",
    "248": "f4",
    "249": "f5",
    "250": "f6",
    "251": "f7",
    "252": "f8",
    "253": "f9",
    "254": "fa",
    "255": "fb",
    "256": "fc",
    "257": "fd",
    "258": "fe",
    "259": "ff",
    "260": "2074",
    "261": "6865",
    "262": "2061",
    "263": "6f75",
    "264": "2073",
    "265": "206d",
    "266": "696e",
    "267": "2077",
    "268": "7265",
    "269": "6861",
    "270": "6e64",
    "271": "20746865",
    "272": "2062",
    "273": "6973",
    "274": "6f72",
    "275": "0a0a",
    "276": "2066",
    "277": "6572",
    "278": "6c6c",
    "279": "6974",
    "280": "6f6e",
    "281": "2064",
    "282": "2063",
    "283": "6573",
    "284": "656e",
    "285": "206e",
    "286": "206c",
    "287": "2079",
    "288": "207468",
    "289": "6172",
    "290": "2068",
    "291": "206f",
    "292": "20746f",
    "293": "20796f75",
    "294": "2070",
    "295": "686174",
    "296": "2049",
    "297": "206865",
    "298": "0a54",
    "299": "7374",
    "300": "7665",
    "301": "6f74",
    "302": "20616e64",
    "303": "6f77",
    "304": "696e67",
    "305": "616e",
    "306": "206f66",
    "307": "6f6d",
    "308": "2067",
    "309": "0a41",
    "310": "6174",
    "311": "206265",
    "312": "7365",
    "313": "206d79",
    "314": "20696e",
    "315": "6365",
    "316": "206861",
    "317": "6c65",
    "318": "0a57",
    "319": "6179",
    "320": "6c64",
    "321": "6972",
    "322": "6574",
    "323": "0a49",
    "324": "6564",
    "325": "7574",
    "326": "206d65",
    "327": "696d",
    "328": "697468",
    "329": "206e6f74",
    "330": "6368",
    "331": "2074686174",
    "332": "206973",
    "333": "6768",
    "334": "0a416e64",
    "335": "20666f72",
    "336": "6b65",
    "337": "2075",
    "338": "6f7572",
    "339": "207765",
    "340": "6f6f",
    "341": "696c6c",
    "342": "2065",
    "343": "686572",
    "344": "2077697468",
    "345": "656e74",
    "346": "206974",
    "347": "20796f7572",
    "348": "6164",
    "349": "7269",
    "350": "2074686f75",
    "351": "207374",
    "352": "206b",
    "353": "6f6d65",
    "354": "20686973",
    "355": "676874",
    "356": "454e",
    "357": "6f7264",
    "358": "6964",
    "359": "6173",
    "360": "207265",
    "361": "2068617665",
    "362": "494e",
    "363": "6c79",
    "364": "7261",
    "365": "206c69",
    "366": "2068696d",
    "367": "0a48",
    "368": "7572",
    "369": "2074686973",
    "370": "0a546865",
    "371": "616c",
    "372": "494f",
    "373": "20736f",
    "374": "206173",
    "375": "206465",
    "376": "0a53",
    "377": "0a42",
    "378": "206f6e",
    "379": "6f7265",
    "380": "726f",
    "381": "4152",
    "382": "6869",
    "383": "6f756c64",
    "384": "6f6f64",
    "385": "0a4f",
    "386": "636b",
    "387": "61696e",
    "388": "766572",
    "389": "657374",
    "390": "20746879",
    "391": "20736861",
    "392": "657373",
    "393": "6561",
    "394": "0a4d",
    "395": "20646f",
    "396": "2077696c6c",
    "397": "616d",
    "398": "206e6f",
    "399": "20627574",
    "400": "7573",
    "401": "616e64",
    "402": "5553",
    "403": "6966",
    "404": "207365",
    "405": "6765",
    "406": "20616c6c",
    "407": "0a46",
    "408": "207375",
    "409": "616b65",
    "410": "0a4e",
    "411": "0a546f",
    "412": "20686572",
    "413": "7275",
    "414": "696f6e",
    "415": "7468",
    "416": "20616e",
    "417": "617264",
    "418": "746572",
    "419": "206c6f",
    "420": "68616e",
    "421": "656c6c",
    "422": "656172",
    "423": "207370",
    "424": "2074686565",
    "425": "206f7572",
    "426": "206661",
    "427": "207368616c6c",
    "428": "206279",
    "429": "5543",
    "430": "696c",
    "431": "20617265",
    "432": "494e47",
    "433": "686f",
    "434": "2043",
    "435": "726f6d",
    "436": "206e65",
    "437": "206b6e",
    "438": "414e",
    "439": "2052",
    "440": "2076",
    "441": "0a54686174",
    "442": "0a5468",
    "443": "4552",
    "444": "0a59",
    "445": "4f52",
    "446": "617374",
    "447": "6374",
    "448": "6f7573",
    "449": "2077686174",
    "450": "69676874",
    "451": "207368",
    "452": "756c",
    "453": "0a0a43",
    "454": "2027",
    "455": "4554",
    "456": "616e74",
    "457": "0a0a50",
    "458": "4553",
    "459": "207570",
    "460": "73656c",
    "461": "7175",
    "462": "617274",
    "463": "20676f6f64",
    "464": "726f77",
    "465": "696e65",
    "466": "617468",
    "467": "206c6f7264",
    "468": "68696368",
    "469": "6e74",
    "470": "757374",
    "471": "6f6e65",
    "472": "207072",
    "473": "20636f6d",
    "474": "206174",
    "475": "206d616e",
    "476": "204d",
    "477": "20776865",
    "478": "2045",
    "479": "4b494e47",
    "480": "20616d",
    "481": "656e64",
    "482": "6963",
    "483": "20636f6e",
    "484": "626c65",
    "485": "7279",
    "486": "0a427574",
    "487": "6f6e67",
    "488": "6965",
    "489": "0a0a4c",
    "490": "20626c",
    "491": "697665",
    "492": "2066726f6d",
    "493": "76656e",
    "494": "2047",
    "495": "20736865",
    "496": "656d",
    "497": "20676f",
    "498": "617265",
    "499": "0a43",
    "500": "206d6f7265",
    "501": "4943",
    "502": "207468656d",
    "503": "6f7574",
    "504": "6175",
    "505": "20776173",
    "506": "6f7468",
    "507": "6f74686572",
    "508": "2042",
    "509": "20736972",
    "510": "6f6c",
    "511": "206e6f77",
    "512": "204c",
    "513": "20686174",
    "514": "0a466f72",
    "515": "6f7374",
    "516": "206966",
    "517": "0a0a42",
    "518": "2048",
    "519": "696e64",
    "520": "4c4f",
    "521": "207468657265",
    "522": "20776f756c64",
    "523": "206b6e6f77",
    "524": "2063616e",
    "525": "0a0a53",
    "526": "657273",
    "527": "495553",
    "528": "6570",
    "529": "73656c66",
    "530": "415244",
    "531": "6174686572",
    "532": "6665",
    "533": "0a57686174",
    "534": "726573",
    "535": "6f6e64",
    "536": "617465",
    "537": "0a0a47",
    "538": "20736179",
    "539": "2068657265",
    "540": "206c6f7665",
    "541": "207377",
    "542": "207468656972",
    "543": "206272",
    "544": "7070",
    "545": "206f72",
    "546": "2053",
    "547": "616c6c",
    "548": "207468616e",
    "549": "207468656e",
    "550": "206b696e67",
    "551": "207573",
    "552": "204f",
    "553": "0a0a4b494e47",
    "554": "2057",
    "555": "2074686579",
    "556": "0a4c",
    "557": "206172",
    "558": "0a0a4d",
    "559": "6f64",
    "560": "0a4d79",
    "561": "206c6574",
    "562": "0a47",
    "563": "20756e",
    "564": "0a4865",
    "565": "6f7274",
    "566": "6967",
    "567": "2054",
    "568": "757265",
    "569": "0a0a44",
    "570": "6879",
    "571": "696e6b",
    "572": "656c",
    "573": "20776f72",
    "574": "2056",
    "575": "666f7265",
    "576": "616d65",
    "577": "206d6179",
    "578": "20636f6d65",
    "579": "207175",
    "580": "6f6f6b",
    "581": "0a4173",
    "582": "697368",
    "583": "4c49",
    "584": "2077656c6c",
    "585": "4b45",
    "586": "766573",
    "587": "206a",
    "588": "206f6e65",
    "589": "0a0a46",
    "590": "2068617468",
    "591": "69727374",
    "592": "206d616b65",
    "593": "72656174",
    "594": "616b",
    "595": "0a576865",
    "596": "6761696e",
    "597": "206d757374",
    "598": "6f756e64",
    "599": "6e67",
    "600": "0a44",
    "601": "20677261",
    "602": "2077657265",
    "603": "2041",
    "604": "20686f",
    "605": "6369",
    "606": "20736565",
    "607": "206c696b65",
    "608": "7565",
    "609": "65616b",
    "610": "54494f",
    "611": "2073686f756c64",
    "612": "697479",
    "613": "2070726f",
    "614": "206d6164",
    "615": "2050",
    "616": "207361",
    "617": "756d",
    "618": "20706c",
    "619": "20666174686572",
    "620": "524f",
    "621": "20686164",
    "622": "20646964",
    "623": "7065",
    "624": "696d65",
    "625": "2075706f6e",
    "626": "0a596f75",
    "627": "0a50",
    "628": "696365",
    "629": "4f4e",
    "630": "20746f6f",
    "631": "656e6365",
    "632": "697374",
    "633": "77617264",
    "634": "2059",
    "635": "206465617468",
    "636": "6f776e",
    "637": "6d616e",
    "638": "20656e",
    "639": "756e",
    "640": "4953",
    "641": "66756c",
    "642": "20706f",
    "643": "6e6365",
    "644": "2072",
    "645": "20737065616b",
    "646": "6465",
    "647": "656e746c65",
    "648": "696f",
    "649": "206f7574",
    "650": "494348",
    "651": "7074",
    "652": "207768696368",
    "653": "20667269",
    "654": "4155",
    "655": "4f4c",
    "656": "6f7365",
    "657": "0a0a4455",
    "658": "20616761696e",
    "659": "0a0a44554b45",
    "660": "20686f77",
    "661": "454c",
    "662": "69636b",
    "663": "206865617274",
    "664": "20747275",
    "665": "2068616e64",
    "666": "20796574",
    "667": "76657279",
    "668": "494348415244",
    "669": "454e54494f",
    "670": "0a57697468",
    "671": "69676e",
    "672": "616e6365",
    "673": "20736f6d65",
    "674": "2077686f",
    "675": "0a5768696368",
    "676": "0a4966",
    "677": "0a0a48",
    "678": "207768656e",
    "679": "206d6172",
    "680": "696573",
    "681": "697265",
    "682": "20686f6e",
    "683": "206d696e65",
    "684": "6f726e",
    "685": "686172",
    "686": "206f6666",
    "687": "494e43",
    "688": "696e6365",
    "689": "61636b",
    "690": "20736f6e",
    "691": "20646973",
    "692": "0a496e",
    "693": "20616c",
    "694": "0a5765",
    "695": "776e",
    "696": "756368",
    "697": "20686561",
    "698": "6f79",
    "699": "2068656172",
    "700": "2074696d65",
    "701": "6563",
    "702": "0a27",
    "703": "4142",
    "704": "2073756368",
    "705": "6e657373",
    "706": "2062726f74686572",
    "707": "6f756768",
    "708": "20626c6f6f64",
    "709": "6974686572",
    "710": "206162",
    "711": "5545",
    "712": "207468657365",
    "713": "0a576879",
    "714": "0a4f66",
    "715": "2067697665",
    "716": "0a74",
    "717": "20666f",
    "718": "20646179",
    "719": "20656172",
    "720": "204949",
    "721": "2052494348415244",
    "722": "206578",
    "723": "20726f",
    "724": "697365",
    "725": "544552",
    "726": "0a4e6f",
    "727": "206c696665",
    "728": "2074656c6c",
    "729": "656574",
    "730": "554348",
    "731": "206c6f6f6b",
    "732": "207468696e6b",
    "733": "6f756c",
    "734": "20776f7264",
    "735": "206579",
    "736": "207768657265",
    "737": "0a536f",
    "738": "6167",
    "739": "74686572",
    "740": "65656e",
    "741": "616765",
    "742": "0a0a474c4f",
    "743": "2074616b65",
    "744": "55434553",
    "745": "55434553544552",
    "746": "20667269656e64",
    "747": "0a0a474c4f55434553544552",
    "748": "6566",
    "749": "657276",
    "750": "0a0a4669727374",
    "751": "616479",
    "752": "726f776e",
    "753": "696e6773",
    "754": "20646573",
    "755": "617665",
    "756": "6e6f74",
    "757": "75727365",
    "758": "2067656e746c65",
    "759": "5259",
    "760": "207269",
    "761": "0a45",
    "762": "617365",
    "763": "0a486f77",
    "764": "5545454e",
    "765": "0a55",
    "766": "776179",
    "767": "746973",
    "768": "0a0a51",
    "769": "494e43454e54494f",
    "770": "0a0a515545454e",
    "771": "206c6561",
    "772": "204f46",
    "773": "20617274",
    "774": "206d6f7374",
    "775": "0a0a54",
    "776": "554d",
    "777": "20686f6e6f7572",
    "778": "4c414e",
    "779": "206d756368",
    "780": "20776172",
    "781": "20736c",
    "782": "414d",
    "783": "75726e",
    "784": "20666c",
    "785": "206d616465",
    "786": "6d656e74",
    "787": "2068617374",
    "788": "207477",
    "789": "2066656172",
    "790": "0a54686973",
    "791": "6666",
    "792": "0a52",
    "793": "20626574",
    "794": "454e5259",
    "795": "6175676874",
    "796": "0a54686f75",
    "797": "626572",
    "798": "20476f64",
    "799": "766564",
    "800": "0a4973",
    "801": "0a5768657265",
    "802": "20627265",
    "803": "6363",
    "804": "6f776572",
    "805": "206e65766572",
    "806": "2056494e43454e54494f",
    "807": "6170",
    "808": "204b",
    "809": "696768",
    "810": "2066616972",
    "811": "206772656174",
    "812": "6565",
    "813": "746c65",
    "814": "20636f75",
    "815": "206d656e",
    "816": "206e6577",
    "817": "6173746572",
    "818": "0a57686f",
    "819": "20526f6d65",
    "820": "6f72726f77",
    "821": "756b65",
    "822": "697a",
    "823": "2046",
    "824": "6f6c64",
    "825": "0a4265",
    "826": "4f524b",
    "827": "6174696f6e",
    "828": "2070617274",
    "829": "7373",
    "830": "494e495553",
    "831": "726565",
    "832": "696465",
    "833": "0a4e6f77",
    "834": "0a4f72",
    "835": "2063616c6c",
    "836": "706c65",
    "837": "20616e79",
    "838": "2068656176656e",
    "839": "206164",
    "840": "20636f6d6d",
    "841": "207374616e64",
    "842": "2074727565",
    "843": "2063616e6e6f74",
    "844": "65617273",
    "845": "0a596f7572",
    "846": "4457",
    "847": "206265656e",
    "848": "4457415244",
    "849": "206e616d65",
    "850": "20636c",
    "851": "20707265",
    "852": "207377656574",
    "853": "0a4974",
    "854": "2070726179",
    "855": "20646f7468",
    "856": "68696e67",
    "857": "206e6f626c65",
    "858": "0a0a504554",
    "859": "0a0a4c5543",
    "860": "20706c65",
    "861": "617373",
    "862": "206f776e",
    "863": "2044",
    "864": "454f",
    "865": "20706572",
    "866": "6f757365",
    "867": "756c6c",
    "868": "207772",
    "869": "20646f6e65",
    "870": "696665",
    "871": "6177",
    "872": "207472",
    "873": "0a436f6d65",
    "874": "2068656164",
    "875": "20776179",
    "876": "206f74686572",
    "877": "206d65616e",
    "878": "6c69",
    "879": "726564",
    "880": "206e6f72",
    "881": "6477617264",
    "882": "4150",
    "883": "4d454f",
    "884": "207363",
    "885": "2070726573",
    "886": "0a0a524f",
    "887": "0a0a524f4d454f",
    "888": "20736f756c",
    "889": "0a4179",
    "890": "20776f726c64",
    "891": "454e495553",
    "892": "76696e67",
    "893": "2062656172",
    "894": "616365",
    "895": "206e69676874",
    "896": "61696e74",
    "897": "20436c",
    "898": "0a0a4d454e",
    "899": "0a0a4d454e454e495553",
    "900": "676572",
    "901": "61757365",
    "902": "206265666f7265",
    "903": "0a0a4e",
    "904": "20626f7468",
    "905": "20717565656e",
    "906": "706572",
    "907": "5448",
    "908": "61756768746572",
    "909": "0a0a4a",
    "910": "206d6f",
    "911": "20636869",
    "912": "0a0a50455452",
    "913": "0a0a50455452554348",
    "914": "0a0a50455452554348494f",
    "915": "4f4d",
    "916": "61626c65",
    "917": "2064656164",
    "918": "2076657279",
    "919": "544553",
    "920": "0a77",
    "921": "697465",
    "922": "207261",
    "923": "206b65",
    "924": "0a4279",
    "925": "6162",
    "926": "6c6573",
    "927": "0a73",
    "928": "20646f776e",
    "929": "20636f6e74",
    "930": "206d7973656c66",
    "931": "20617070",
    "932": "0a5468616e",
    "933": "2072656d",
    "934": "207768",
    "935": "2061726d",
    "936": "0a5768656e",
    "937": "204c6f7264",
    "938": "0a0a4752",
    "939": "4f52494f",
    "940": "2074687573",
    "941": "696c74",
    "942": "4c414e5553",
    "943": "4f52494f4c414e5553",
    "944": "0a0a536563",
    "945": "0a5468656e",
    "946": "206c65617665",
    "947": "0a0a434f52494f4c414e5553",
    "948": "0a0a5365636f6e64",
    "949": "6c6f",
    "950": "6374696f6e",
    "951": "206265696e67",
    "952": "20456477617264",
    "953": "20756e74",
    "954": "0a5468657265",
    "955": "72657373",
    "956": "206772616365",
    "957": "20626567",
    "958": "2065796573",
    "959": "206d6f74686572",
    "960": "6c657373",
    "961": "6c616e64",
    "962": "72616e",
    "963": "206d61",
    "964": "206f6c64",
    "965": "20696d",
    "966": "494e41",
    "967": "20454457415244",
    "968": "697a656e",
    "969": "6974697a656e",
    "970": "2065766572",
    "971": "204d6172",
    "972": "7377",
    "973": "7073",
    "974": "0a0a414e",
    "975": "206c6f6e67",
    "976": "6d65",
    "977": "4153",
    "978": "206c697665",
    "979": "206368696c64",
    "980": "2077696665",
    "981": "0a4c6574",
    "982": "20494949",
    "983": "20726570",
    "984": "2061776179",
    "985": "204e",
    "986": "20776f6d",
    "987": "20696e74",
    "988": "20706f6f72",
    "989": "20667269656e6473",
    "990": "666f72",
    "991": "206166",
    "992": "206d69676874",
    "993": "636f6d65",
    "994": "6e646572",
    "995": "2073746179",
    "996": "65616365",
    "997": "6b73",
    "998": "6f7564",
    "999": "6c6564",
    "1000": "61746368",
    "1001": "7769636b",
    "1002": "20646965",
    "1003": "204a",
    "1004": "207275",
    "1005": "20636f6d6573",
    "1006": "20636f6e73",
    "1007": "61727769636b",
    "1008": "6f7773",
    "1009": "2063726f776e",
    "1010": "206d616e79",
    "1011": "207065",
    "1012": "546973",
    "1013": "4144",
    "1014": "206c65",
    "1015": "68616c6c",
    "1016": "69736f6e",
    "1017": "20594f524b",
    "1018": "697373",
    "1019": "4c41",
    "1020": "0a0a56",
    "1021": "20686172",
    "1022": "2074686f75676874",
    "1023": "2072657374",
    "1024": "75636b",
    "1025": "49534142",
    "1026": "49534142454c",
    "1027": "20686f757365",
    "1028": "49534142454c4c41",
    "1029": "0a0a49534142454c4c41",
    "1030": "69616e",
    "1031": "657263",
    "1032": "20636f7572",
    "1033": "20656e74",
    "1034": "206c6965",
    "1035": "52414e",
    "1036": "636865",
    "1037": "696e74",
    "1038": "20736574",
    "1039": "6f7273",
    "1040": "6174746572",
    "1041": "0a0a4a55",
    "1042": "0a0a4a554c49",
    "1043": "0a0a4c45",
    "1044": "4f4e544553",
    "1045": "205761727769636b",
    "1046": "0a0a4a554c494554",
    "1047": "0a0a4c454f4e544553",
    "1048": "20676f6e65",
    "1049": "20626574746572",
    "1050": "6974746c65",
    "1051": "206461756768746572",
    "1052": "414c",
    "1053": "657265",
    "1054": "6f75676874",
    "1055": "72616e74",
    "1056": "207072696e6365",
    "1057": "20776974",
    "1058": "0a486973",
    "1059": "20746f6e67",
    "1060": "206e6f7468696e67",
    "1061": "414459",
    "1062": "4345",
    "1063": "454e4345",
    "1064": "77656c6c",
    "1065": "0a0a4c414459",
    "1066": "696564",
    "1067": "5441",
    "1068": "206b656570",
    "1069": "6f73",
    "1070": "0a0a52",
    "1071": "206e657773",
    "1072": "636573",
    "1073": "20736c65",
    "1074": "68617264",
    "1075": "20726573",
    "1076": "696f7573",
    "1077": "696572",
    "1078": "6674",
    "1079": "6f6e74",
    "1080": "726574",
    "1081": "6f6f6c",
    "1082": "20677269",
    "1083": "20747269",
    "1084": "0a57656c6c",
    "1085": "0a0a534943",
    "1086": "0a0a534943494e495553",
    "1087": "0a476f",
    "1088": "756e65",
    "1089": "2074686f7365",
    "1090": "20616761696e7374",
    "1091": "206c6f726473",
    "1092": "206c6974746c65",
    "1093": "666f7264",
    "1094": "20686f7572",
    "1095": "2062657374",
    "1096": "616b6573",
    "1097": "6172646f6e",
    "1098": "0a48657265",
    "1099": "2068656e6365",
    "1100": "0a746865",
    "1101": "6c7365",
    "1102": "736564",
    "1103": "2066616365",
    "1104": "756c74",
    "1105": "20666f6c6c",
    "1106": "20616363",
    "1107": "7564",
    "1108": "0a4e6179",
    "1109": "61726b",
    "1110": "4559",
    "1111": "0a0a57",
    "1112": "20656e64",
    "1113": "0a4f6e",
    "1114": "0a4e6f74",
    "1115": "20796f756e67",
    "1116": "6577",
    "1117": "207374696c6c",
    "1118": "6f726b",
    "1119": "207468696e67",
    "1120": "206b696e64",
    "1121": "69656c64",
    "1122": "0a0a4155",
    "1123": "0a62",
    "1124": "20707269",
    "1125": "20707572",
    "1126": "616c6b",
    "1127": "20636f6d70",
    "1128": "0a0a4c5543494f",
    "1129": "696e73",
    "1130": "20707574",
    "1131": "657274",
    "1132": "204956",
    "1133": "616c65",
    "1134": "20706f776572",
    "1135": "2074776f",
    "1136": "696368617264",
    "1137": "656374",
    "1138": "20636861",
    "1139": "2068696d73656c66",
    "1140": "636c",
    "1141": "206775",
    "1142": "72696564",
    "1143": "2064656172",
    "1144": "696e657373",
    "1145": "63696f7573",
    "1146": "207065616365",
    "1147": "0a0a434c",
    "1148": "206669727374",
    "1149": "20656c7365",
    "1150": "61696c",
    "1151": "61736f6e",
    "1152": "0a0a4252",
    "1153": "68696c65",
    "1154": "20737562",
    "1155": "20756e746f",
    "1156": "2074696c6c",
    "1157": "7479",
    "1158": "726179",
    "1159": "20736d",
    "1160": "696c65",
    "1161": "757479",
    "1162": "20776f726473",
    "1163": "455448",
    "1164": "20747261",
    "1165": "20636f",
    "1166": "20626964",
    "1167": "20647265",
    "1168": "207468657265666f7265",
    "1169": "20454c49",
    "1170": "0a536972",
    "1171": "20687573",
    "1172": "0a546879",
    "1173": "206561727468",
    "1174": "206261636b",
    "1175": "5a4142",
    "1176": "5a4142455448",
    "1177": "20454c495a4142455448",
    "1178": "20636f756e74",
    "1179": "6d656e",
    "1180": "79616c",
    "1181": "20636f756c64",
    "1182": "62616e64",
    "1183": "697573",
    "1184": "2066696e64",
    "1185": "20746f6e677565",
    "1186": "6f706c65",
    "1187": "0a63",
    "1188": "6f727365",
    "1189": "206e656564",
    "1190": "49414e",
    "1191": "207468696e65",
    "1192": "206c616479",
    "1193": "20596f726b",
    "1194": "2068696768",
    "1195": "72656e",
    "1196": "20686f7065",
    "1197": "657468",
    "1198": "20666f727468",
    "1199": "2066656c6c",
    "1200": "656e7279",
    "1201": "0a48617665",
    "1202": "0a0a48454e5259",
    "1203": "2068656c",
    "1204": "20686f6d65",
    "1205": "207365656d",
    "1206": "76657265",
    "1207": "676574",
    "1208": "65656368",
    "1209": "20526f6d656f",
    "1210": "2068757362616e64",
    "1211": "0a5374",
    "1212": "207269676874",
    "1213": "2064756b65",
    "1214": "7477",
    "1215": "415257",
    "1216": "2074686f756768",
    "1217": "2062616e",
    "1218": "49434b",
    "1219": "757468",
    "1220": "666f7274",
    "1221": "2057686174",
    "1222": "205649",
    "1223": "0a0a57415257",
    "1224": "0a0a5741525749434b",
    "1225": "6978",
    "1226": "20636865",
    "1227": "5554",
    "1228": "6973746572",
    "1229": "415354",
    "1230": "20627261",
    "1231": "616368",
    "1232": "686970",
    "1233": "2048454e5259",
    "1234": "206d696e64",
    "1235": "2063686172",
    "1236": "2070656f706c65",
    "1237": "697264",
    "1238": "676564",
    "1239": "20436974697a656e",
    "1240": "48414d",
    "1241": "20747265",
    "1242": "2048656e7279",
    "1243": "656564",
    "1244": "554c",
    "1245": "0a536865",
    "1246": "206368616e",
    "1247": "2052696368617264",
    "1248": "205468",
    "1249": "4150554c",
    "1250": "20627269",
    "1251": "2073686f77",
    "1252": "20636f6e66",
    "1253": "2068616e6473",
    "1254": "206c6177",
    "1255": "4150554c4554",
    "1256": "20676c",
    "1257": "206f6e6365",
    "1258": "206361757365",
    "1259": "206d6173746572",
    "1260": "20776879",
    "1261": "2073616964",
    "1262": "20696d70",
    "1263": "494c",
    "1264": "4745",
    "1265": "657276616e74",
    "1266": "206e6f6e65",
    "1267": "4d494f",
    "1268": "20626f64",
    "1269": "6f7573696e",
    "1270": "206a6f79",
    "1271": "6274",
    "1272": "20666f7274",
    "1273": "206272696e67",
    "1274": "0a5368616c6c",
    "1275": "20646f75",
    "1276": "61746573",
    "1277": "0a596574",
    "1278": "55434b494e47",
    "1279": "55434b494e4748414d",
    "1280": "206576657279",
    "1281": "0a0a42525554",
    "1282": "0a0a425255545553",
    "1283": "0a46726f6d",
    "1284": "6473",
    "1285": "524f4b45",
    "1286": "726572",
    "1287": "2070617373",
    "1288": "696574",
    "1289": "206c69676874",
    "1290": "0a4e6f72",
    "1291": "494e4742",
    "1292": "455353",
    "1293": "0a476f6f64",
    "1294": "4f4c494e4742",
    "1295": "206d697374",
    "1296": "0a0a5452414e",
    "1297": "0a0a5452414e494f",
    "1298": "0a0a4255434b494e4748414d",
    "1299": "20424f4c494e4742",
    "1300": "20424f4c494e4742524f4b45",
    "1301": "6c74",
    "1302": "20776f",
    "1303": "73776572",
    "1304": "20746872",
    "1305": "206e6174",
    "1306": "766f7374",
    "1307": "0a0a4e75727365",
    "1308": "20726f79616c",
    "1309": "544953",
    "1310": "617279",
    "1311": "697473",
    "1312": "636c65",
    "1313": "20706c65617365",
    "1314": "0a57696c6c",
    "1315": "207465617273",
    "1316": "204d4152",
    "1317": "0a446f",
    "1318": "2077686f7365",
    "1319": "7679",
    "1320": "6c66",
    "1321": "726f6b65",
    "1322": "6f7279",
    "1323": "6f636b",
    "1324": "20416e",
    "1325": "20706172646f6e",
    "1326": "474152",
    "1327": "4e45",
    "1328": "2066756c6c",
    "1329": "20626573",
    "1330": "0a0a4b",
    "1331": "2077726f6e67",
    "1332": "20646576",
    "1333": "206865617264",
    "1334": "2068617070",
    "1335": "2070726573656e74",
    "1336": "61727279",
    "1337": "4741524554",
    "1338": "204d41524741524554",
    "1339": "2063616d65",
    "1340": "206a757374",
    "1341": "706f7365",
    "1342": "20626f79",
    "1343": "2073696e6365",
    "1344": "206d6973",
    "1345": "206c616e64",
    "1346": "656e73",
    "1347": "207374617465",
    "1348": "20657265",
    "1349": "206c617374",
    "1350": "20546865",
    "1351": "65656c",
    "1352": "415448",
    "1353": "20706c616365",
    "1354": "414d494c",
    "1355": "206d656574",
    "1356": "6d62",
    "1357": "73616e64",
    "1358": "206166746572",
    "1359": "0a54686579",
    "1360": "206b696c6c",
    "1361": "20756e646572",
    "1362": "63656e74",
    "1363": "47454c4f",
    "1364": "65737479",
    "1365": "6974696f6e",
    "1366": "4f5244",
    "1367": "2063617265",
    "1368": "0a0a475245",
    "1369": "20686f6c64",
    "1370": "2074686f7573616e64",
    "1371": "0a0a414e47454c4f",
    "1372": "20736f72726f77",
    "1373": "0a4f7572",
    "1374": "20666f6c6c6f77",
    "1375": "6172656e6365",
    "1376": "2077686f6d",
    "1377": "2068656c70",
    "1378": "4152494e41",
    "1379": "6365697665",
    "1380": "646179",
    "1381": "20666172",
    "1382": "697274",
    "1383": "63697573",
    "1384": "2077656570",
    "1385": "20657965",
    "1386": "73656c766573",
    "1387": "206c657373",
    "1388": "20656e656d",
    "1389": "20686974686572",
    "1390": "2061626f7574",
    "1391": "207368616d65",
    "1392": "0a0a4b415448",
    "1393": "0a0a4b4154484152494e41",
    "1394": "6f6e73",
    "1395": "20616e73776572",
    "1396": "20706174",
    "1397": "2073756e",
    "1398": "2066616c",
    "1399": "696f6c",
    "1400": "75726465",
    "1401": "20666f6f6c",
    "1402": "616972",
    "1403": "6173757265",
    "1404": "206368",
    "1405": "2066616c6c",
    "1406": "206d616964",
    "1407": "206f62",
    "1408": "706f6e",
    "1409": "20627573",
    "1410": "746879",
    "1411": "0a0a4553",
    "1412": "0a0a455343",
    "1413": "6f756e74",
    "1414": "206772696566",
    "1415": "2068617465",
    "1416": "204b696e67",
    "1417": "2067656e746c656d616e",
    "1418": "0a556e",
    "1419": "414c5553",
    "1420": "0a0a455343414c5553",
    "1421": "2067726163696f7573",
    "1422": "20636f7573696e",
    "1423": "6f7665",
    "1424": "696d6573",
    "1425": "2073747269",
    "1426": "206d616b6573",
    "1427": "20696e746f",
    "1428": "6a656374",
    "1429": "6976",
    "1430": "696c64",
    "1431": "2073747265",
    "1432": "20456e67",
    "1433": "20776f6d616e",
    "1434": "0a48617468",
    "1435": "20636f757274",
    "1436": "20636f756e",
    "1437": "6c696e67",
    "1438": "0a416e",
    "1439": "616c74",
    "1440": "20646f7374",
    "1441": "69636573",
    "1442": "2068756d",
    "1443": "75726465726572",
    "1444": "0a0a44554348",
    "1445": "207475726e",
    "1446": "0a0a44554348455353",
    "1447": "2044756b65",
    "1448": "20736c656570",
    "1449": "20636f6d666f7274",
    "1450": "20626f6479",
    "1451": "2062656c",
    "1452": "70686572",
    "1453": "69746f72",
    "1454": "206f766572",
    "1455": "455243",
    "1456": "2074616c6b",
    "1457": "206275",
    "1458": "206772",
    "1459": "757465",
    "1460": "2077696c74",
    "1461": "64656564",
    "1462": "6d6f72726f77",
    "1463": "67656c6f",
    "1464": "204d617263697573",
    "1465": "2069",
    "1466": "4941",
    "1467": "2070726f7665",
    "1468": "69736564",
    "1469": "20626564",
    "1470": "726f766f7374",
    "1471": "20617474",
    "1472": "69657665",
    "1473": "20706c6179",
    "1474": "69656e6365",
    "1475": "414d494c4c4f",
    "1476": "0a0a43414d494c4c4f",
    "1477": "206661756c74",
    "1478": "20436c6172656e6365",
    "1479": "20726574",
    "1480": "616e73",
    "1481": "616465",
    "1482": "0a6d",
    "1483": "2077656c",
    "1484": "696c79",
    "1485": "20696e7374",
    "1486": "207468616e6b",
    "1487": "6f6d6574",
    "1488": "20647261",
    "1489": "2064656564",
    "1490": "4f5254",
    "1491": "20736f756e64",
    "1492": "20736572",
    "1493": "20626f",
    "1494": "206669676874",
    "1495": "454e53",
    "1496": "696c6c61696e",
    "1497": "686f6c64",
    "1498": "20766f",
    "1499": "2073776f7264",
    "1500": "20416e67656c6f",
    "1501": "0a0a484f5254",
    "1502": "2066616c7365",
    "1503": "20696e64656564",
    "1504": "0a0a484f5254454e53",
    "1505": "0a5368",
    "1506": "494152",
    "1507": "20616476",
    "1508": "52494152",
    "1509": "206772617665",
    "1510": "206576656e",
    "1511": "20757365",
    "1512": "20736f76657265",
    "1513": "20616e6f74686572",
    "1514": "2066656c6c6f77",
    "1515": "6c6f776e",
    "1516": "0a0a484f5254454e53494f",
    "1517": "0a0a4652494152",
    "1518": "0a70",
    "1519": "5449535441",
    "1520": "41505449535441",
    "1521": "20686173",
    "1522": "757279",
    "1523": "20637572",
    "1524": "65616c",
    "1525": "0a0a4241505449535441",
    "1526": "70656374",
    "1527": "2062616e697368",
    "1528": "20666f7274756e65",
    "1529": "6d70",
    "1530": "2077616e74",
    "1531": "66656374",
    "1532": "20707269736f6e",
    "1533": "20617373",
    "1534": "5943",
    "1535": "0a416c6c",
    "1536": "20636f756e747279",
    "1537": "6f756368",
    "1538": "2073656e64",
    "1539": "20726576656e",
    "1540": "20646f756274",
    "1541": "0a0a415554",
    "1542": "0a0a4155544f4c",
    "1543": "20726174686572",
    "1544": "206d657263",
    "1545": "0a0a434f4d",
    "1546": "206d6174746572",
    "1547": "0a55706f6e",
    "1548": "59435553",
    "1549": "0a0a434f4d494e495553",
    "1550": "0a0a4155544f4c59435553",
    "1551": "0a4576656e",
    "1552": "0a79",
    "1553": "4152454e4345",
    "1554": "0a417265",
    "1555": "206c696573",
    "1556": "206f6e6c79",
    "1557": "2077697368",
    "1558": "207965617273",
    "1559": "20726561736f6e",
    "1560": "207472757468",
    "1561": "2076697274",
    "1562": "616e79",
    "1563": "696f72",
    "1564": "6f66",
    "1565": "6d73",
    "1566": "0a0a5468",
    "1567": "0a576f756c64",
    "1568": "0a64",
    "1569": "72616e6365",
    "1570": "2064616e",
    "1571": "70656e",
    "1572": "0a4d6f7265",
    "1573": "2070657273",
    "1574": "454e4553",
    "1575": "0a0a434c4152454e4345",
    "1576": "20427574",
    "1577": "0a0a50726f766f7374",
    "1578": "0a0a5468697264",
    "1579": "20627265617468",
    "1580": "2061726d73",
    "1581": "20647265616d",
    "1582": "7068657264",
    "1583": "656e6572",
    "1584": "646572",
    "1585": "6464",
    "1586": "206769",
    "1587": "2073656e74",
    "1588": "454e56",
    "1589": "2073747261",
    "1590": "2064697363",
    "1591": "0a0a4e4f52",
    "1592": "207368616c74",
    "1593": "4f4c494f",
    "1594": "454e564f4c494f",
    "1595": "0a0a42454e564f4c494f",
    "1596": "0a0a436c6f776e",
    "1597": "20627573696e657373",
    "1598": "5350",
    "1599": "53504552",
    "1600": "20656e6f756768",
    "1601": "686564",
    "1602": "2073656e",
    "1603": "0a4174",
    "1604": "535045524f",
    "1605": "0a0a50524f",
    "1606": "0a0a4d4152",
    "1607": "2070726f6d",
    "1608": "657276696e67",
    "1609": "20686f6c79",
    "1610": "554d494f",
    "1611": "0a0a4752554d494f",
    "1612": "20636f6d6d616e64",
    "1613": "0a0a50524f535045524f",
    "1614": "61746f72",
    "1615": "617273",
    "1616": "6961",
    "1617": "0a66",
    "1618": "2066617265",
    "1619": "20736561",
    "1620": "697474",
    "1621": "2068616e67",
    "1622": "20626561",
    "1623": "6b656e",
    "1624": "2070726f7564",
    "1625": "20637261",
    "1626": "45524355",
    "1627": "206c6179",
    "1628": "204d75726465726572",
    "1629": "207377656172",
    "1630": "20736f6c64",
    "1631": "2073706972",
    "1632": "20636f6e74656e74",
    "1633": "2070697479",
    "1634": "2077696e64",
    "1635": "20737472616e",
    "1636": "4552435554494f",
    "1637": "0a0a4d4552435554494f",
    "1638": "0a68",
    "1639": "2064617265",
    "1640": "20736563",
    "1641": "204b617465",
    "1642": "0a416c",
    "1643": "65746572",
    "1644": "696b65",
    "1645": "20646570",
    "1646": "0a476f64",
    "1647": "206c69766573",
    "1648": "6761696e7374",
    "1649": "0a0a4c5543454e54494f",
    "1650": "2072656d656d",
    "1651": "206e6174757265",
    "1652": "2077656c636f6d65",
    "1653": "2076696c6c61696e",
    "1654": "0a0a504f4d",
    "1655": "6579",
    "1656": "20736f7665726569676e",
    "1657": "2077697468696e",
    "1658": "206b697373",
    "1659": "20676574",
    "1660": "68616d",
    "1661": "0a0a45",
    "1662": "756e74",
    "1663": "20677265",
    "1664": "206d6164616d",
    "1665": "6573746572",
    "1666": "20436f6d65",
    "1667": "2074656e64",
    "1668": "20736177",
    "1669": "0a0a504f4d50",
    "1670": "4c414e44",
    "1671": "2066726565",
    "1672": "20676f6473",
    "1673": "206861707079",
    "1674": "4c494e41",
    "1675": "76657273",
    "1676": "68616c",
    "1677": "0a0a59",
    "1678": "20666f756c",
    "1679": "20736f6d6574",
    "1680": "0a0a504155",
    "1681": "0a0a5041554c494e41",
    "1682": "2062657365656368",
    "1683": "2063697479",
    "1684": "617074",
    "1685": "0a57657265",
    "1686": "2073657276",
    "1687": "20736973746572",
    "1688": "657279",
    "1689": "676574686572",
    "1690": "7962",
    "1691": "2064656e",
    "1692": "757365",
    "1693": "69656e74",
    "1694": "61677565",
    "1695": "20796f757273",
    "1696": "20627265616b",
    "1697": "206f617468",
    "1698": "6f6e646572",
    "1699": "0a0a504f4d504559",
    "1700": "207468726565",
    "1701": "206d65616e73",
    "1702": "0a0a4752454d494f",
    "1703": "207969656c64",
    "1704": "0a0a594f524b",
    "1705": "207375626a656374",
    "1706": "204e6f72",
    "1707": "616e63",
    "1708": "206177",
    "1709": "206d6572",
    "1710": "4f4c554d",
    "1711": "58454e4553",
    "1712": "20626f726e",
    "1713": "75736963",
    "1714": "63686573",
    "1715": "20686f727365",
    "1716": "206c6f6f6b73",
    "1717": "20626c6f6f6479",
    "1718": "4f4c554d4e",
    "1719": "4c4958454e4553",
    "1720": "4f4c4958454e4553",
    "1721": "0a0a504f4c4958454e4553",
    "1722": "6c696b65",
    "1723": "656674",
    "1724": "207468696e6773",
    "1725": "0a0a414e54",
    "1726": "207768696c65",
    "1727": "7962616c74",
    "1728": "0a0a564f4c554d4e",
    "1729": "0a0a564f4c554d4e4941",
    "1730": "756573",
    "1731": "2073757070",
    "1732": "0a0a41",
    "1733": "2077696e",
    "1734": "206d616a",
    "1735": "2073706f",
    "1736": "206661697468",
    "1737": "494e4753",
    "1738": "415354494e4753",
    "1739": "2053657276696e67",
    "1740": "2053657276696e676d616e",
    "1741": "726f6e67",
    "1742": "2074656d",
    "1743": "2066697265",
    "1744": "20796f757273656c66",
    "1745": "20776f756e64",
    "1746": "656e676572",
    "1747": "63656e74696f",
    "1748": "2074726169746f72",
    "1749": "6279",
    "1750": "206368696c6472656e",
    "1751": "20647275",
    "1752": "72656d",
    "1753": "65727461696e",
    "1754": "204c4155",
    "1755": "206c616d",
    "1756": "0a536179",
    "1757": "52454e4345",
    "1758": "657373656e676572",
    "1759": "206d61726b",
    "1760": "204c415552454e4345",
    "1761": "206d69737472657373",
    "1762": "20636f6d6d6f6e",
    "1763": "62726f6b65",
    "1764": "0a0a48415354494e4753",
    "1765": "0a4b",
    "1766": "4259",
    "1767": "2062656174",
    "1768": "2072657175",
    "1769": "424552",
    "1770": "2076616c",
    "1771": "0a486572",
    "1772": "20646566",
    "1773": "20636f6e64",
    "1774": "206d616a65737479",
    "1775": "666f726d",
    "1776": "20756e636c65",
    "1777": "2064617973",
    "1778": "206c656674",
    "1779": "2073696e",
    "1780": "4646",
    "1781": "207365656e",
    "1782": "68656e",
    "1783": "20746f6c64",
    "1784": "206d6574",
    "1785": "20736f6f6e",
    "1786": "5448554d",
    "1787": "0a576173",
    "1788": "0a616e64",
    "1789": "206c617465",
    "1790": "20616666",
    "1791": "2073617665",
    "1792": "20776f65",
    "1793": "0a0a4e4f525448554d",
    "1794": "0a0a4e4f525448554d424552",
    "1795": "0a0a4e4f525448554d4245524c414e44",
    "1796": "20456e676c616e64",
    "1797": "2074656e646572",
    "1798": "4c494646",
    "1799": "0a4c6f6f6b",
    "1800": "69646573",
    "1801": "4944",
    "1802": "206d6f6e",
    "1803": "74656e",
    "1804": "72696e67",
    "1805": "0a54616b65",
    "1806": "69646f77",
    "1807": "65766572",
    "1808": "20646f6573",
    "1809": "207369676874",
    "1810": "2067656e6572",
    "1811": "2072657475726e",
    "1812": "206d65726379",
    "1813": "206661726577656c6c",
    "1814": "6163",
    "1815": "20414e",
    "1816": "686573",
    "1817": "646f6d",
    "1818": "20707572706f7365",
    "1819": "20736974",
    "1820": "72656c",
    "1821": "20736164",
    "1822": "206d61727279",
    "1823": "20666f6f74",
    "1824": "74657273",
    "1825": "20676f6c64",
    "1826": "2064656570",
    "1827": "756e6573",
    "1828": "204a756c",
    "1829": "2077617272616e74",
    "1830": "20414e4e45",
    "1831": "207468726f756768",
    "1832": "206865617679",
    "1833": "2064616e676572",
    "1834": "52494e43",
    "1835": "20696c6c",
    "1836": "0a47697665",
    "1837": "0a56",
    "1838": "2073757265",
    "1839": "20726563",
    "1840": "756e64",
    "1841": "206465736572",
    "1842": "20746f676574686572",
    "1843": "0a4168",
    "1844": "696374",
    "1845": "6966666f7264",
    "1846": "656e7479",
    "1847": "61696d",
    "1848": "6f757273",
    "1849": "2067726f77",
    "1850": "6561726e",
    "1851": "2063686f",
    "1852": "455244",
    "1853": "0a0a434150554c4554",
    "1854": "0a446964",
    "1855": "0a54686f756768",
    "1856": "206e75727365",
    "1857": "6d656e7473",
    "1858": "20636f6c64",
    "1859": "69676e696f72",
    "1860": "0a0a5052494e43",
    "1861": "0a0a5052494e4345",
    "1862": "6d6572",
    "1863": "706c",
    "1864": "617a",
    "1865": "6361",
    "1866": "726f7373",
    "1867": "6f6c696e67",
    "1868": "63656564",
    "1869": "76656e74",
    "1870": "616964",
    "1871": "2061736b",
    "1872": "757368",
    "1873": "2062656c69657665",
    "1874": "0a7468",
    "1875": "206c6f7374",
    "1876": "2074696d6573",
    "1877": "20776974686f7574",
    "1878": "6f696e74",
    "1879": "20737069726974",
    "1880": "207265706f7274",
    "1881": "20706c75636b",
    "1882": "206c69656765",
    "1883": "61726577656c6c",
    "1884": "6f72696f6c",
    "1885": "6f6c696e6762726f6b65",
    "1886": "7874",
    "1887": "20616972",
    "1888": "20776174",
    "1889": "696674",
    "1890": "6f757468",
    "1891": "2068656972",
    "1892": "2074687973656c66",
    "1893": "657473",
    "1894": "61696e73",
    "1895": "20426f6c696e6762726f6b65",
    "1896": "20616765",
    "1897": "206c6f7373",
    "1898": "2073617973",
    "1899": "204d6f6e74",
    "1900": "0a57686f7365",
    "1901": "0a4f6e65",
    "1902": "20737472616e6765",
    "1903": "6e6f",
    "1904": "6e6572",
    "1905": "7570",
    "1906": "616b696e67",
    "1907": "20626174",
    "1908": "636564",
    "1909": "2073756666",
    "1910": "206861737465",
    "1911": "0a486164",
    "1912": "69616c",
    "1913": "20637279",
    "1914": "2067726f756e64",
    "1915": "20656e7472656174",
    "1916": "2065617273",
    "1917": "206c6561726e",
    "1918": "0a53686f756c64",
    "1919": "20646576696c",
    "1920": "20706572736f6e",
    "1921": "204a756c696574",
    "1922": "20436c6966666f7264",
    "1923": "20736c61696e",
    "1924": "6c6574",
    "1925": "2066617374",
    "1926": "626c",
    "1927": "206d7572",
    "1928": "676573",
    "1929": "204672616e6365",
    "1930": "20666c79",
    "1931": "696e6564",
    "1932": "6f6d616e",
    "1933": "207374726169676874",
    "1934": "2070617374",
    "1935": "20706f696e74",
    "1936": "6e69676874",
    "1937": "617564",
    "1938": "20766973",
    "1939": "204c75",
    "1940": "2072656d656d626572",
    "1941": "20746f77617264",
    "1942": "206672696172",
    "1943": "2064697370",
    "1944": "697874",
    "1945": "2062657477",
    "1946": "206a757374696365",
    "1947": "0a4c696b65",
    "1948": "696e61",
    "1949": "20626561757479",
    "1950": "7574696f6e",
    "1951": "4c45",
    "1952": "0a0a464c",
    "1953": "0a0a464c4f52",
    "1954": "2073696c",
    "1955": "495a",
    "1956": "0a536f6d65",
    "1957": "206f7264",
    "1958": "0a0a4c6f7264",
    "1959": "2073657276696365",
    "1960": "206375727365",
    "1961": "206e656172",
    "1962": "20626f6c64",
    "1963": "207472757374",
    "1964": "656e746c656d616e",
    "1965": "20717569636b",
    "1966": "20616c6f6e65",
    "1967": "20646573697265",
    "1968": "495a454c",
    "1969": "0a0a464c4f52495a454c",
    "1970": "20776f72746879",
    "1971": "0a0a415546",
    "1972": "20434150554c4554",
    "1973": "20696e73747275",
    "1974": "68657068657264",
    "1975": "207374726f6e67",
    "1976": "4944495553",
    "1977": "0a0a4155464944495553",
    "1978": "6773",
    "1979": "0a67",
    "1980": "0a5768",
    "1981": "2072756e",
    "1982": "69746865",
    "1983": "6164616d",
    "1984": "204973",
    "1985": "0a43616e",
    "1986": "207265616479",
    "1987": "494f4e",
    "1988": "20706f7373",
    "1989": "2068617264",
    "1990": "75726564",
    "1991": "0a5468657265666f7265",
    "1992": "20666f756e64",
    "1993": "20746f756368",
    "1994": "2062726f75676874",
    "1995": "20656e656d79",
    "1996": "20726576656e6765",
    "1997": "20547962616c74",
    "1998": "2067656e6572616c",
    "1999": "617564696f",
    "2000": "206c6f7365",
    "2001": "73686970",
    "2002": "766f",
    "2003": "2053656e",
    "2004": "2053656e61746f72",
    "2005": "6273",
    "2006": "20776f6f",
    "2007": "61756e74",
    "2008": "20626563",
    "2009": "69626c65",
    "2010": "206d617272696564",
    "2011": "20696e66",
    "2012": "6e696e67",
    "2013": "206b6e6f7773",
    "2014": "696e6b73",
    "2015": "2063616e7374",
    "2016": "616d696c6c",
    "2017": "20697473656c66",
    "2018": "455253",
    "2019": "2048657265",
    "2020": "2074686f7567687473",
    "2021": "63657074",
    "2022": "756d626572",
    "2023": "20636861726765",
    "2024": "206772616e74",
    "2025": "2064757479",
    "2026": "63686564",
    "2027": "20697373",
    "2028": "6775",
    "2029": "2077656172",
    "2030": "0a416761696e7374",
    "2031": "4542",
    "2032": "7561",
    "2033": "6c6f75",
    "2034": "656c73",
    "2035": "2072656164",
    "2036": "20696e63",
    "2037": "4542415354",
    "2038": "0a4861",
    "2039": "0a5468657365",
    "2040": "0a5370",
    "2041": "0a4d6179",
    "2042": "43495553",
    "2043": "0a426563",
    "2044": "656570",
    "2045": "207370656564",
    "2046": "206d61727269",
    "2047": "2071756172",
    "2048": "0a0a52494348415244",
    "2049": "2070726f66",
    "2050": "20596f75",
    "2051": "206d6f726e",
    "2052": "0a746f",
    "2053": "207477656e7479",
    "2054": "207374616e6473",
    "2055": "2064656c69",
    "2056": "454241535449414e",
    "2057": "0a0a53454241535449414e",
    "2058": "6974686565",
    "2059": "20686f757273",
    "2060": "636573746572",
    "2061": "20636f6e66657373",
    "2062": "20737472656e67",
    "2063": "6f6e6573",
    "2064": "20636172",
    "2065": "6f70",
    "2066": "616d696c6c6f",
    "2067": "0a61",
    "2068": "4f57",
    "2069": "20667572",
    "2070": "6f6f70",
    "2071": "20646976",
    "2072": "2068656c6c",
    "2073": "20706f7374",
    "2074": "206665617266756c",
    "2075": "20666f7265",
    "2076": "20796f757468",
    "2077": "0a54656c6c",
    "2078": "205269",
    "2079": "6f6c6b",
    "2080": "206d6f636b",
    "2081": "2048617374",
    "2082": "206669656c64",
    "2083": "756d70",
    "2084": "2065786563",
    "2085": "66656374696f6e",
    "2086": "75636b696e67",
    "2087": "206a7564",
    "2088": "2068616c66",
    "2089": "20636f756e73656c",
    "2090": "0a0a5368657068657264",
    "2091": "20746572",
    "2092": "494f4e44",
    "2093": "20436f72696f6c",
    "2094": "0a54696c6c",
    "2095": "206d696e",
    "2096": "207265736f6c",
    "2097": "2077726574",
    "2098": "20706172",
    "2099": "6f7274616c",
    "2100": "6f6c73",
    "2101": "6f736f6d",
    "2102": "70617265",
    "2103": "616473",
    "2104": "616c6d",
    "2105": "0a0a42494f4e44",
    "2106": "0a0a42494f4e44454c",
    "2107": "2074726962",
    "2108": "2064656c",
    "2109": "63657373",
    "2110": "6c6f75636573746572",
    "2111": "0a0a42494f4e44454c4c4f",
    "2112": "20776f726b",
    "2113": "204d6f6e7461677565",
    "2114": "20686561727473",
    "2115": "2064657370",
    "2116": "20436c617564696f",
    "2117": "2065616368",
    "2118": "6974697a656e73",
    "2119": "206265686f6c64",
    "2120": "0a0a4d415243495553",
    "2121": "206d61727269616765",
    "2122": "75636b696e6768616d",
    "2123": "20626f736f6d",
    "2124": "2074616c65",
    "2125": "20746974",
    "2126": "656e6368",
    "2127": "207965",
    "2128": "20637574",
    "2129": "2074656e",
    "2130": "6e6f77",
    "2131": "206861726d",
    "2132": "0a41776179",
    "2133": "726168",
    "2134": "2073686f7274",
    "2135": "20626f756e64",
    "2136": "20737472696b65",
    "2137": "2064616d",
    "2138": "0a436f6d",
    "2139": "69657273",
    "2140": "0a50726f",
    "2141": "206b6e6f776e",
    "2142": "204275636b696e6768616d",
    "2143": "207365656b",
    "2144": "20636f6d70616e79",
    "2145": "206775696c74",
    "2146": "20436170",
    "2147": "20686967686e657373",
    "2148": "20617474656e64",
    "2149": "207365727665",
    "2150": "206f70656e",
    "2151": "206d7572646572",
    "2152": "2048617374696e6773",
    "2153": "666f6c6b",
    "2154": "5477",
    "2155": "656e7473",
    "2156": "4f50",
    "2157": "206167",
    "2158": "20776869",
    "2159": "72657374",
    "2160": "207665",
    "2161": "206c6f76696e67",
    "2162": "20736174",
    "2163": "0a4d6164616d",
    "2164": "616e646572",
    "2165": "554d4552",
    "2166": "686f6f64",
    "2167": "0a0a414e544f4e",
    "2168": "0a0a414e544f4e494f",
    "2169": "2073756974",
    "2170": "2068656176656e73",
    "2171": "6d6f7374",
    "2172": "2073696465",
    "2173": "2064697368",
    "2174": "2064697374",
    "2175": "20686f6e657374",
    "2176": "2041554d4552",
    "2177": "207761746368",
    "2178": "20766f69636573",
    "2179": "2041554d45524c45",
    "2180": "206665656c",
    "2181": "2064726177",
    "2182": "6973686564",
    "2183": "20736f6d657468696e67",
    "2184": "20737472656e677468",
    "2185": "2067656e746c656d656e",
    "2186": "20776f6e646572",
    "2187": "5a41",
    "2188": "2073616b65",
    "2189": "20626974",
    "2190": "20636f72",
    "2191": "67696e67",
    "2192": "2073746972",
    "2193": "20656e656d696573",
    "2194": "2077617374",
    "2195": "20616374",
    "2196": "0a0a4341",
    "2197": "207769646f77",
    "2198": "4f4e5a41",
    "2199": "0a0a474f4e5a41",
    "2200": "206469647374",
    "2201": "657468696e6b73",
    "2202": "0a0a474f4e5a414c4f",
    "2203": "0a536565",
    "2204": "204c616e63",
    "2205": "0a4661726577656c6c",
    "2206": "20776f6d656e",
    "2207": "20636c6f7564",
    "2208": "20476c6f75636573746572",
    "2209": "0a4d61727279",
    "2210": "2047656e746c656d616e",
    "2211": "204c616e636173746572",
    "2212": "0a556e74",
    "2213": "636569766564",
    "2214": "2070616c65",
    "2215": "696c73",
    "2216": "20636f6d696e67",
    "2217": "2063686565",
    "2218": "726577",
    "2219": "206472",
    "2220": "207468616e6b73",
    "2221": "6f6f7365",
    "2222": "72616365",
    "2223": "20707261",
    "2224": "2073696e67",
    "2225": "666964",
    "2226": "626c79",
    "2227": "2077697468616c",
    "2228": "20706965",
    "2229": "69766573",
    "2230": "206272656174",
    "2231": "20736f756c73",
    "2232": "0a0a484552",
    "2233": "207469746c65",
    "2234": "20636c6f7365",
    "2235": "20636f75727365",
    "2236": "20656e746572",
    "2237": "206b6e6577",
    "2238": "0a50726179",
    "2239": "206272617665",
    "2240": "206761746573",
    "2241": "20706c656173757265",
    "2242": "206d75736963",
    "2243": "69616e6361",
    "2244": "206e657874",
    "2245": "2043616d696c6c6f",
    "2246": "66746572",
    "2247": "20666974",
    "2248": "20616273",
    "2249": "0a54687573",
    "2250": "206a657374",
    "2251": "415544",
    "2252": "207479",
    "2253": "766f7572",
    "2254": "2064656c69766572",
    "2255": "65746368",
    "2256": "20627572",
    "2257": "207761",
    "2258": "68657265",
    "2259": "20666f7267",
    "2260": "20676172",
    "2261": "415544494f",
    "2262": "206368616e6765",
    "2263": "6f77617264",
    "2264": "72757374",
    "2265": "65747275",
    "2266": "20706c61696e",
    "2267": "20737566666572",
    "2268": "206c697073",
    "2269": "204e6f72666f6c6b",
    "2270": "207765616b",
    "2271": "20656974686572",
    "2272": "2070726574",
    "2273": "0a0a434c494646",
    "2274": "0a0a434c4946464f5244",
    "2275": "0a0a4845524d494f",
    "2276": "0a0a4845524d494f4e45",
    "2277": "206265636f6d65",
    "2278": "2067726965",
    "2279": "636c61696d",
    "2280": "0a0a434c415544494f",
    "2281": "6b6573",
    "2282": "20776973",
    "2283": "6f6f66",
    "2284": "6265",
    "2285": "206f72646572",
    "2286": "207369676e",
    "2287": "0a0a4c4f5244",
    "2288": "20726567",
    "2289": "20736b",
    "2290": "736573",
    "2291": "757270",
    "2292": "74776173",
    "2293": "697366",
    "2294": "4441",
    "2295": "0a4d6f7374",
    "2296": "2076656e",
    "2297": "20666f7262",
    "2298": "63686572",
    "2299": "206368656572",
    "2300": "65617374",
    "2301": "69727468",
    "2302": "2063617374",
    "2303": "0a0a4d49",
    "2304": "207468656d73656c766573",
    "2305": "2077616c6c",
    "2306": "20776f727365",
    "2307": "2073616d65",
    "2308": "20506f6d",
    "2309": "20746f6f6b",
    "2310": "20616c6f6e67",
    "2311": "6368696f",
    "2312": "657472756368696f",
    "2313": "207369636b",
    "2314": "7265616479",
    "2315": "20666f72676574",
    "2316": "2072696368",
    "2317": "756666",
    "2318": "20627265617374",
    "2319": "7477657265",
    "2320": "666964697573",
    "2321": "75666964697573",
    "2322": "20706f69736f6e",
    "2323": "72616e696f",
    "2324": "20636f6e73756c",
    "2325": "2070617469656e6365",
    "2326": "0a0a454457415244",
    "2327": "206d65727279",
    "2328": "204269616e6361",
    "2329": "52414e4441",
    "2330": "0a0a4d4952414e4441",
    "2331": "726f7773",
    "2332": "617368",
    "2333": "0a0a4152",
    "2334": "4f48",
    "2335": "206d6f726e696e67",
    "2336": "20666f7572",
    "2337": "696f6e73",
    "2338": "6f696e",
    "2339": "20626164",
    "2340": "206475",
    "2341": "204966",
    "2342": "63686d",
    "2343": "6c7374",
    "2344": "2066757274686572",
    "2345": "534f4e",
    "2346": "74696e67",
    "2347": "20776564",
    "2348": "7665726e",
    "2349": "72696573",
    "2350": "206d6f7665",
    "2351": "2048657265666f7264",
    "2352": "0a0a4d657373656e676572",
    "2353": "206973737565",
    "2354": "616c6c79",
    "2355": "20626f6f6b",
    "2356": "0a796f75",
    "2357": "4f484e",
    "2358": "206f6666696365",
    "2359": "0a0a53657276616e74",
    "2360": "2067617665",
    "2361": "206c69626572",
    "2362": "0a4265696e67",
    "2363": "2073656c66",
    "2364": "20676976656e",
    "2365": "20766972747565",
    "2366": "20616c7265616479",
    "2367": "206d6f757468",
    "2368": "20626174746c65",
    "2369": "207461",
    "2370": "20666f65",
    "2371": "6368616e",
    "2372": "706573",
    "2373": "2070726f70",
    "2374": "6e6b",
    "2375": "0a4d616b65",
    "2376": "69636572",
    "2377": "616e7573",
    "2378": "6363657373",
    "2379": "657368",
    "2380": "206163",
    "2381": "6f756e",
    "2382": "20736174697366",
    "2383": "20736f6c6469657273",
    "2384": "0a6861",
    "2385": "206c6164",
    "2386": "20706179",
    "2387": "20736f6674",
    "2388": "617473",
    "2389": "2066726f776e",
    "2390": "20726564",
    "2391": "2067726f",
    "2392": "656c636f6d65",
    "2393": "65616368",
    "2394": "6f726765",
    "2395": "6d626572",
    "2396": "206275726e",
    "2397": "756f7573",
    "2398": "20676f6573",
    "2399": "2073776f726e",
    "2400": "20657874",
    "2401": "72697374",
    "2402": "20626c61636b",
    "2403": "2064697265",
    "2404": "0a53696e6365",
    "2405": "20736f6e73",
    "2406": "2077697365",
    "2407": "20546f776572",
    "2408": "2062656767",
    "2409": "206265747765656e",
    "2410": "0a4265666f7265",
    "2411": "2074726f75",
    "2412": "6464656e",
    "2413": "20626567696e",
    "2414": "20636f6e73656e74",
    "2415": "2072657175657374",
    "2416": "75736564",
    "2417": "206665617374",
    "2418": "63686d6f6e64",
    "2419": "205369676e696f72",
    "2420": "204c7563656e74696f",
    "2421": "207175617272656c",
    "2422": "4952",
    "2423": "61726973",
    "2424": "6f7473",
    "2425": "68656d",
    "2426": "4341",
    "2427": "2074687269",
    "2428": "5445534259",
    "2429": "4e54",
    "2430": "206372",
    "2431": "20626172",
    "2432": "69726d",
    "2433": "206c6f766573",
    "2434": "0a0a43415445534259",
    "2435": "0a42656361757365",
    "2436": "61726574",
    "2437": "0a5377",
    "2438": "204175666964697573",
    "2439": "0a5265",
    "2440": "2064726f",
    "2441": "7374616e64",
    "2442": "204368",
    "2443": "20626c657373",
    "2444": "6761726574",
    "2445": "0a4d757374",
    "2446": "656e6473",
    "2447": "6f77657273",
    "2448": "69726573",
    "2449": "75726573",
    "2450": "0a43616c6c",
    "2451": "207468656e6365",
    "2452": "20776f727468",
    "2453": "756e67",
    "2454": "2063617365",
    "2455": "656d7074",
    "2456": "0a53756368",
    "2457": "20657870",
    "2458": "617764",
    "2459": "2070726573656e6365",
    "2460": "2073657276616e74",
    "2461": "206461726b",
    "2462": "2070726976",
    "2463": "0a556e6c657373",
    "2464": "20776f756e6473",
    "2465": "2064616e6765726f7573",
    "2466": "207761746572",
    "2467": "206d6967687479",
    "2468": "20536972",
    "2469": "20676f74",
    "2470": "6262",
    "2471": "0a6e",
    "2472": "4c59",
    "2473": "2073696768",
    "2474": "20686f74",
    "2475": "6f6e6f7572",
    "2476": "6f6c6c",
    "2477": "6f6e61",
    "2478": "20626c65",
    "2479": "206576",
    "2480": "20756e64",
    "2481": "204c6f6e64",
    "2482": "2076696374",
    "2483": "2073756d",
    "2484": "2073706f6b65",
    "2485": "20696e746572",
    "2486": "20766f696365",
    "2487": "617074697374",
    "2488": "656d6e",
    "2489": "494c49",
    "2490": "206472656164",
    "2491": "6369656e74",
    "2492": "20656e63",
    "2493": "206272696465",
    "2494": "206e656974686572",
    "2495": "2077617273",
    "2496": "20566f6c73",
    "2497": "20666c6174746572",
    "2498": "20656d62",
    "2499": "206272696566",
    "2500": "207468726f6e65",
    "2501": "2072657370656374",
    "2502": "2064656e79",
    "2503": "207669736974",
    "2504": "204c6f6e646f6e",
    "2505": "6f75726e",
    "2506": "206d6f7274616c",
    "2507": "0a4c657374",
    "2508": "6970",
    "2509": "4956",
    "2510": "69646564",
    "2511": "20626162",
    "2512": "20687572",
    "2513": "65726e",
    "2514": "2073756464656e",
    "2515": "20626f77",
    "2516": "206368616d626572",
    "2517": "20737065656368",
    "2518": "69726564",
    "2519": "20627579",
    "2520": "7269676874",
    "2521": "75676874",
    "2522": "20667261",
    "2523": "20686176696e67",
    "2524": "206b696e6773",
    "2525": "206d616c",
    "2526": "204765",
    "2527": "20626974746572",
    "2528": "205061726973",
    "2529": "20657374",
    "2530": "49414e4341",
    "2531": "6d616e64",
    "2532": "0a596573",
    "2533": "20766f77",
    "2534": "69616e74",
    "2535": "2073616665",
    "2536": "204865",
    "2537": "206c6f766564",
    "2538": "206465656473",
    "2539": "0a416c6173",
    "2540": "20746f776e",
    "2541": "61707469737461",
    "2542": "61696e746564",
    "2543": "207365656d73",
    "2544": "204d61726761726574",
    "2545": "207072696e63656c79",
    "2546": "524559",
    "2547": "20776f7273686970",
    "2548": "206f6674656e",
    "2549": "0a57686f6d",
    "2550": "4956455253",
    "2551": "0a0a4a4f484e",
    "2552": "20526963686d6f6e64",
    "2553": "494c4941",
    "2554": "20616e6369656e74",
    "2555": "2047656f726765",
    "2556": "0a0a4249414e4341",
    "2557": "7274",
    "2558": "2070726f6d697365",
    "2559": "736f",
    "2560": "75726368",
    "2561": "454c42",
    "2562": "61746564",
    "2563": "636b73",
    "2564": "206c696d",
    "2565": "6c6572",
    "2566": "2070726f74",
    "2567": "2070656e",
    "2568": "205361696e74",
    "2569": "0a0a524956455253",
    "2570": "6b696e67",
    "2571": "2076616c69616e74",
    "2572": "2054686f75",
    "2573": "2054686973",
    "2574": "206b696e67646f6d",
    "2575": "757261",
    "2576": "72657368",
    "2577": "204c616479",
    "2578": "206865616473",
    "2579": "6f74696f6e",
    "2580": "20636f6c",
    "2581": "6f6e6579",
    "2582": "6c697368",
    "2583": "2070617469656e74",
    "2584": "0a4c6f7264",
    "2585": "2049736162",
    "2586": "206c616d656e74",
    "2587": "20506c",
    "2588": "20736163",
    "2589": "20474155",
    "2590": "616e74616765",
    "2591": "2073636f726e",
    "2592": "2072616765",
    "2593": "20617070656172",
    "2594": "206c656164",
    "2595": "207769746e657373",
    "2596": "6573736564",
    "2597": "204261707469737461",
    "2598": "0a537065616b",
    "2599": "2053657276616e74",
    "2600": "206b6e6f636b",
    "2601": "2063726f7373",
    "2602": "206665746368",
    "2603": "20636f77617264",
    "2604": "2073756363657373",
    "2605": "0a0a454c42",
    "2606": "204741554e54",
    "2607": "0a0a454c424f57",
    "2608": "757273",
    "2609": "6379",
    "2610": "746f",
    "2611": "2070726570617265",
    "2612": "6f6d656f",
    "2613": "616b656e",
    "2614": "6c73",
    "2615": "2069676e",
    "2616": "206b696e73",
    "2617": "0a4a",
    "2618": "5552",
    "2619": "2062617764",
    "2620": "0a33",
    "2621": "616e746167",
    "2622": "206f77",
    "2623": "20696e73",
    "2624": "20636c65",
    "2625": "20656174",
    "2626": "20617070726f",
    "2627": "206f7070",
    "2628": "0a5468656972",
    "2629": "2062726f",
    "2630": "204b494e47",
    "2631": "2067616c6c",
    "2632": "206472696e6b",
    "2633": "696666",
    "2634": "20616e67",
    "2635": "206c65617374",
    "2636": "206372656174",
    "2637": "207468726f77",
    "2638": "78666f7264",
    "2639": "207072696e",
    "2640": "204d79",
    "2641": "6e6f776e",
    "2642": "2077617368",
    "2643": "20636170",
    "2644": "20756e77",
    "2645": "0a57656c636f6d65",
    "2646": "20666f7277617264",
    "2647": "2070726179657273",
    "2648": "6974696573",
    "2649": "206f66666572",
    "2650": "206c61636b",
    "2651": "20636f6d706c",
    "2652": "475545",
    "2653": "0a457265",
    "2654": "0a0a5459",
    "2655": "20736c617665",
    "2656": "206d6f6f6e",
    "2657": "20616374696f6e",
    "2658": "0a6265",
    "2659": "73706572",
    "2660": "0a77697468",
    "2661": "5441475545",
    "2662": "4f4e5441475545",
    "2663": "20666c657368",
    "2664": "20747269756d70",
    "2665": "6f7274656e73",
    "2666": "6f7274656e73696f",
    "2667": "2076696f6c",
    "2668": "6974746564",
    "2669": "2070726974686565",
    "2670": "2074726962756e6573",
    "2671": "205472616e696f",
    "2672": "2050657472756368696f",
    "2673": "20436872697374",
    "2674": "7368",
    "2675": "696e6573",
    "2676": "656573",
    "2677": "6f6f72",
    "2678": "0a6f66",
    "2679": "20726562",
    "2680": "0a696e",
    "2681": "616b6564",
    "2682": "2070726573656e746c79",
    "2683": "6f6d6573",
    "2684": "616c73",
    "2685": "206964",
    "2686": "79696e67",
    "2687": "6c6579",
    "2688": "206e6179",
    "2689": "0a6e6f74",
    "2690": "756564",
    "2691": "686f7374",
    "2692": "0a426573",
    "2693": "206d6964",
    "2694": "726177",
    "2695": "20737572",
    "2696": "686172696e61",
    "2697": "76657374",
    "2698": "2064657374",
    "2699": "20646570617274",
    "2700": "72756d",
    "2701": "616c7468",
    "2702": "66656974",
    "2703": "206265617374",
    "2704": "207375626a65637473",
    "2705": "20666965",
    "2706": "20736d616c6c",
    "2707": "617374657273",
    "2708": "6a6f79",
    "2709": "2073636172",
    "2710": "756d62",
    "2711": "706579",
    "2712": "2068696465",
    "2713": "20466f72",
    "2714": "2074686974686572",
    "2715": "20616c6d6f7374",
    "2716": "756c6c79",
    "2717": "7468756d626572",
    "2718": "206661756c7473",
    "2719": "6174686172696e61",
    "2720": "20736563726574",
    "2721": "20646566656e64",
    "2722": "7468656e",
    "2723": "20706f7373657373",
    "2724": "6f68656d",
    "2725": "7468756d6265726c616e64",
    "2726": "2074656172",
    "2727": "696e676572",
    "2728": "7363",
    "2729": "626974",
    "2730": "20666f6e64",
    "2731": "726579",
    "2732": "0a576869",
    "2733": "61726c",
    "2734": "2062656e",
    "2735": "20656173",
    "2736": "2066696c6c",
    "2737": "20666f726d",
    "2738": "68696e64",
    "2739": "20706572666f726d",
    "2740": "727565",
    "2741": "207061696e",
    "2742": "6c65646765",
    "2743": "2073747275",
    "2744": "61756c",
    "2745": "207768656e6365",
    "2746": "20676f6f646c79",
    "2747": "6f68656d6961",
    "2748": "65617468",
    "2749": "2064616d6e",
    "2750": "706572617465",
    "2751": "6369656e6365",
    "2752": "206c6162",
    "2753": "49454c",
    "2754": "2068656172696e67",
    "2755": "2062617365",
    "2756": "2077726974",
    "2757": "0a0a50455244",
    "2758": "0a0a4d4f4e5441475545",
    "2759": "0a486f6c64",
    "2760": "206c6976696e67",
    "2761": "20736c61756768746572",
    "2762": "0a526f6d656f",
    "2763": "495441",
    "2764": "0a0a50455244495441",
    "2765": "2077657274",
    "2766": "0a5374616e64",
    "2767": "206368616e6365",
    "2768": "207472756d70",
    "2769": "20717569636b6c79",
    "2770": "207573757270",
    "2771": "206269727468",
    "2772": "2076697274756f7573",
    "2773": "0a0a564952",
    "2774": "2047524559",
    "2775": "47494c4941",
    "2776": "0a0a56495247494c4941",
    "2777": "7572616c",
    "2778": "696e676c79",
    "2779": "7a65",
    "2780": "617374617264",
    "2781": "0a436f6e",
    "2782": "207572",
    "2783": "726f72",
    "2784": "20696e6a",
    "2785": "626564",
    "2786": "207574",
    "2787": "6767",
    "2788": "0a5468696e6b",
    "2789": "20706974",
    "2790": "20746f72",
    "2791": "20506f6d706579",
    "2792": "0a596561",
    "2793": "206179",
    "2794": "207075",
    "2795": "206d61746368",
    "2796": "72656164",
    "2797": "0a446f7468",
    "2798": "6f6e79",
    "2799": "206361",
    "2800": "61726e",
    "2801": "2077696c64",
    "2802": "64696e67",
    "2803": "20736c6577",
    "2804": "656473",
    "2805": "205374",
    "2806": "6f766572",
    "2807": "2066696572",
    "2808": "69657374",
    "2809": "2073686164",
    "2810": "7573746f6d",
    "2811": "20436f72696f6c616e7573",
    "2812": "6564616e74",
    "2813": "6f7373",
    "2814": "65656d",
    "2815": "6973757265",
    "2816": "20706c656173",
    "2817": "206365727461696e",
    "2818": "206861647374",
    "2819": "666f726365",
    "2820": "206f6666656e6365",
    "2821": "0a74686174",
    "2822": "20616e677279",
    "2823": "206b6e6565",
    "2824": "2061646d",
    "2825": "206c617766756c",
    "2826": "20626c6f7773",
    "2827": "20657865637574696f6e",
    "2828": "20707265747479",
    "2829": "20736f6c64696572",
    "2830": "49414e41",
    "2831": "206775696c7479",
    "2832": "20676c6164",
    "2833": "207175696574",
    "2834": "205061756c",
    "2835": "206465736572766564",
    "2836": "206b6e65656c",
    "2837": "2077656570696e67",
    "2838": "206d696c64",
    "2839": "2070726f63656564",
    "2840": "20617768696c65",
    "2841": "0a0a416c6c",
    "2842": "20696e6e6f",
    "2843": "20616666656374696f6e",
    "2844": "204f78666f7264",
    "2845": "0a0a534c59",
    "2846": "6b6564",
    "2847": "206170",
    "2848": "20726569676e",
    "2849": "6d6564",
    "2850": "61776e",
    "2851": "20776f756c647374",
    "2852": "20686170",
    "2853": "206c657474657273",
    "2854": "206e65636b",
    "2855": "206d61726368",
    "2856": "2077616c6b",
    "2857": "7a656e",
    "2858": "20736869",
    "2859": "656e646564",
    "2860": "204b6174686172696e61",
    "2861": "20656d",
    "2862": "2066616d",
    "2863": "616e746167656e",
    "2864": "206d6564",
    "2865": "206d6f64",
    "2866": "206e6f62",
    "2867": "206c696265727479",
    "2868": "206f757273656c766573",
    "2869": "75616c",
    "2870": "656e657373",
    "2871": "2079656172",
    "2872": "20646f6f6d",
    "2873": "616d6573",
    "2874": "646765",
    "2875": "2067726561746572",
    "2876": "2073686f",
    "2877": "20756e63",
    "2878": "2073686f7773",
    "2879": "66756c6c79",
    "2880": "2074726f75626c65",
    "2881": "0a0a504152",
    "2882": "20666f72626964",
    "2883": "766f6c",
    "2884": "20626c6f77",
    "2885": "677565",
    "2886": "20756e6b",
    "2887": "20776f727374",
    "2888": "6f736974696f6e",
    "2889": "0a506c",
    "2890": "20737065616b73",
    "2891": "72757074",
    "2892": "206d656173757265",
    "2893": "2062616e6973686d656e74",
    "2894": "0a53746179",
    "2895": "206f6363",
    "2896": "69676862",
    "2897": "2073656e7365",
    "2898": "20666f727377",
    "2899": "0a5065616365",
    "2900": "20666c6564",
    "2901": "72756d696f",
    "2902": "0a0a56494e43454e54494f",
    "2903": "2074726561736f6e",
    "2904": "205468657265",
    "2905": "72656d696f",
    "2906": "6f696e746564",
    "2907": "206c6164696573",
    "2908": "61647561",
    "2909": "20636c6f756473",
    "2910": "2062726561746865",
    "2911": "206661766f7572",
    "2912": "20676f7665726e",
    "2913": "6f756e746572",
    "2914": "20646973686f6e6f7572",
    "2915": "20636f6e64656d6e",
    "2916": "20456e676c697368",
    "2917": "2049736162656c",
    "2918": "206c656973757265",
    "2919": "0a0a4d415249414e41",
    "2920": "0a0a5041524953",
    "2921": "61697468",
    "2922": "2058",
    "2923": "20726566",
    "2924": "20776f6d62",
    "2925": "646c65",
    "2926": "20676f6c64656e",
    "2927": "206c6f6e676572",
    "2928": "0a496e74",
    "2929": "206c616e",
    "2930": "206d6f72726f77",
    "2931": "6172696e67",
    "2932": "2073656174",
    "2933": "2073746f72",
    "2934": "206c616964",
    "2935": "73746572",
    "2936": "20736f7274",
    "2937": "76656c",
    "2938": "207661696e",
    "2939": "206a6f696e",
    "2940": "0a5477",
    "2941": "20776f6e",
    "2942": "0a4162",
    "2943": "20646f67",
    "2944": "736574",
    "2945": "2068656c64",
    "2946": "61636c65",
    "2947": "0a546f6f",
    "2948": "72696d",
    "2949": "206e6f7465",
    "2950": "69646572",
    "2951": "20636875726368",
    "2952": "0a4f7574",
    "2953": "696c6573",
    "2954": "206173696465",
    "2955": "726f7573",
    "2956": "20637275",
    "2957": "204d657263",
    "2958": "20647279",
    "2959": "6f756e6473",
    "2960": "2062656361757365",
    "2961": "206c6574746572",
    "2962": "61766573",
    "2963": "206c697374",
    "2964": "616e746167656e6574",
    "2965": "20726f756768",
    "2966": "206e6f697365",
    "2967": "206469737061746368",
    "2968": "0a5768696c65",
    "2969": "206c69766564",
    "2970": "697a65",
    "2971": "2072656d61696e",
    "2972": "2074656d70",
    "2973": "61746f7273",
    "2974": "207069656365",
    "2975": "206e65656473",
    "2976": "206f626579",
    "2977": "2061626f7665",
    "2978": "20707269736f6e6572",
    "2979": "207365636f6e64",
    "2980": "756e64726564",
    "2981": "2063686f6f7365",
    "2982": "206672657368",
    "2983": "2069676e6f72",
    "2984": "2070726f73706572",
    "2985": "20626568696e64",
    "2986": "20426f68656d6961",
    "2987": "2073746f",
    "2988": "756c6172",
    "2989": "6f726473",
    "2990": "6e79",
    "2991": "2066696e65",
    "2992": "7473",
    "2993": "0a6865",
    "2994": "20737465616c",
    "2995": "204c6574",
    "2996": "206c656e",
    "2997": "62616e",
    "2998": "686e",
    "2999": "20646573706572617465",
    "3000": "20676c6f7279",
    "3001": "6173696f6e",
    "3002": "20617070617265",
    "3003": "20736368",
    "3004": "4557",
    "3005": "2070726563696f7573",
    "3006": "69746f7273",
    "3007": "20626967",
    "3008": "2062656e64",
    "3009": "0a5375",
    "3010": "766579",
    "3011": "206c6f77",
    "3012": "616e67",
    "3013": "206f6674",
    "3014": "6f6d696e",
    "3015": "0a416d",
    "3016": "20666174",
    "3017": "2062656c6c",
    "3018": "20696e64",
    "3019": "65617365",
    "3020": "63656974",
    "3021": "706f736564",
    "3022": "65726c65",
    "3023": "657479",
    "3024": "2064726f776e",
    "3025": "20706574",
    "3026": "207361696e74",
    "3027": "20626c6573736564",
    "3028": "206d7574",
    "3029": "206566",
    "3030": "2074656e74",
    "3031": "20796f757273656c766573",
    "3032": "20726576657265",
    "3033": "20736f6c65",
    "3034": "204e6f727468756d6265726c616e64",
    "3035": "415254",
    "3036": "415254495553",
    "3037": "2073746f6f64",
    "3038": "20737461696e",
    "3039": "7574686f72",
    "3040": "696575",
    "3041": "756e646572",
    "3042": "20737573",
    "3043": "617463686d616e",
    "3044": "207072696465",
    "3045": "205061647561",
    "3046": "6963696f7573",
    "3047": "206772616e64",
    "3048": "20746872656174",
    "3049": "2068756e64726564",
    "3050": "206c757374",
    "3051": "20636f6e7175",
    "3052": "2066697665",
    "3053": "2073686564",
    "3054": "206c6175",
    "3055": "20736166",
    "3056": "756c6574",
    "3057": "0a0a444f52",
    "3058": "756d65",
    "3059": "6c65617365",
    "3060": "0a4669727374",
    "3061": "206b6e656573",
    "3062": "205072",
    "3063": "206265617273",
    "3064": "0a0a415249454c",
    "3065": "45574953",
    "3066": "20657863",
    "3067": "0a456e",
    "3068": "0a4d6173746572",
    "3069": "69737472657373",
    "3070": "0a0a4c415254495553",
    "3071": "204761756e74",
    "3072": "204e6f77",
    "3073": "696c6564",
    "3074": "2073656e74656e6365",
    "3075": "6f6e74656e74",
    "3076": "205849",
    "3077": "2070757273",
    "3078": "20646f75626c65",
    "3079": "20776f6573",
    "3080": "2062726f6b65",
    "3081": "206c616e6473",
    "3082": "20737465656c",
    "3083": "206f626564",
    "3084": "0a68696d",
    "3085": "617465736279",
    "3086": "20656e7465727461696e",
    "3087": "20486f7274656e73696f",
    "3088": "20656666656374",
    "3089": "207377696674",
    "3090": "20746f7761726473",
    "3091": "20436170756c6574",
    "3092": "20626f6e6573",
    "3093": "20636974697a656e73",
    "3094": "20736c616e646572",
    "3095": "206472756e6b",
    "3096": "0a556e746f",
    "3097": "20666f72676f74",
    "3098": "2070726f636c61696d",
    "3099": "20776973646f6d",
    "3100": "2076656e6765",
    "3101": "0a5377656574",
    "3102": "20766963746f7279",
    "3103": "206b696e736d616e",
    "3104": "20636f6e736369656e6365",
    "3105": "204772656d696f",
    "3106": "2057617463686d616e",
    "3107": "204c45574953",
    "3108": "7370",
    "3109": "20646f696e67",
    "3110": "2072616e",
    "3111": "63746564",
    "3112": "69616e6365",
    "3113": "20656c64",
    "3114": "206665",
    "3115": "6565706572",
    "3116": "20636f6e7472",
    "3117": "2068616972",
    "3118": "45544552",
    "3119": "0a0a4f",
    "3120": "2064696564",
    "3121": "61726368",
    "3122": "64656e",
    "3123": "20636f6e74696e",
    "3124": "6f7762",
    "3125": "20616c697665",
    "3126": "0a796f7572",
    "3127": "69726c",
    "3128": "657374696f6e",
    "3129": "20736f7572",
    "3130": "6174696f6e73",
    "3131": "207365616c",
    "3132": "20667275",
    "3133": "6966756c",
    "3134": "206775657374",
    "3135": "206775657373",
    "3136": "20666f75676874",
    "3137": "0a4d65",
    "3138": "7661696c",
    "3139": "20416e74",
    "3140": "0a0a506564616e74",
    "3141": "204361",
    "3142": "2073747275636b",
    "3143": "20656e6a6f79",
    "3144": "0a436c",
    "3145": "20476f",
    "3146": "206d657468696e6b73",
    "3147": "0a436f756c64",
    "3148": "0a42656c",
    "3149": "0a5072",
    "3150": "756d65726c65",
    "3151": "696c697479",
    "3152": "2063617074",
    "3153": "2070756e",
    "3154": "72656e6365",
    "3155": "756465",
    "3156": "0a57697468696e",
    "3157": "2070726f6d69736564",
    "3158": "206162726f",
    "3159": "206d617374657273",
    "3160": "77617973",
    "3161": "20686f6e6f757273",
    "3162": "207761726d",
    "3163": "414d50",
    "3164": "676d656e74",
    "3165": "0a4861726b",
    "3166": "206d6f756e74",
    "3167": "204772756d696f",
    "3168": "20646561646c79",
    "3169": "206b657074",
    "3170": "206c61626f7572",
    "3171": "2061726d79",
    "3172": "2073747564",
    "3173": "20636865656b73",
    "3174": "20666577",
    "3175": "0a536972726168",
    "3176": "206c6f726473686970",
    "3177": "6f686e",
    "3178": "6f7762726179",
    "3179": "206465746572",
    "3180": "2064657465726d",
    "3181": "20617574686f72",
    "3182": "206d616e6e6572",
    "3183": "207772657463686564",
    "3184": "2064657370616972",
    "3185": "206d6f6e6579",
    "3186": "0a0a435552",
    "3187": "0a0a435552544953",
    "3188": "204561726c",
    "3189": "206b6e6f776c65646765",
    "3190": "414d50534f4e",
    "3191": "2062726f7468657273",
    "3192": "72656564",
    "3193": "68656164",
    "3194": "20647265616d73",
    "3195": "20616964",
    "3196": "0a6c",
    "3197": "207368616b65",
    "3198": "4947",
    "3199": "6d6974",
    "3200": "62757279",
    "3201": "2068657273656c66",
    "3202": "20756e6465727374616e64",
    "3203": "2063686172697479",
    "3204": "4255",
    "3205": "7374616e74",
    "3206": "0a0a53414d50534f4e",
    "3207": "4154",
    "3208": "207370656e74",
    "3209": "2064616e6365",
    "3210": "42555259",
    "3211": "0a506172646f6e",
    "3212": "69746564",
    "3213": "20616d6f6e67",
    "3214": "20706c616e74",
    "3215": "20486f77",
    "3216": "616d656e74",
    "3217": "0a6974",
    "3218": "20756e70",
    "3219": "6f7468696e67",
    "3220": "706972",
    "3221": "20576879",
    "3222": "6c6c6f77",
    "3223": "20726f74",
    "3224": "206c69657374",
    "3225": "2063616c6c73",
    "3226": "20636f726e",
    "3227": "206561726c79",
    "3228": "6f72696f7573",
    "3229": "2073696d",
    "3230": "7574696f",
    "3231": "2070726f76",
    "3232": "2070616c",
    "3233": "20646567",
    "3234": "707079",
    "3235": "206163636f756e74",
    "3236": "207365766572",
    "3237": "2057696c6c",
    "3238": "656176656e",
    "3239": "72656e74",
    "3240": "20747279",
    "3241": "2072656d6564",
    "3242": "4c4559",
    "3243": "206a75646765",
    "3244": "207465616368",
    "3245": "2071756f7468",
    "3246": "0a446973",
    "3247": "4f4e5553",
    "3248": "6f756e6365",
    "3249": "20707269657374",
    "3250": "6f736564",
    "3251": "0a456974686572",
    "3252": "2077686574686572",
    "3253": "20686f6e6f757261626c65",
    "3254": "204d6173746572",
    "3255": "2063726564",
    "3256": "206d6f766564",
    "3257": "2062617374617264",
    "3258": "207768697465",
    "3259": "0a6d65",
    "3260": "206865616c7468",
    "3261": "20777265746368",
    "3262": "206b696e64726564",
    "3263": "20656e636f756e746572",
    "3264": "65776973",
    "3265": "206775617264",
    "3266": "206372696564",
    "3267": "20666f6f6c697368",
    "3268": "20636f756e746572",
    "3269": "2068756d626c65",
    "3270": "20666c6f77657273",
    "3271": "207368657068657264",
    "3272": "0a0a4558",
    "3273": "206772656574",
    "3274": "2076616c6f7572",
    "3275": "206f666669636572",
    "3276": "20626567676172",
    "3277": "2073756d6d6572",
    "3278": "2064656d616e64",
    "3279": "20747269756d7068",
    "3280": "20637275656c",
    "3281": "204d6f7762726179",
    "3282": "0a0a414e544947",
    "3283": "0a0a414e5449474f4e5553",
    "3284": "20726964",
    "3285": "206761",
    "3286": "206f7468657273",
    "3287": "2065787472656d",
    "3288": "20416e64",
    "3289": "0a46656172",
    "3290": "0a0a4142",
    "3291": "20676f696e67",
    "3292": "5241",
    "3293": "656164",
    "3294": "20666f726365",
    "3295": "2066617274",
    "3296": "206477656c6c",
    "3297": "20766965",
    "3298": "69746573",
    "3299": "6f6d70",
    "3300": "6d626c65",
    "3301": "2073746f6e65",
    "3302": "656c657373",
    "3303": "0a0a524154",
    "3304": "2064696e",
    "3305": "206372617665",
    "3306": "0a426574",
    "3307": "20756e66",
    "3308": "696e696e67",
    "3309": "0a7365",
    "3310": "2062757463686572",
    "3311": "204c65776973",
    "3312": "61736b",
    "3313": "2067656e74",
    "3314": "206661696e74",
    "3315": "0a4d696e65",
    "3316": "0a4661697468",
    "3317": "7269736f6e",
    "3318": "2077696e746572",
    "3319": "0a4272",
    "3320": "207468696e6b73",
    "3321": "207468726f",
    "3322": "726f79",
    "3323": "20796561",
    "3324": "6c656570",
    "3325": "696679",
    "3326": "2062656e6566",
    "3327": "20616e6f6e",
    "3328": "206f757273",
    "3329": "2074686572656f66",
    "3330": "696566",
    "3331": "206d69736572",
    "3332": "6172746564",
    "3333": "2076696577",
    "3334": "0a426f7468",
    "3335": "206368617374",
    "3336": "20736576656e",
    "3337": "206b696e646e657373",
    "3338": "207765617279",
    "3339": "0a4d616465",
    "3340": "207061636b",
    "3341": "20756e62",
    "3342": "20626c616d65",
    "3343": "74686f756768",
    "3344": "2072697365",
    "3345": "20566f6c73636573",
    "3346": "207061727479",
    "3347": "20616464",
    "3348": "686f757365",
    "3349": "206e6569676862",
    "3350": "0a666f72",
    "3351": "69616e73",
    "3352": "207761696c",
    "3353": "2062696473",
    "3354": "20627269676874",
    "3355": "20676c617373",
    "3356": "206d696e6973746572",
    "3357": "20656e7679",
    "3358": "6f72746879",
    "3359": "207374617273",
    "3360": "434c494646",
    "3361": "0a0a524154434c494646",
    "3362": "206d6f6e7468",
    "3363": "20526f6d616e",
    "3364": "54776173",
    "3365": "206162726f6164",
    "3366": "2077616c6c73",
    "3367": "20736174697366696564",
    "3368": "2068756e67",
    "3369": "2070726976617465",
    "3370": "2069646c65",
    "3371": "20736361726365",
    "3372": "206c61756768",
    "3373": "2076656e6765616e6365",
    "3374": "204a6f686e",
    "3375": "20736d6f",
    "3376": "6f6d6173",
    "3377": "495354",
    "3378": "77697468",
    "3379": "72696172",
    "3380": "207768657265666f7265",
    "3381": "616c6c6f77",
    "3382": "736865",
    "3383": "20626566",
    "3384": "72656573",
    "3385": "656e6573",
    "3386": "206661697265",
    "3387": "69636b6564",
    "3388": "6e657273",
    "3389": "20777265",
    "3390": "6964656e74",
    "3391": "206261",
    "3392": "20726f6f74",
    "3393": "495348",
    "3394": "206669726d",
    "3395": "206469736d",
    "3396": "76656c6c",
    "3397": "6f7474",
    "3398": "6174696e67",
    "3399": "617474",
    "3400": "63656c6c",
    "3401": "4953484f50",
    "3402": "0a426964",
    "3403": "2072656c",
    "3404": "20636972",
    "3405": "6c6f636b",
    "3406": "0a48656172",
    "3407": "206465616c",
    "3408": "20696d6167",
    "3409": "6f7065",
    "3410": "20766572",
    "3411": "206c657374",
    "3412": "2063616d",
    "3413": "207368726577",
    "3414": "20666f6573",
    "3415": "0a4e65",
    "3416": "206672756974",
    "3417": "20486572",
    "3418": "54414e",
    "3419": "54414e4c4559",
    "3420": "20527574",
    "3421": "616e747561",
    "3422": "204d616e747561",
    "3423": "6f726f7573",
    "3424": "2065617379",
    "3425": "2062697264",
    "3426": "0a466965",
    "3427": "20676f64",
    "3428": "20686f6c",
    "3429": "2073706f7274",
    "3430": "2061727269",
    "3431": "2056696e",
    "3432": "2056696e63656e74696f",
    "3433": "206d61797374",
    "3434": "20646570757479",
    "3435": "207472756c79",
    "3436": "61696c6f72",
    "3437": "207363686f6f6c",
    "3438": "72656e6368",
    "3439": "2065617365",
    "3440": "204261726e",
    "3441": "20666c6f776572",
    "3442": "2070726f766f7374",
    "3443": "20666f726d6572",
    "3444": "207175697465",
    "3445": "0a556e646572",
    "3446": "42414c",
    "3447": "207265636569766564",
    "3448": "76696f7573",
    "3449": "206368616e676564",
    "3450": "20747269616c",
    "3451": "61756c74",
    "3452": "0a627574",
    "3453": "20696e636c",
    "3454": "20636f6e636c",
    "3455": "2076696c65",
    "3456": "20636f766572",
    "3457": "20636f727365",
    "3458": "2066656c6c6f7773",
    "3459": "2077656e6368",
    "3460": "2068756d6f7572",
    "3461": "204d6572637574696f",
    "3462": "20636f6e766579",
    "3463": "20626f6f74",
    "3464": "2073776f726473",
    "3465": "206a7564676d656e74",
    "3466": "20636f6e646974696f6e",
    "3467": "0a4e65766572",
    "3468": "0a0a436974697a656e73",
    "3469": "0a4166746572",
    "3470": "20747972616e74",
    "3471": "0a5768696c7374",
    "3472": "2061637175",
    "3473": "206576696c",
    "3474": "20657863757365",
    "3475": "205275746c616e64",
    "3476": "0a0a545942414c",
    "3477": "0a0a545942414c54",
    "3478": "0a6973",
    "3479": "2043617465736279",
    "3480": "0a6f",
    "3481": "414b",
    "3482": "2063686f696365",
    "3483": "6c70",
    "3484": "20626c657374",
    "3485": "6f6f74",
    "3486": "7562",
    "3487": "656e616e6365",
    "3488": "0a4578",
    "3489": "20696d706f7274",
    "3490": "656b",
    "3491": "20677265656e",
    "3492": "2073686f7265",
    "3493": "206c6561766573",
    "3494": "2077726f6e6773",
    "3495": "617264656e",
    "3496": "2073746162",
    "3497": "6f6d6572",
    "3498": "2062726f7773",
    "3499": "20626c696e64",
    "3500": "7477697874",
    "3501": "72696674",
    "3502": "0a507574",
    "3503": "2062656861",
    "3504": "2067726f776e",
    "3505": "7572736564",
    "3506": "206d656174",
    "3507": "20436f72696f6c69",
    "3508": "454e42555259",
    "3509": "20696e6e6f63656e74",
    "3510": "207370616b65",
    "3511": "0a4d657468696e6b73",
    "3512": "206661696e",
    "3513": "207768696c7374",
    "3514": "20737072696e67",
    "3515": "2064697367",
    "3516": "20737065",
    "3517": "61706572",
    "3518": "726f7468",
    "3519": "414e44",
    "3520": "2062726f77",
    "3521": "61737465",
    "3522": "72616374",
    "3523": "76697368",
    "3524": "206769726c",
    "3525": "2064757374",
    "3526": "20616666616972",
    "3527": "656d656e74",
    "3528": "617a6564",
    "3529": "207468756e646572",
    "3530": "20756e73",
    "3531": "0a446573",
    "3532": "72617465",
    "3533": "20676f776e",
    "3534": "205765",
    "3535": "20736163726564",
    "3536": "0a4c6f",
    "3537": "2073746f6f70",
    "3538": "20756e6c",
    "3539": "2070726f706865",
    "3540": "20416c",
    "3541": "4f4d4153",
    "3542": "6163686572",
    "3543": "0a5369676e696f72",
    "3544": "2074726169746f7273",
    "3545": "0a0a4252414b",
    "3546": "0a0a4252414b454e42555259",
    "3547": "2076696365",
    "3548": "206a6f696e74",
    "3549": "0a47656e746c65",
    "3550": "6f6d696e697573",
    "3551": "20776974686572",
    "3552": "6964696e6773",
    "3553": "206b6e617665",
    "3554": "207477696365",
    "3555": "2066656564",
    "3556": "2062697465",
    "3557": "2064756c6c",
    "3558": "20726561736f6e73",
    "3559": "65726564",
    "3560": "6369616e73",
    "3561": "0a7368",
    "3562": "20736972726168",
    "3563": "20736166657479",
    "3564": "204d617273",
    "3565": "20726570656e74",
    "3566": "20756e64657274",
    "3567": "776f6d616e",
    "3568": "20627572696564",
    "3569": "20686f6e65737479",
    "3570": "2073656e617465",
    "3571": "65616c6f7573",
    "3572": "696c6961",
    "3573": "0a416c61636b",
    "3574": "2070726576656e74",
    "3575": "2067696674",
    "3576": "207061696e73",
    "3577": "2073746f70",
    "3578": "20646976696e65",
    "3579": "206669657279",
    "3580": "20747972616e",
    "3581": "2070726f6f66",
    "3582": "204b6565706572",
    "3583": "2074616b656e",
    "3584": "2041756d65726c65",
    "3585": "0a68617665",
    "3586": "65726f6e61",
    "3587": "20656d6272616365",
    "3588": "206d616c696365",
    "3589": "616e6c6579",
    "3590": "2067686f7374",
    "3591": "0a54727565",
    "3592": "205061756c696e61",
    "3593": "20506c616e746167656e6574",
    "3594": "206c656e67",
    "3595": "205072696e6365",
    "3596": "207175657374696f6e",
    "3597": "484f4d4153",
    "3598": "20436f6d696e697573",
    "3599": "6e65",
    "3600": "72616e64",
    "3601": "20616c77617973",
    "3602": "0a65",
    "3603": "20636f6d6d656e64",
    "3604": "696e6f7573",
    "3605": "0a676f6f64",
    "3606": "6d6f6e",
    "3607": "6d6e",
    "3608": "206361726573",
    "3609": "206564",
    "3610": "0a6b",
    "3611": "0a4164",
    "3612": "20636865656b",
    "3613": "6564696f7573",
    "3614": "736963",
    "3615": "20726f636b",
    "3616": "20656c65",
    "3617": "70696e",
    "3618": "617264696e65",
    "3619": "2067726f7373",
    "3620": "207768657265696e",
    "3621": "20667269676874",
    "3622": "6f6c79",
    "3623": "616e6368",
    "3624": "656e656e",
    "3625": "2066757279",
    "3626": "204974",
    "3627": "206661726573",
    "3628": "0a0a444552",
    "3629": "2072756465",
    "3630": "0a426c",
    "3631": "6e6174",
    "3632": "206c6f617468",
    "3633": "0a496e64",
    "3634": "0a496e64656564",
    "3635": "736869",
    "3636": "656c64",
    "3637": "2054686f6d6173",
    "3638": "756e6e696e67",
    "3639": "206e6f7365",
    "3640": "617363",
    "3641": "0a4f6e6365",
    "3642": "20646563",
    "3643": "20736d696c65",
    "3644": "20736872",
    "3645": "20646f6f72",
    "3646": "616d70",
    "3647": "20746f6e67756573",
    "3648": "20546f",
    "3649": "20616c6c6f77",
    "3650": "0a77696c6c",
    "3651": "20707261796572",
    "3652": "6f617264",
    "3653": "706f7274",
    "3654": "656c6c6f77",
    "3655": "474f52",
    "3656": "474f5259",
    "3657": "656c7665",
    "3658": "206b6e69676874",
    "3659": "2064656c69676874",
    "3660": "0a48656e6365",
    "3661": "6f727279",
    "3662": "0a5768657265696e",
    "3663": "69746f6c",
    "3664": "2043617069746f6c",
    "3665": "2061766f",
    "3666": "204f56",
    "3667": "204f56455244",
    "3668": "0a0a5045544552",
    "3669": "0a4d7973656c66",
    "3670": "206d61796f72",
    "3671": "2075736564",
    "3672": "207361696c",
    "3673": "6879736963",
    "3674": "0a0a475245474f5259",
    "3675": "2074656d7074",
    "3676": "4f4e45",
    "3677": "20726f756e64",
    "3678": "207072657661696c",
    "3679": "0a576974686f7574",
    "3680": "6c6f79",
    "3681": "207472756d70657473",
    "3682": "6374697365",
    "3683": "20776167",
    "3684": "20656167",
    "3685": "20696e666f726d",
    "3686": "207765656473",
    "3687": "0a456477617264",
    "3688": "2077696e6773",
    "3689": "2064657369676e",
    "3690": "616666",
    "3691": "6175676874657273",
    "3692": "2073697473",
    "3693": "206c616e6775",
    "3694": "20706c656164",
    "3695": "204261726e617264696e65",
    "3696": "2074726f7468",
    "3697": "0a0a4445524259",
    "3698": "61636564",
    "3699": "20616e676572",
    "3700": "0a736f",
    "3701": "206e6563657373",
    "3702": "206c6f79616c",
    "3703": "206261726b",
    "3704": "52455353",
    "3705": "49535452455353",
    "3706": "0a0a4d49535452455353",
    "3707": "0a52696368617264",
    "3708": "207375627374",
    "3709": "6f6c6c6f",
    "3710": "2069676e6f72616e74",
    "3711": "0a42726f74686572",
    "3712": "20616273656e6365",
    "3713": "207065726365697665",
    "3714": "20647261776e",
    "3715": "20656d70",
    "3716": "2077616e746f6e",
    "3717": "20617373697374",
    "3718": "756e7473",
    "3719": "656e656e697573",
    "3720": "20706c61677565",
    "3721": "2064657365727665",
    "3722": "20636c61696d",
    "3723": "2073746f6e6573",
    "3724": "206372656174757265",
    "3725": "207574746572",
    "3726": "2064726f70",
    "3727": "6f6d6572736574",
    "3728": "2066696e676572",
    "3729": "20637573746f6d",
    "3730": "20656d7074",
    "3731": "206f7261636c65",
    "3732": "206164696575",
    "3733": "20686f6c6c6f77",
    "3734": "20726f7474656e",
    "3735": "2072656d656479",
    "3736": "20696d707269736f6e",
    "3737": "2063697263",
    "3738": "2067617264656e",
    "3739": "204f564552444f4e45",
    "3740": "207072616374697365",
    "3741": "0a547574",
    "3742": "7273",
    "3743": "6479",
    "3744": "2061696d",
    "3745": "204d75736963",
    "3746": "697474696e67",
    "3747": "206c6172",
    "3748": "2063757265",
    "3749": "2072657369676e",
    "3750": "657379",
    "3751": "636861",
    "3752": "207468657265696e",
    "3753": "2070726f66657373",
    "3754": "206573",
    "3755": "2070696c",
    "3756": "0a53686f77",
    "3757": "2072656d656d62",
    "3758": "20626f726e65",
    "3759": "6f746865",
    "3760": "686f7365",
    "3761": "7572616e6365",
    "3762": "2073686f756c647374",
    "3763": "2070726f706572",
    "3764": "20686974",
    "3765": "2073746172",
    "3766": "2070726f74656374",
    "3767": "68616e74",
    "3768": "5846",
    "3769": "2062656865",
    "3770": "20776f66756c",
    "3771": "68696f6e",
    "3772": "2076616e74616765",
    "3773": "20536f6d6572736574",
    "3774": "206368696566",
    "3775": "2062656c6c79",
    "3776": "697361",
    "3777": "20706f737369626c65",
    "3778": "2062616265",
    "3779": "20637265",
    "3780": "69736573",
    "3781": "656f7573",
    "3782": "20666f6c6c6f7773",
    "3783": "0a486176696e67",
    "3784": "20616476697365",
    "3785": "2061736c656570",
    "3786": "20626567696e73",
    "3787": "206561726e",
    "3788": "63656e64",
    "3789": "414c4552",
    "3790": "706574",
    "3791": "206175676874",
    "3792": "75746573",
    "3793": "2070616972",
    "3794": "205665726f6e61",
    "3795": "696d656e74",
    "3796": "2077656e74",
    "3797": "2073746174",
    "3798": "616374",
    "3799": "20686964",
    "3800": "0a496e746f",
    "3801": "206f757477617264",
    "3802": "20646577",
    "3803": "2076696f6c656e74",
    "3804": "206e6f626c6573",
    "3805": "6c6f766564",
    "3806": "2073686172",
    "3807": "0a6d616e",
    "3808": "68617073",
    "3809": "2073696c656e6365",
    "3810": "0a6966",
    "3811": "6d696f6e",
    "3812": "61726473",
    "3813": "2043687269737469616e",
    "3814": "0a617265",
    "3815": "2063656c6c",
    "3816": "206769766573",
    "3817": "206177616b65",
    "3818": "6f6e6f756e6365",
    "3819": "72696f7573",
    "3820": "0a0a52494348",
    "3821": "20616d62",
    "3822": "20636f6e6a",
    "3823": "6f6e6773",
    "3824": "20737570706572",
    "3825": "207472656164",
    "3826": "20746964696e6773",
    "3827": "207368656570",
    "3828": "2068656176",
    "3829": "20536963",
    "3830": "20776f6e74",
    "3831": "4f4e44",
    "3832": "206d65616e696e67",
    "3833": "0a446f7374",
    "3834": "204170",
    "3835": "207374656564",
    "3836": "206361727279",
    "3837": "20596f7572",
    "3838": "2073696d706c65",
    "3839": "2077686f6c65",
    "3840": "2073686970",
    "3841": "206f6666656e64",
    "3842": "20616c6173",
    "3843": "65657468",
    "3844": "0a0a524943484d",
    "3845": "2072656365697665",
    "3846": "64726177",
    "3847": "6368616e6765",
    "3848": "0a5475726e",
    "3849": "0a526573",
    "3850": "207275696e",
    "3851": "0a7768696368",
    "3852": "58464f5244",
    "3853": "2072617363",
    "3854": "206e756d626572",
    "3855": "2073656e73",
    "3856": "0a0a534f4d",
    "3857": "0a0a534f4d455253",
    "3858": "2073746f726d",
    "3859": "0a506f6f72",
    "3860": "206c6f7564",
    "3861": "697373696f6e",
    "3862": "206d61696473",
    "3863": "73656d62",
    "3864": "205768657265",
    "3865": "2074756e65",
    "3866": "6574686f75676874",
    "3867": "206a65616c6f7573",
    "3868": "20636173746c65",
    "3869": "0a417274",
    "3870": "2070617373696e67",
    "3871": "757273646179",
    "3872": "20646576697365",
    "3873": "206c616d62",
    "3874": "20666f6c6c6f77657273",
    "3875": "207769636b6564",
    "3876": "20666f6f6c73",
    "3877": "204a6f7665",
    "3878": "2065787072657373",
    "3879": "70696e696f6e",
    "3880": "0a686973",
    "3881": "206465706f736564",
    "3882": "20636f6e6475",
    "3883": "617a65",
    "3884": "0a0a4f58464f5244",
    "3885": "706c616365",
    "3886": "0a0a524943484d4f4e44",
    "3887": "206465636569766564",
    "3888": "2064657370697465",
    "3889": "2062616e6973686564",
    "3890": "414c45524941",
    "3891": "0a0a56414c45524941",
    "3892": "207769766573",
    "3893": "206761726d656e7473",
    "3894": "20746872757374",
    "3895": "206372696573",
    "3896": "20746872697665",
    "3897": "20756e646f6e65",
    "3898": "20647265616466756c",
    "3899": "2062726f6b656e",
    "3900": "206265636f6d6573",
    "3901": "0a42657369646573",
    "3902": "2047726579",
    "3903": "207075626c",
    "3904": "206f63636173696f6e",
    "3905": "20666174616c",
    "3906": "20617574686f72697479",
    "3907": "0a0a534f4d4552534554",
    "3908": "2066617274686572",
    "3909": "207468726f6174",
    "3910": "2062656e65666974",
    "3911": "2061666661697273",
    "3912": "207472656163686572",
    "3913": "20746564696f7573",
    "3914": "6d696f6e65",
    "3915": "425241",
    "3916": "20756e74696c",
    "3917": "676f",
    "3918": "206465617265",
    "3919": "5341",
    "3920": "20696e66656374",
    "3921": "206b65657073",
    "3922": "20746f70",
    "3923": "737761696e",
    "3924": "6567",
    "3925": "656e6e",
    "3926": "0a48617374",
    "3927": "0a6f6e",
    "3928": "2073616e",
    "3929": "20726f62",
    "3930": "2064656c6179",
    "3931": "207061727473",
    "3932": "2062657477697874",
    "3933": "4859",
    "3934": "204d656e656e697573",
    "3935": "696c6c73",
    "3936": "20626f6e64",
    "3937": "75746174696f6e",
    "3938": "206b696e676c79",
    "3939": "206375727374",
    "3940": "20706572696c",
    "3941": "206e6567",
    "3942": "206572",
    "3943": "726f6e",
    "3944": "6c646f6d",
    "3945": "20736f727279",
    "3946": "20696e74656e64",
    "3947": "726f6f6d",
    "3948": "207265736f6c7665",
    "3949": "20646574",
    "3950": "2070696e",
    "3951": "20646973706f736974696f6e",
    "3952": "0a7374",
    "3953": "6f7465",
    "3954": "207370617265",
    "3955": "0a6173",
    "3956": "63696e67",
    "3957": "70696e67",
    "3958": "207472616e73",
    "3959": "206578696c65",
    "3960": "6f6174",
    "3961": "69726f6e",
    "3962": "2072617368",
    "3963": "206f7765",
    "3964": "696d656c79",
    "3965": "2073656173",
    "3966": "6564696e67",
    "3967": "206c6970",
    "3968": "696c6c696e67",
    "3969": "484f52",
    "3970": "0a0a4142484f52",
    "3971": "20616666656374",
    "3972": "6166746572",
    "3973": "20616e6765",
    "3974": "75727374",
    "3975": "2063616c",
    "3976": "206c656e64",
    "3977": "206c6f64",
    "3978": "0a536861",
    "3979": "2073746f7265",
    "3980": "204861727279",
    "3981": "206761696e",
    "3982": "65617665",
    "3983": "207369676873",
    "3984": "2062616e64",
    "3985": "20737570",
    "3986": "4f505341",
    "3987": "2064696e6e6572",
    "3988": "72756e",
    "3989": "7573696f6e",
    "3990": "207072697a65",
    "3991": "79617264",
    "3992": "20746f7274",
    "3993": "656c6c6f",
    "3994": "686f70",
    "3995": "2076616e",
    "3996": "20776569676874",
    "3997": "656e74757265",
    "3998": "204672696172",
    "3999": "6f75736573",
    "4000": "2073687574",
    "4001": "20657175",
    "4002": "207477656c7665",
    "4003": "2077696e65",
    "4004": "206e696e65",
    "4005": "206e616d6573",
    "4006": "207370656e64",
    "4007": "20506f6c",
    "4008": "20626568656c64",
    "4009": "2062726f6f6b",
    "4010": "0a0a425553",
    "4011": "20616476616e74616765",
    "4012": "4c495553",
    "4013": "2073746570",
    "4014": "69666665",
    "4015": "206c65616e",
    "4016": "696f6e64",
    "4017": "696f6e64656c6c6f",
    "4018": "2073776179",
    "4019": "20636f756e74656e616e6365",
    "4020": "20647565",
    "4021": "2071756974",
    "4022": "0a0a4d414d494c",
    "4023": "0a0a4d414d494c4c495553",
    "4024": "0a4772656174",
    "4025": "0a506572",
    "4026": "2067656e746c65776f6d616e",
    "4027": "757374696365",
    "4028": "206163637573",
    "4029": "20666c69676874",
    "4030": "20726f6f6d",
    "4031": "0a776f756c64",
    "4032": "204d7573696369616e",
    "4033": "2064697364",
    "4034": "20646573657274",
    "4035": "20636f6e71756572",
    "4036": "2067616765",
    "4037": "206d6973657261626c65",
    "4038": "6572766564",
    "4039": "2077656170",
    "4040": "20706879736963",
    "4041": "616e6379",
    "4042": "2070726579",
    "4043": "20706572697368",
    "4044": "2062656c696b65",
    "4045": "207072657061726564",
    "4046": "6974656f7573",
    "4047": "0a0a54484f4d4153",
    "4048": "2077686974686572",
    "4049": "0a0a5354414e4c4559",
    "4050": "0a0a4142484f52534f4e",
    "4051": "6f72736573",
    "4052": "20736861646f77",
    "4053": "2072656e6f776e",
    "4054": "206368616972",
    "4055": "20656e76696f7573",
    "4056": "20636f6c6f7572",
    "4057": "20736978",
    "4058": "20636f757274657379",
    "4059": "20706c6561736564",
    "4060": "2073746f636b",
    "4061": "204361697573",
    "4062": "666669636572",
    "4063": "6f756e7479",
    "4064": "207374756666",
    "4065": "2073616e6374",
    "4066": "6974756465",
    "4067": "2064656e696564",
    "4068": "2073706972697473",
    "4069": "205468757273646179",
    "4070": "2070756e697368",
    "4071": "0a56657279",
    "4072": "2073696c766572",
    "4073": "206c656773",
    "4074": "204d4f57",
    "4075": "204d4f57425241",
    "4076": "2077616e646572",
    "4077": "2068756d626c79",
    "4078": "20426f6e61",
    "4079": "2064616d6e6564",
    "4080": "2068757274",
    "4081": "20636c656172",
    "4082": "20706c656173616e74",
    "4083": "2077656464696e67",
    "4084": "207061776e",
    "4085": "20666f7273776f726e",
    "4086": "207461737465",
    "4087": "20746872656174656e",
    "4088": "20636f6e7472617279",
    "4089": "2070616c616365",
    "4090": "0a0a455845544552",
    "4091": "206e65696768626f7572",
    "4092": "6978656e6573",
    "4093": "20657863656c6c",
    "4094": "207370656369",
    "4095": "207061706572",
    "4096": "20756e6e6174",
    "4097": "2063756e6e696e67",
    "4098": "20656d707479",
    "4099": "0a0a4d4f505341",
    "4100": "0a0a4255534859",
    "4101": "204d4f5742524159",
    "4102": "207472656d62",
    "4103": "6973696e67",
    "4104": "6f63",
    "4105": "207365657374",
    "4106": "20657870656374",
    "4107": "4f53",
    "4108": "207461626c65",
    "4109": "20796f6e646572",
    "4110": "206f6e6573",
    "4111": "2062656c6f766564",
    "4112": "2062616c6c",
    "4113": "666572",
    "4114": "20776f74",
    "4115": "206469",
    "4116": "6f6b65",
    "4117": "206d656e64",
    "4118": "20666f7274756e6573",
    "4119": "4564",
    "4120": "686f72",
    "4121": "2042696f6e64656c6c6f",
    "4122": "68657374",
    "4123": "206e61747572616c",
    "4124": "2067726f616e",
    "4125": "0a5269676874",
    "4126": "0a4e6f6e65",
    "4127": "4348",
    "4128": "0a5363",
    "4129": "0a7265",
    "4130": "726962",
    "4131": "20747574",
    "4132": "656e65",
    "4133": "20616d656e",
    "4134": "207061696e746564",
    "4135": "20666f6c6c79",
    "4136": "65727665",
    "4137": "20646167",
    "4138": "73696e67",
    "4139": "0a526570",
    "4140": "616e65",
    "4141": "6d697479",
    "4142": "414c5448",
    "4143": "20626577",
    "4144": "20626173",
    "4145": "20666173",
    "4146": "20666c65",
    "4147": "6963696f6e",
    "4148": "61796f72",
    "4149": "2068656564",
    "4150": "697267",
    "4151": "6c656374",
    "4152": "75746564",
    "4153": "20526976657273",
    "4154": "207065727375",
    "4155": "206f70696e696f6e",
    "4156": "0a5468726565",
    "4157": "2066726f",
    "4158": "2050455243",
    "4159": "706963696f6e",
    "4160": "6369616e",
    "4161": "6f757473",
    "4162": "2064656274",
    "4163": "686f7265",
    "4164": "72756c79",
    "4165": "206d616b696e67",
    "4166": "20776f6f64",
    "4167": "20676f6f646e657373",
    "4168": "7572696f7573",
    "4169": "616d6564",
    "4170": "207072696e636573",
    "4171": "206e65656466756c",
    "4172": "73657175",
    "4173": "2062617265",
    "4174": "7070696e67",
    "4175": "20466c",
    "4176": "756d626c65",
    "4177": "2063726f776e73",
    "4178": "2064697373",
    "4179": "206661696c",
    "4180": "2067617465",
    "4181": "20656e6473",
    "4182": "20756e64657274616b65",
    "4183": "206472756d",
    "4184": "20706f7274",
    "4185": "20446964",
    "4186": "20776f6c",
    "4187": "6f6c6572",
    "4188": "20736f6d6574696d65",
    "4189": "6c65736f6d65",
    "4190": "207265736f6c766564",
    "4191": "657074",
    "4192": "20636f6c6f757273",
    "4193": "20776f6e64",
    "4194": "796f6e64",
    "4195": "20616363757365",
    "4196": "20696e737472756d656e74",
    "4197": "20746865697273",
    "4198": "206a6f7966756c",
    "4199": "20617267",
    "4200": "2070757265",
    "4201": "20736565696e67",
    "4202": "6f7572697368",
    "4203": "20696e74656e74",
    "4204": "206d6f74696f6e",
    "4205": "63696f",
    "4206": "20706c6f74",
    "4207": "0a507265",
    "4208": "20686f706573",
    "4209": "6967656e6365",
    "4210": "20726577617264",
    "4211": "207363657074",
    "4212": "206d75726465726572",
    "4213": "206e616b6564",
    "4214": "206469676e",
    "4215": "2064696573",
    "4216": "6172696573",
    "4217": "20776f756e646564",
    "4218": "636c6f636b",
    "4219": "20746f6d62",
    "4220": "20666565",
    "4221": "7265617365",
    "4222": "20636f7272757074",
    "4223": "20736c6f77",
    "4224": "0a0a424953484f50",
    "4225": "0a50726974686565",
    "4226": "207075626c6963",
    "4227": "20617474656d7074",
    "4228": "207765696768",
    "4229": "2070726f74657374",
    "4230": "204d657373656e676572",
    "4231": "20636f6d706c65",
    "4232": "2061646f",
    "4233": "205374616e6c6579",
    "4234": "20627564",
    "4235": "207772617468",
    "4236": "20686174726564",
    "4237": "41534152",
    "4238": "204e6170",
    "4239": "20637572736564",
    "4240": "20636f6e74696e7565",
    "4241": "206d697373",
    "4242": "206861726b",
    "4243": "20636f7572616765",
    "4244": "2077697473",
    "4245": "206f62656469656e6365",
    "4246": "20616363657373",
    "4247": "20656e64757265",
    "4248": "0a4f6e6c79",
    "4249": "206c616e6775616765",
    "4250": "2050697361",
    "4251": "0a0a5461696c6f72",
    "4252": "20626f64696573",
    "4253": "0a436f7573696e",
    "4254": "206a6f7973",
    "4255": "206d697374616b65",
    "4256": "2073746f7279",
    "4257": "2068617070696e657373",
    "4258": "2063656e73",
    "4259": "206d6973657279",
    "4260": "20756e6e61747572616c",
    "4261": "206368696465",
    "4262": "0a4b6e6f77",
    "4263": "20616476616e6365",
    "4264": "2070657266656374",
    "4265": "20637261636b",
    "4266": "0a0a41524348",
    "4267": "205065746572",
    "4268": "2073706f6b656e",
    "4269": "206d61726b6574",
    "4270": "205768656e",
    "4271": "206772696576",
    "4272": "63617065",
    "4273": "20776174657273",
    "4274": "2072656d61696e73",
    "4275": "2063697263756d",
    "4276": "20637570",
    "4277": "20746572726f72",
    "4278": "207768696c6573",
    "4279": "20696e737472756374",
    "4280": "20637572736573",
    "4281": "2070726f6e6f756e6365",
    "4282": "207072696e63657373",
    "4283": "2063616c6d",
    "4284": "207175656e6368",
    "4285": "205045524359",
    "4286": "0a4e6f7468696e67",
    "4287": "20616363657074",
    "4288": "6b65646f6d",
    "4289": "206d6f75726e",
    "4290": "2070656e6974",
    "4291": "656e6379",
    "4292": "206275727468656e",
    "4293": "0a4465617468",
    "4294": "68656172746564",
    "4295": "20676f7665726e6d656e74",
    "4296": "0a54776f",
    "4297": "2073656e61746f7273",
    "4298": "207065746974696f6e",
    "4299": "20646973636f6e74656e74",
    "4300": "0a42656c69657665",
    "4301": "207365766572616c",
    "4302": "20637265646974",
    "4303": "20777265636b",
    "4304": "20736f6c656d6e",
    "4305": "20646175676874657273",
    "4306": "20656d706c6f79",
    "4307": "2072656d656d6272616e6365",
    "4308": "206173737572616e6365",
    "4309": "20706572706574",
    "4310": "20706974656f7573",
    "4311": "206475727374",
    "4312": "20506f6c6978656e6573",
    "4313": "0a0a42414c5448",
    "4314": "0a0a42414c544841534152",
    "4315": "2064756b65646f6d",
    "4316": "4f4c4b",
    "4317": "207475726e73",
    "4318": "7972",
    "4319": "20626c6f636b",
    "4320": "756d656e74",
    "4321": "0a4172",
    "4322": "20636f6d657374",
    "4323": "6c6172",
    "4324": "6f65",
    "4325": "206f64",
    "4326": "2067726f7773",
    "4327": "206163636f7264",
    "4328": "2054616b65",
    "4329": "20636f6d706c61696e",
    "4330": "6374696f6e73",
    "4331": "464f4c4b",
    "4332": "2068617a",
    "4333": "7261696e",
    "4334": "616b657374",
    "4335": "2057686f",
    "4336": "20476f6f64",
    "4337": "0a4d69676874",
    "4338": "0a7468657265",
    "4339": "20756e74696d656c79",
    "4340": "2069736c65",
    "4341": "207175616c",
    "4342": "657264",
    "4343": "697461",
    "4344": "206c6564",
    "4345": "20616273656e74",
    "4346": "77686174",
    "4347": "6f6e7374",
    "4348": "206c6f6f6b696e67",
    "4349": "2077617973",
    "4350": "626f77",
    "4351": "206772616e746564",
    "4352": "6f6d656e",
    "4353": "20686f7374",
    "4354": "2072756c65",
    "4355": "206d6167",
    "4356": "20536f",
    "4357": "206d657265",
    "4358": "207365656d696e67",
    "4359": "0a5374696c6c",
    "4360": "206861746566756c",
    "4361": "20697473",
    "4362": "206b696e",
    "4363": "0a417070",
    "4364": "616e7473",
    "4365": "2073696e73",
    "4366": "76616c",
    "4367": "0a42656172",
    "4368": "20677275",
    "4369": "2043616c",
    "4370": "2070726976696c65",
    "4371": "2077686f7265",
    "4372": "2074657374",
    "4373": "207472616465",
    "4374": "6e6f6f6e",
    "4375": "206e6f75676874",
    "4376": "20426c",
    "4377": "206f6464",
    "4378": "656c74",
    "4379": "75736573",
    "4380": "207377616c6c6f77",
    "4381": "20736570",
    "4382": "61727473",
    "4383": "6a757374",
    "4384": "2062657468",
    "4385": "67657273",
    "4386": "204e61706c6573",
    "4387": "77697365",
    "4388": "2043616e",
    "4389": "2065617374",
    "4390": "207368617270",
    "4391": "20616c746572",
    "4392": "20686f72736573",
    "4393": "616665",
    "4394": "766f757273",
    "4395": "20456c",
    "4396": "61696e7461696e",
    "4397": "6c6963",
    "4398": "61746963",
    "4399": "20636f6e63",
    "4400": "0a526574",
    "4401": "697065",
    "4402": "2066617468657273",
    "4403": "207363656e65",
    "4404": "20626c757368",
    "4405": "61726564",
    "4406": "6172656e74",
    "4407": "20706f6c",
    "4408": "2073696e6b",
    "4409": "0a0a426f7468",
    "4410": "207465657468",
    "4411": "20707261697365",
    "4412": "20596574",
    "4413": "2063616d657374",
    "4414": "20756e6861",
    "4415": "2066616d65",
    "4416": "73616d65",
    "4417": "2063686f6c6572",
    "4418": "207368617065",
    "4419": "206c65616473",
    "4420": "206365617365",
    "4421": "2072657065",
    "4422": "6964656e6365",
    "4423": "207368756e",
    "4424": "2072696e67",
    "4425": "0a636f6d",
    "4426": "2061726d6f7572",
    "4427": "626f726e",
    "4428": "6f7572616765",
    "4429": "20726f7365",
    "4430": "0a0a50616765",
    "4431": "20667269656e646c79",
    "4432": "206272696e6773",
    "4433": "206170707265",
    "4434": "20736c6179",
    "4435": "20666c696573",
    "4436": "6965766564",
    "4437": "6f766564",
    "4438": "20666169726c79",
    "4439": "746c6564",
    "4440": "20616476657273",
    "4441": "20626f6172",
    "4442": "20706172746963",
    "4443": "6973686f70",
    "4444": "20636c6f",
    "4445": "6c6177",
    "4446": "0a7368616c6c",
    "4447": "204c7563696f",
    "4448": "617469656e6365",
    "4449": "206170706172656c",
    "4450": "206c61726765",
    "4451": "6973706572",
    "4452": "20646973636f766572",
    "4453": "207772697465",
    "4454": "207370697465",
    "4455": "206b6579",
    "4456": "2077616e7473",
    "4457": "72657373696f6e",
    "4458": "2069736c616e64",
    "4459": "20696d6d",
    "4460": "206465736572766573",
    "4461": "434153",
    "4462": "0a0a444f52434153",
    "4463": "204e6179",
    "4464": "206461726573",
    "4465": "6f72736574",
    "4466": "6966696564",
    "4467": "20627261696e",
    "4468": "656e636573",
    "4469": "206661636573",
    "4470": "20736c657074",
    "4471": "20736d6f6f7468",
    "4472": "6f6c64696572",
    "4473": "206d696c65",
    "4474": "0a4d61726b",
    "4475": "20636f6d70617373",
    "4476": "20636f6d6d616e646564",
    "4477": "20636f636b",
    "4478": "0a48656176656e",
    "4479": "2070617373616765",
    "4480": "75617279",
    "4481": "2054686579",
    "4482": "204865726d696f6e65",
    "4483": "0a4c6f7665",
    "4484": "20726570616972",
    "4485": "206d616964656e",
    "4486": "0a0a4e4f52464f4c4b",
    "4487": "207374726577",
    "4488": "7574656f7573",
    "4489": "6f6c757465",
    "4490": "0a6d79",
    "4491": "20696e7374616e74",
    "4492": "207265616c6d",
    "4493": "20696d706f7373",
    "4494": "2070726f737065726f7573",
    "4495": "20646567726565",
    "4496": "20686572656166746572",
    "4497": "20726573706563746564",
    "4498": "2068616e67696e67",
    "4499": "20636f6e74656e746564",
    "4500": "20676c6f72696f7573",
    "4501": "2068756e74",
    "4502": "20667265656c79",
    "4503": "207365727669636573",
    "4504": "2074656d706572",
    "4505": "206472756d73",
    "4506": "20696e637265617365",
    "4507": "0a74686973",
    "4508": "207465726d73",
    "4509": "207265736f6c7574696f6e",
    "4510": "2073686f72746c79",
    "4511": "20766578",
    "4512": "20706f77657273",
    "4513": "20646167676572",
    "4514": "2076656e6f6d",
    "4515": "6368616e6365",
    "4516": "2064726f7073",
    "4517": "206a6f75726e",
    "4518": "6f6174737761696e",
    "4519": "206672616d65",
    "4520": "20656e6d697479",
    "4521": "20617070726f616368",
    "4522": "20737573706963696f6e",
    "4523": "20746f726d656e74",
    "4524": "20756e6b6e6f776e",
    "4525": "20686f75736573",
    "4526": "207365697a65",
    "4527": "207265766572656e64",
    "4528": "206469736461696e",
    "4529": "206361707461696e",
    "4530": "206d616e6e657273",
    "4531": "2073636f7065",
    "4532": "204672656e6368",
    "4533": "207661756c74",
    "4534": "20636f6e7472616374",
    "4535": "20707572636861",
    "4536": "0a54686f7365",
    "4537": "206561726e657374",
    "4538": "20657863656c6c656e74",
    "4539": "20524f53",
    "4540": "2076697267",
    "4541": "206265796f6e64",
    "4542": "2073636570747265",
    "4543": "206f646473",
    "4544": "20524f5353",
    "4545": "6174757265",
    "4546": "207377656c6c",
    "4547": "4e53",
    "4548": "7072",
    "4549": "0a0a414c4f",
    "4550": "0a5468616e6b73",
    "4551": "20636f6e7369646572",
    "4552": "0a0a414564",
    "4553": "0a736865",
    "4554": "61646573",
    "4555": "706564",
    "4556": "20636f756e7479",
    "4557": "2072656a",
    "4558": "20736f756e646c79",
    "4559": "726567",
    "4560": "20546974",
    "4561": "20726f677565",
    "4562": "61746572",
    "4563": "0a0a526f6d616e",
    "4564": "0a506c65617365",
    "4565": "0a4c6f6e67",
    "4566": "616c696e65",
    "4567": "206b696e646c79",
    "4568": "206361746368",
    "4569": "616e64616c",
    "4570": "5252",
    "4571": "20776f726e",
    "4572": "4748",
    "4573": "0a536574",
    "4574": "2066616d6f7573",
    "4575": "6b696e",
    "4576": "20636f6d70616e",
    "4577": "6976656e",
    "4578": "696e79",
    "4579": "68656e64",
    "4580": "20736561736f6e",
    "4581": "206c696f6e",
    "4582": "206d6f72",
    "4583": "20726f6172",
    "4584": "20646967",
    "4585": "726963",
    "4586": "206772656174657374",
    "4587": "206461",
    "4588": "206461696c79",
    "4589": "2061727269766564",
    "4590": "206a6577",
    "4591": "207072657373",
    "4592": "2063686174",
    "4593": "20497265",
    "4594": "61636573",
    "4595": "206c75737479",
    "4596": "20746175676874",
    "4597": "20657374617465",
    "4598": "2070726f766f",
    "4599": "205468657265666f7265",
    "4600": "756365",
    "4601": "2070726f746563746f72",
    "4602": "20446f",
    "4603": "656d626572",
    "4604": "20647269",
    "4605": "206d696c6c",
    "4606": "616c6573",
    "4607": "20696d707269736f6e6d656e74",
    "4608": "20756e6c657373",
    "4609": "206a6f75726e6579",
    "4610": "206c6f76656c79",
    "4611": "0a486173",
    "4612": "20636f6e6365",
    "4613": "20737175",
    "4614": "6d656e64",
    "4615": "696e6174696f6e",
    "4616": "206265617264",
    "4617": "207375636b",
    "4618": "20646972656374",
    "4619": "206665617273",
    "4620": "0a4d6172",
    "4621": "2077696c6c696e67",
    "4622": "0a0a47686f7374",
    "4623": "0a0a46455244",
    "4624": "2073707572",
    "4625": "0a0a475245454e",
    "4626": "2073756c6c",
    "4627": "2063757272656e74",
    "4628": "2077616974",
    "4629": "20737072",
    "4630": "206166666f7264",
    "4631": "20436f",
    "4632": "207761726c696b65",
    "4633": "20526f6d",
    "4634": "534554",
    "4635": "2070617373696f6e",
    "4636": "206d65616e74",
    "4637": "20756e67",
    "4638": "717565",
    "4639": "20616666656374696f6e73",
    "4640": "69617465",
    "4641": "20636f6d62",
    "4642": "20426572",
    "4643": "204d696c",
    "4644": "2061626c65",
    "4645": "476f64",
    "4646": "204265",
    "4647": "2077656174686572",
    "4648": "2073746f6c",
    "4649": "2074616d65",
    "4650": "2074696465",
    "4651": "206d657373656e676572",
    "4652": "206162686f72",
    "4653": "7065616b",
    "4654": "20776f7274",
    "4655": "20666967",
    "4656": "207374756479",
    "4657": "0a43616d65",
    "4658": "2062726177",
    "4659": "207265636f7264",
    "4660": "206d7573746572",
    "4661": "204164",
    "4662": "2050726f",
    "4663": "204972656c616e64",
    "4664": "0a596f756e67",
    "4665": "207374616d70",
    "4666": "2061766f6964",
    "4667": "20706965636573",
    "4668": "20676976696e67",
    "4669": "20656e73",
    "4670": "20626f6f7473",
    "4671": "2077657074",
    "4672": "20636f756e74657266656974",
    "4673": "207261697365",
    "4674": "2074686f726e",
    "4675": "20736572766573",
    "4676": "207065657273",
    "4677": "0a4f6666",
    "4678": "2076697267696e",
    "4679": "2074656c6c73",
    "4680": "206275696c64",
    "4681": "0a74686579",
    "4682": "20686f6c6473",
    "4683": "0a53617665",
    "4684": "0a556e74696c",
    "4685": "206675726e",
    "4686": "206861737479",
    "4687": "2077696e6473",
    "4688": "0a52656d",
    "4689": "20746170",
    "4690": "206164766572",
    "4691": "20636c616d",
    "4692": "207065726a",
    "4693": "206b6e696665",
    "4694": "616e636573",
    "4695": "206e6f727468",
    "4696": "20706172746963756c6172",
    "4697": "20646973706572",
    "4698": "2072757468",
    "4699": "20726170",
    "4700": "20736d696c6573",
    "4701": "6c6f7665",
    "4702": "206472657373",
    "4703": "20677269657665",
    "4704": "20626567756e",
    "4705": "72656d65",
    "4706": "20696e74656c6c",
    "4707": "206f70706f73",
    "4708": "7261636564",
    "4709": "2073656e6473",
    "4710": "204a61636b",
    "4711": "20766f7773",
    "4712": "2077726f75676874",
    "4713": "207769746368",
    "4714": "0a74686f75",
    "4715": "20526f73",
    "4716": "20736b79",
    "4717": "2061737375726564",
    "4718": "207265766f6c",
    "4719": "66726574",
    "4720": "20506f6d66726574",
    "4721": "206c61726b",
    "4722": "2041706f6c6c6f",
    "4723": "6174636c",
    "4724": "2050726179",
    "4725": "20656c646572",
    "4726": "0a416d656e",
    "4727": "206e6f626c79",
    "4728": "2066696e6473",
    "4729": "0a53747269",
    "4730": "2067726f616e73",
    "4731": "2063686172676564",
    "4732": "207061747269",
    "4733": "20436f6e73",
    "4734": "20436f6e73706972",
    "4735": "0a0a414564696c65",
    "4736": "0a436f6e73",
    "4737": "207761737465",
    "4738": "2067726579",
    "4739": "206761726c616e64",
    "4740": "20616476696365",
    "4741": "2062757279",
    "4742": "20726576656e676564",
    "4743": "2077686572656f66",
    "4744": "2068616e676564",
    "4745": "20636f6e63656974",
    "4746": "20646172657374",
    "4747": "204661726577656c6c",
    "4748": "0a547962616c74",
    "4749": "0a0a444f52534554",
    "4750": "207265636f6d",
    "4751": "2070726f666974",
    "4752": "20736f757468",
    "4753": "2073747265657473",
    "4754": "0a53757070",
    "4755": "206e6f626c",
    "4756": "207468696566",
    "4757": "20636f6e7374616e74",
    "4758": "0a57686974686572",
    "4759": "20686172646c79",
    "4760": "756e74736d616e",
    "4761": "207061726c69",
    "4762": "0a48656c70",
    "4763": "207665696e73",
    "4764": "20666f7262656172",
    "4765": "2061636375736564",
    "4766": "20746872696365",
    "4767": "2062657468696e6b",
    "4768": "65726e73",
    "4769": "20636f6d6d6974746564",
    "4770": "20737570706f736564",
    "4771": "0a42657365656368",
    "4772": "2077696c6c696e676c79",
    "4773": "207572676564",
    "4774": "20706572666f726365",
    "4775": "206861706c79",
    "4776": "0a41626f7574",
    "4777": "2074726561636865726f7573",
    "4778": "0a4d69737472657373",
    "4779": "0a0a46455244494e",
    "4780": "0a0a46455244494e414e44",
    "4781": "207370656369616c",
    "4782": "2064657374726f79",
    "4783": "0a576f72746879",
    "4784": "2072617363616c",
    "4785": "20626568616c66",
    "4786": "20616d617a6564",
    "4787": "0a47656e746c656d656e",
    "4788": "204d61727368616c",
    "4789": "20636f6e64756374",
    "4790": "2067726965766f7573",
    "4791": "2070657270657475616c",
    "4792": "20706172656e74",
    "4793": "0a0a54595252",
    "4794": "2073616e637475617279",
    "4795": "0a0a426f6174737761696e",
    "4796": "4e534f",
    "4797": "0a0a414c4f4e534f",
    "4798": "20526f6d616e73",
    "4799": "20776f72746869",
    "4800": "6174636c696666",
    "4801": "207061726c69616d656e74",
    "4802": "0a0a54595252454c",
    "4803": "6166",
    "4804": "2072757374",
    "4805": "0a4c65617665",
    "4806": "206c696e",
    "4807": "636569",
    "4808": "646967",
    "4809": "206576656e74",
    "4810": "20666f7273",
    "4811": "20747761696e",
    "4812": "666c",
    "4813": "616c6973",
    "4814": "697363",
    "4815": "7265656e",
    "4816": "0a5570",
    "4817": "5468",
    "4818": "6b6572",
    "4819": "726f77617264",
    "4820": "61646564",
    "4821": "20616c74686f756768",
    "4822": "20796f6b65",
    "4823": "206b6e61766573",
    "4824": "20706f77657266756c",
    "4825": "6962",
    "4826": "2066617368696f6e",
    "4827": "616d696e67",
    "4828": "204c65",
    "4829": "676172",
    "4830": "2073657473",
    "4831": "7a7a",
    "4832": "616476",
    "4833": "20736179696e67",
    "4834": "0a0a566f6c73",
    "4835": "2066656574",
    "4836": "6661636564",
    "4837": "736572",
    "4838": "2063686572",
    "4839": "65736172",
    "4840": "20626574726179",
    "4841": "756974",
    "4842": "0a616e",
    "4843": "207a",
    "4844": "726163",
    "4845": "2073746f7070",
    "4846": "207379",
    "4847": "65726379",
    "4848": "20736f7265",
    "4849": "70617373",
    "4850": "20617373757265",
    "4851": "6972656374",
    "4852": "20666c6f6f64",
    "4853": "756c617465",
    "4854": "656c6c696f6e",
    "4855": "206669",
    "4856": "20616368",
    "4857": "6f75727365",
    "4858": "20686f72",
    "4859": "61726d",
    "4860": "207069",
    "4861": "617474657265",
    "4862": "766574",
    "4863": "20706f74",
    "4864": "20646f77",
    "4865": "207772696e6b",
    "4866": "2070757473",
    "4867": "75696e67",
    "4868": "20696e67",
    "4869": "2077696e67",
    "4870": "656174",
    "4871": "20636f6d6d6f6e73",
    "4872": "2066616e6379",
    "4873": "6e616c",
    "4874": "20636f727265",
    "4875": "616d62",
    "4876": "65646572",
    "4877": "2062616465",
    "4878": "7574656e",
    "4879": "7574656e616e74",
    "4880": "206d656c",
    "4881": "20736f6f7468",
    "4882": "66616c6c",
    "4883": "2064696d",
    "4884": "696c656e6365",
    "4885": "73656d626c65",
    "4886": "2073746f7574",
    "4887": "0a686572",
    "4888": "206170706574",
    "4889": "0a44656172",
    "4890": "206d656c74",
    "4891": "6572697479",
    "4892": "207374696e67",
    "4893": "6174697665",
    "4894": "797272656c",
    "4895": "616c79",
    "4896": "666f72636564",
    "4897": "2057656c6c",
    "4898": "20677261766573",
    "4899": "65726279",
    "4900": "2073616c",
    "4901": "0a0a506f7374",
    "4902": "616d73",
    "4903": "6d6f7265",
    "4904": "6e7479",
    "4905": "207374726f",
    "4906": "726f6c6c",
    "4907": "20666f6f64",
    "4908": "5477657265",
    "4909": "7269636b",
    "4910": "207265636b",
    "4911": "6573746564",
    "4912": "204578",
    "4913": "66657373",
    "4914": "6465656d",
    "4915": "2070617274696e67",
    "4916": "20636c696d",
    "4917": "6572766573",
    "4918": "2073697265",
    "4919": "0a57696c74",
    "4920": "2068656c6d",
    "4921": "20766573",
    "4922": "206368617365",
    "4923": "206c656e677468",
    "4924": "616c7573",
    "4925": "20696e7175",
    "4926": "0a73686f756c64",
    "4927": "2073656573",
    "4928": "20737565",
    "4929": "2072617265",
    "4930": "6f75727468",
    "4931": "2073706c65",
    "4932": "6561726572",
    "4933": "2077616b696e67",
    "4934": "20736563757265",
    "4935": "20617074",
    "4936": "204d617269616e",
    "4937": "20636861726163",
    "4938": "20736f6d6574696d6573",
    "4939": "0a4d616b6573",
    "4940": "69746174696f6e",
    "4941": "0a74686565",
    "4942": "206d6f75746873",
    "4943": "20626c756e74",
    "4944": "2061626f617264",
    "4945": "696379",
    "4946": "666f727468",
    "4947": "20686965",
    "4948": "2047697665",
    "4949": "61726573",
    "4950": "20666169746866756c",
    "4951": "2077696465",
    "4952": "20747269636b",
    "4953": "6861726765",
    "4954": "2062656c6f77",
    "4955": "666174686572",
    "4956": "20636f6e6665",
    "4957": "20796f6e64",
    "4958": "2070696c67",
    "4959": "697070",
    "4960": "206d756c74",
    "4961": "0a416363",
    "4962": "20686f6c70",
    "4963": "20666f7266656974",
    "4964": "4c4953",
    "4965": "2077686973706572",
    "4966": "20706f756e64",
    "4967": "206170706172656e74",
    "4968": "20416c6c",
    "4969": "6f6e6369",
    "4970": "616e63686f6c79",
    "4971": "20756e6a757374",
    "4972": "207265636f6e6369",
    "4973": "74696d65",
    "4974": "2073696e676c65",
    "4975": "6f73696e67",
    "4976": "2066756e",
    "4977": "757074",
    "4978": "20726567617264",
    "4979": "74696573",
    "4980": "207072657474",
    "4981": "206469736772616365",
    "4982": "207468697264",
    "4983": "20616c61636b",
    "4984": "69676e7479",
    "4985": "20736f7665726569676e7479",
    "4986": "2065786368616e6765",
    "4987": "61676573",
    "4988": "69657479",
    "4989": "207075727365",
    "4990": "2041776179",
    "4991": "207472656d626c65",
    "4992": "75706f6e",
    "4993": "20636175676874",
    "4994": "2063657265",
    "4995": "2066726f77617264",
    "4996": "206e65776c79",
    "4997": "20706172746c79",
    "4998": "206162696465",
    "4999": "2063616c6c6564",
    "5000": "3c73797374656d3e",
    "5001": "3c2f73797374656d3e",
    "5002": "3c757365723e",
    "5003": "3c2f757365723e",
    "5004": "3c617373697374616e743e",
    "5005": "3c2f617373697374616e743e"
  },
  "vocab_size": 5006,
  "merges": [
    [36, 120, 260],
    [108, 105, 261],
    [36, 101, 262],
    [115, 121, 263],
    [36, 119, 264],
    [36, 113, 265],
    [109, 114, 266],
    [36, 123, 267],
    [118, 105, 268],
    [108, 101, 269],
    [114, 104, 270],
    [260, 261, 271],
    [36, 102, 272],
    [109, 119, 273],
    [115, 118, 274],
    [14, 14, 275],
    [36, 106, 276],
    [105, 118, 277],
    [112, 112, 278],
    [109, 120, 279],
    [115, 114, 280],
    [36, 104, 281],
    [36, 103, 282],
    [105, 119, 283],
    [105, 114, 284],
    [36, 114, 285],
    [36, 112, 286],
    [36, 125, 287],
    [260, 108, 288],
    [101, 118, 289],
    [36, 108, 290],
    [36, 115, 291],
    [260, 115, 292],
    [287, 263, 293],
    [36, 116, 294],
    [269, 120, 295],
    [36, 77, 296],
    [36, 261, 297],
    [14, 88, 298],
    [119, 120, 299],
    [122, 105, 300],
    [115, 120, 301],
    [262, 270, 302],
    [115, 123, 303],
    [266, 107, 304],
    [101, 114, 305],
    [291, 106, 306],
    [115, 113, 307],
    [36, 107, 308],
    [14, 69, 309],
    [101, 120, 310],
    [272, 105, 311],
    [119, 105, 312],
    [265, 125, 313],
    [36, 266, 314],
    [103, 105, 315],
    [36, 269, 316],
    [112, 105, 317],
    [14, 91, 318],
    [101, 125, 319],
    [112, 104, 320],
    [109, 118, 321],
    [105, 120, 322],
    [14, 77, 323],
    [105, 104, 324],
    [121, 120, 325],
    [265, 105, 326],
    [109, 113, 327],
    [279, 108, 328],
    [285, 301, 329],
    [103, 108, 330],
    [260, 295, 331],
    [36, 273, 332],
    [107, 108, 333],
    [309, 270, 334],
    [276, 274, 335],
    [111, 105, 336],
    [36, 121, 337],
    [263, 118, 338],
    [267, 105, 339],
    [115, 115, 340],
    [109, 278, 341],
    [36, 105, 342],
    [261, 118, 343],
    [267, 328, 344],
    [284, 120, 345],
    [36, 279, 346],
    [293, 118, 347],
    [101, 104, 348],
    [118, 109, 349],
    [288, 263, 350],
    [264, 120, 351],
    [36, 111, 352],
    [307, 105, 353],
    [290, 273, 354],
    [333, 120, 355],
    [73, 82, 356],
    [274, 104, 357],
    [109, 104, 358],
    [101, 119, 359],
    [36, 268, 360],
    [316, 300, 361],
    [77, 82, 362],
    [112, 125, 363],
    [118, 101, 364],
    [286, 109, 365],
    [290, 327, 366],
    [14, 76, 367],
    [121, 118, 368],
    [288, 273, 369],
    [298, 261, 370],
    [101, 112, 371],
    [77, 83, 372],
    [264, 115, 373],
    [262, 119, 374],
    [281, 105, 375],
    [14, 87, 376],
    [14, 70, 377],
    [36, 280, 378],
    [115, 268, 379],
    [118, 115, 380],
    [69, 86, 381],
    [108, 109, 382],
    [263, 320, 383],
    [340, 104, 384],
    [14, 83, 385],
    [103, 111, 386],
    [101, 266, 387],
    [122, 277, 388],
    [283, 120, 389],
    [288, 125, 390],
    [264, 269, 391],
    [283, 119, 392],
    [105, 101, 393],
    [14, 81, 394],
    [281, 115, 395],
    [267, 341, 396],
    [101, 113, 397],
    [285, 115, 398],
    [272, 325, 399],
    [121, 119, 400],
    [101, 270, 401],
    [89, 87, 402],
    [109, 106, 403],
    [264, 105, 404],
    [107, 105, 405],
    [262, 278, 406],
    [14, 74, 407],
    [264, 121, 408],
    [101, 336, 409],
    [14, 82, 410],
    [298, 115, 411],
    [297, 118, 412],
    [118, 121, 413],
    [109, 280, 414],
    [120, 108, 415],
    [262, 114, 416],
    [289, 104, 417],
    [120, 277, 418],
    [286, 115, 419],
    [269, 114, 420],
    [105, 278, 421],
    [105, 289, 422],
    [264, 116, 423],
    [271, 105, 424],
    [36, 338, 425],
    [276, 101, 426],
    [391, 278, 427],
    [272, 125, 428],
    [89, 71, 429],
    [109, 112, 430],
    [262, 268, 431],
    [362, 75, 432],
    [108, 115, 433],
    [36, 71, 434],
    [118, 307, 435],
    [285, 105, 436],
    [352, 114, 437],
    [69, 82, 438],
    [36, 86, 439],
    [36, 122, 440],
    [298, 295, 441],
    [298, 108, 442],
    [73, 86, 443],
    [14, 93, 444],
    [83, 86, 445],
    [101, 299, 446],
    [103, 120, 447],
    [263, 119, 448],
    [267, 295, 449],
    [109, 355, 450],
    [264, 108, 451],
    [121, 112, 452],
    [275, 71, 453],
    [36, 43, 454],
    [73, 88, 455],
    [305, 120, 456],
    [275, 84, 457],
    [73, 87, 458],
    [337, 116, 459],
    [312, 112, 460],
    [117, 121, 461],
    [289, 120, 462],
    [308, 384, 463],
    [118, 303, 464],
    [266, 105, 465],
    [310, 108, 466],
    [286, 357, 467],
    [382, 330, 468],
    [114, 120, 469],
    [121, 299, 470],
    [280, 105, 471],
    [294, 118, 472],
    [282, 307, 473],
    [262, 120, 474],
    [265, 305, 475],
    [36, 81, 476],
    [267, 261, 477],
    [36, 73, 478],
    [79, 432, 479],
    [262, 113, 480],
    [105, 270, 481],
    [109, 103, 482],
    [282, 280, 483],
    [102, 317, 484],
    [118, 125, 485],
    [377, 325, 486],
    [280, 107, 487],
    [109, 105, 488],
    [275, 80, 489],
    [272, 112, 490],
    [109, 300, 491],
    [276, 435, 492],
    [122, 284, 493],
    [36, 75, 494],
    [264, 261, 495],
    [105, 113, 496],
    [308, 115, 497],
    [101, 268, 498],
    [14, 71, 499],
    [265, 379, 500],
    [77, 71, 501],
    [271, 113, 502],
    [263, 120, 503],
    [101, 121, 504],
    [267, 359, 505],
    [301, 108, 506],
    [301, 343, 507],
    [36, 70, 508],
    [264, 321, 509],
    [115, 112, 510],
    [285, 303, 511],
    [36, 80, 512],
    [36, 295, 513],
    [407, 274, 514],
    [115, 299, 515],
    [36, 403, 516],
    [275, 70, 517],
    [36, 76, 518],
    [266, 104, 519],
    [80, 83, 520],
    [271, 268, 521],
    [267, 383, 522],
    [437, 303, 523],
    [282, 305, 524],
    [275, 87, 525],
    [277, 119, 526],
    [77, 402, 527],
    [105, 116, 528],
    [460, 106, 529],
    [381, 72, 530],
    [310, 343, 531],
    [106, 105, 532],
    [318, 295, 533],
    [268, 119, 534],
    [115, 270, 535],
    [310, 105, 536],
    [275, 75, 537],
    [264, 319, 538],
    [297, 268, 539],
    [419, 300, 540],
    [264, 123, 541],
    [271, 321, 542],
    [272, 118, 543],
    [116, 116, 544],
    [36, 274, 545],
    [36, 87, 546],
    [101, 278, 547],
    [260, 420, 548],
    [271, 114, 549],
    [352, 304, 550],
    [337, 119, 551],
    [36, 83, 552],
    [275, 479, 553],
    [36, 91, 554],
    [271, 125, 555],
    [14, 80, 556],
    [262, 118, 557],
    [275, 81, 558],
    [115, 104, 559],
    [394, 125, 560],
    [286, 322, 561],
    [14, 75, 562],
    [337, 114, 563],
    [367, 105, 564],
    [274, 120, 565],
    [109, 107, 566],
    [36, 88, 567],
    [121, 268, 568],
    [275, 72, 569],
    [108, 125, 570],
    [266, 111, 571],
    [105, 112, 572],
    [267, 274, 573],
    [36, 90, 574],
    [106, 379, 575],
    [397, 105, 576],
    [265, 319, 577],
    [282, 353, 578],
    [36, 461, 579],
    [340, 111, 580],
    [309, 119, 581],
    [273, 108, 582],
    [80, 77, 583],
    [339, 278, 584],
    [79, 73, 585],
    [122, 283, 586],
    [36, 110, 587],
    [378, 105, 588],
    [275, 74, 589],
    [513, 108, 590],
    [321, 299, 591],
    [265, 409, 592],
    [268, 310, 593],
    [101, 111, 594],
    [318, 261, 595],
    [107, 387, 596],
    [265, 470, 597],
    [263, 270, 598],
    [114, 107, 599],
    [14, 72, 600],
    [308, 364, 601],
    [339, 268, 602],
    [36, 69, 603],
    [290, 115, 604],
    [103, 109, 605],
    [404, 105, 606],
    [365, 336, 607],
    [121, 105, 608],
    [393, 111, 609],
    [88, 372, 610],
    [451, 383, 611],
    [279, 125, 612],
    [294, 380, 613],
    [265, 348, 614],
    [36, 84, 615],
    [264, 101, 616],
    [121, 113, 617],
    [294, 112, 618],
    [276, 531, 619],
    [86, 83, 620],
    [316, 104, 621],
    [281, 358, 622],
    [116, 105, 623],
    [327, 105, 624],
    [459, 280, 625],
    [444, 263, 626],
    [14, 84, 627],
    [109, 315, 628],
    [83, 82, 629],
    [292, 115, 630],
    [284, 315, 631],
    [273, 120, 632],
    [123, 417, 633],
    [36, 93, 634],
    [375, 466, 635],
    [303, 114, 636],
    [113, 305, 637],
    [36, 284, 638],
    [121, 114, 639],
    [77, 87, 640],
    [106, 452, 641],
    [294, 115, 642],
    [114, 315, 643],
    [36, 118, 644],
    [423, 609, 645],
    [104, 105, 646],
    [345, 317, 647],
    [109, 115, 648],
    [36, 503, 649],
    [501, 76, 650],
    [116, 120, 651],
    [267, 468, 652],
    [276, 349, 653],
    [69, 89, 654],
    [83, 80, 655],
    [115, 312, 656],
    [569, 89, 657],
    [262, 596, 658],
    [657, 585, 659],
    [290, 303, 660],
    [73, 80, 661],
    [109, 386, 662],
    [297, 462, 663],
    [260, 413, 664],
    [316, 270, 665],
    [287, 322, 666],
    [388, 125, 667],
    [650, 530, 668],
    [356, 610, 669],
    [318, 328, 670],
    [566, 114, 671],
    [305, 315, 672],
    [264, 353, 673],
    [267, 433, 674],
    [318, 468, 675],
    [323, 106, 676],
    [275, 76, 677],
    [477, 114, 678],
    [265, 289, 679],
    [109, 283, 680],
    [109, 268, 681],
    [290, 280, 682],
    [265, 465, 683],
    [274, 114, 684],
    [269, 118, 685],
    [306, 106, 686],
    [362, 71, 687],
    [266, 315, 688],
    [101, 386, 689],
    [264, 280, 690],
    [281, 273, 691],
    [323, 114, 692],
    [262, 112, 693],
    [318, 105, 694],
    [123, 114, 695],
    [121, 330, 696],
    [297, 101, 697],
    [115, 125, 698],
    [297, 289, 699],
    [260, 624, 700],
    [105, 103, 701],
    [14, 43, 702],
    [69, 70, 703],
    [408, 330, 704],
    [114, 392, 705],
    [543, 507, 706],
    [263, 333, 707],
    [490, 384, 708],
    [279, 343, 709],
    [262, 102, 710],
    [89, 73, 711],
    [271, 312, 712],
    [318, 570, 713],
    [385, 106, 714],
    [308, 491, 715],
    [14, 120, 716],
    [276, 115, 717],
    [281, 319, 718],
    [342, 289, 719],
    [296, 77, 720],
    [439, 668, 721],
    [342, 124, 722],
    [36, 380, 723],
    [273, 105, 724],
    [88, 443, 725],
    [410, 115, 726],
    [365, 532, 727],
    [260, 421, 728],
    [105, 322, 729],
    [429, 76, 730],
    [286, 580, 731],
    [288, 571, 732],
    [263, 112, 733],
    [267, 357, 734],
    [342, 125, 735],
    [477, 268, 736],
    [376, 115, 737],
    [101, 107, 738],
    [120, 343, 739],
    [105, 284, 740],
    [101, 405, 741],
    [537, 520, 742],
    [260, 409, 743],
    [429, 458, 744],
    [744, 725, 745],
    [653, 481, 746],
    [742, 745, 747],
    [105, 106, 748],
    [277, 122, 749],
    [589, 591, 750],
    [348, 125, 751],
    [464, 114, 752],
    [304, 119, 753],
    [281, 283, 754],
    [101, 300, 755],
    [114, 301, 756],
    [368, 312, 757],
    [308, 647, 758],
    [86, 93, 759],
    [36, 349, 760],
    [14, 73, 761],
    [101, 312, 762],
    [367, 303, 763],
    [711, 356, 764],
    [14, 89, 765],
    [123, 319, 766],
    [120, 273, 767],
    [275, 85, 768],
    [687, 669, 769],
    [768, 764, 770],
    [286, 393, 771],
    [552, 74, 772],
    [557, 120, 773],
    [265, 515, 774],
    [275, 88, 775],
    [89, 81, 776],
    [682, 338, 777],
    [80, 438, 778],
    [265, 696, 779],
    [267, 289, 780],
    [264, 112, 781],
    [69, 81, 782],
    [368, 114, 783],
    [276, 112, 784],
    [614, 105, 785],
    [113, 345, 786],
    [316, 299, 787],
    [260, 123, 788],
    [276, 422, 789],
    [442, 273, 790],
    [106, 106, 791],
    [14, 86, 792],
    [311, 120, 793],
    [356, 759, 794],
    [504, 355, 795],
    [442, 263, 796],
    [102, 277, 797],
    [494, 559, 798],
    [300, 104, 799],
    [323, 119, 800],
    [595, 268, 801],
    [272, 268, 802],
    [103, 103, 803],
    [303, 277, 804],
    [436, 388, 805],
    [574, 769, 806],
    [101, 116, 807],
    [36, 79, 808],
    [109, 333, 809],
    [426, 321, 810],
    [308, 593, 811],
    [105, 105, 812],
    [120, 317, 813],
    [282, 263, 814],
    [265, 284, 815],
    [436, 123, 816],
    [446, 277, 817],
    [318, 433, 818],
    [439, 353, 819],
    [274, 464, 820],
    [121, 336, 821],
    [109, 126, 822],
    [36, 74, 823],
    [115, 320, 824],
    [377, 105, 825],
    [445, 79, 826],
    [310, 414, 827],
    [294, 462, 828],
    [119, 119, 829],
    [362, 527, 830],
    [268, 105, 831],
    [358, 105, 832],
    [410, 303, 833],
    [385, 118, 834],
    [282, 547, 835],
    [116, 317, 836],
    [416, 125, 837],
    [697, 493, 838],
    [262, 104, 839],
    [473, 113, 840],
    [351, 401, 841],
    [664, 105, 842],
    [524, 756, 843],
    [422, 119, 844],
    [444, 338, 845],
    [72, 91, 846],
    [311, 284, 847],
    [846, 530, 848],
    [285, 576, 849],
    [282, 112, 850],
    [294, 268, 851],
    [541, 729, 852],
    [323, 120, 853],
    [472, 319, 854],
    [281, 506, 855],
    [108, 304, 856],
    [398, 484, 857],
    [457, 455, 858],
    [489, 429, 859],
    [294, 317, 860],
    [359, 119, 861],
    [291, 695, 862],
    [36, 72, 863],
    [73, 83, 864],
    [294, 277, 865],
    [263, 312, 866],
    [121, 278, 867],
    [267, 118, 868],
    [281, 471, 869],
    [403, 105, 870],
    [101, 123, 871],
    [260, 118, 872],
    [499, 353, 873],
    [297, 348, 874],
    [267, 319, 875],
    [291, 739, 876],
    [326, 305, 877],
    [112, 109, 878],
    [268, 104, 879],
    [285, 274, 880],
    [104, 633, 881],
    [69, 84, 882],
    [81, 864, 883],
    [264, 103, 884],
    [294, 534, 885],
    [275, 620, 886],
    [886, 883, 887],
    [264, 733, 888],
    [309, 125, 889],
    [573, 320, 890],
    [356, 527, 891],
    [122, 304, 892],
    [311, 289, 893],
    [101, 315, 894],
    [285, 450, 895],
    [387, 120, 896],
    [434, 112, 897],
    [558, 356, 898],
    [898, 891, 899],
    [107, 277, 900],
    [504, 312, 901],
    [311, 575, 902],
    [275, 82, 903],
    [272, 506, 904],
    [579, 740, 905],
    [116, 277, 906],
    [88, 76, 907],
    [795, 277, 908],
    [275, 78, 909],
    [265, 115, 910],
    [282, 382, 911],
    [858, 86, 912],
    [912, 730, 913],
    [913, 372, 914],
    [83, 81, 915],
    [101, 484, 916],
    [375, 348, 917],
    [36, 667, 918],
    [88, 458, 919],
    [14, 123, 920],
    [279, 105, 921],
    [36, 364, 922],
    [36, 336, 923],
    [377, 125, 924],
    [101, 102, 925],
    [112, 283, 926],
    [14, 119, 927],
    [281, 636, 928],
    [483, 120, 929],
    [313, 529, 930],
    [262, 544, 931],
    [298, 420, 932],
    [360, 113, 933],
    [267, 108, 934],
    [557, 113, 935],
    [595, 114, 936],
    [512, 357, 937],
    [537, 86, 938],
    [445, 372, 939],
    [288, 400, 940],
    [430, 120, 941],
    [778, 402, 942],
    [939, 942, 943],
    [525, 701, 944],
    [370, 114, 945],
    [771, 300, 946],
    [453, 943, 947],
    [944, 535, 948],
    [112, 115, 949],
    [447, 414, 950],
    [311, 304, 951],
    [478, 881, 952],
    [337, 469, 953],
    [370, 268, 954],
    [534, 119, 955],
    [601, 315, 956],
    [311, 107, 957],
    [735, 283, 958],
    [265, 507, 959],
    [112, 392, 960],
    [112, 401, 961],
    [118, 305, 962],
    [265, 101, 963],
    [291, 320, 964],
    [36, 327, 965],
    [362, 69, 966],
    [478, 848, 967],
    [822, 284, 968],
    [279, 968, 969],
    [342, 388, 970],
    [476, 289, 971],
    [119, 123, 972],
    [116, 119, 973],
    [275, 438, 974],
    [286, 487, 975],
    [113, 105, 976],
    [69, 87, 977],
    [365, 300, 978],
    [911, 320, 979],
    [267, 870, 980],
    [556, 322, 981],
    [720, 77, 982],
    [360, 116, 983],
    [262, 766, 984],
    [36, 82, 985],
    [267, 307, 986],
    [314, 120, 987],
    [642, 274, 988],
    [746, 119, 989],
    [106, 274, 990],
    [262, 106, 991],
    [265, 450, 992],
    [103, 353, 993],
    [270, 277, 994],
    [351, 319, 995],
    [393, 315, 996],
    [111, 119, 997],
    [263, 104, 998],
    [317, 104, 999],
    [310, 330, 1000],
    [123, 662, 1001],
    [281, 488, 1002],
    [36, 78, 1003],
    [36, 413, 1004],
    [473, 283, 1005],
    [483, 119, 1006],
    [289, 1001, 1007],
    [303, 119, 1008],
    [282, 752, 1009],
    [475, 125, 1010],
    [294, 105, 1011],
    [88, 273, 1012],
    [69, 72, 1013],
    [286, 105, 1014],
    [269, 278, 1015],
    [273, 280, 1016],
    [634, 826, 1017],
    [273, 119, 1018],
    [80, 69, 1019],
    [275, 90, 1020],
    [316, 118, 1021],
    [350, 355, 1022],
    [360, 299, 1023],
    [121, 386, 1024],
    [640, 703, 1025],
    [1025, 661, 1026],
    [290, 866, 1027],
    [1026, 1019, 1028],
    [275, 1028, 1029],
    [109, 305, 1030],
    [277, 103, 1031],
    [282, 338, 1032],
    [36, 345, 1033],
    [365, 105, 1034],
    [86, 438, 1035],
    [103, 261, 1036],
    [266, 120, 1037],
    [264, 322, 1038],
    [274, 119, 1039],
    [310, 418, 1040],
    [909, 89, 1041],
    [1041, 583, 1042],
    [489, 73, 1043],
    [629, 919, 1044],
    [554, 1007, 1045],
    [1042, 455, 1046],
    [1043, 1044, 1047],
    [308, 471, 1048],
    [793, 418, 1049],
    [279, 813, 1050],
    [281, 908, 1051],
    [69, 80, 1052],
    [105, 268, 1053],
    [263, 355, 1054],
    [118, 456, 1055],
    [472, 688, 1056],
    [267, 279, 1057],
    [367, 273, 1058],
    [260, 487, 1059],
    [329, 856, 1060],
    [1013, 93, 1061],
    [71, 73, 1062],
    [356, 1062, 1063],
    [123, 421, 1064],
    [489, 1061, 1065],
    [109, 324, 1066],
    [88, 69, 1067],
    [923, 528, 1068],
    [115, 119, 1069],
    [275, 86, 1070],
    [816, 119, 1071],
    [103, 283, 1072],
    [264, 317, 1073],
    [685, 104, 1074],
    [360, 119, 1075],
    [109, 448, 1076],
    [109, 277, 1077],
    [106, 120, 1078],
    [280, 120, 1079],
    [268, 120, 1080],
    [340, 112, 1081],
    [308, 349, 1082],
    [260, 349, 1083],
    [318, 421, 1084],
    [525, 501, 1085],
    [1085, 830, 1086],
    [562, 115, 1087],
    [639, 105, 1088],
    [288, 656, 1089],
    [658, 299, 1090],
    [467, 119, 1091],
    [286, 1050, 1092],
    [106, 357, 1093],
    [290, 338, 1094],
    [272, 389, 1095],
    [594, 283, 1096],
    [417, 280, 1097],
    [564, 268, 1098],
    [297, 643, 1099],
    [716, 261, 1100],
    [112, 312, 1101],
    [312, 104, 1102],
    [426, 315, 1103],
    [452, 120, 1104],
    [717, 278, 1105],
    [262, 803, 1106],
    [121, 104, 1107],
    [410, 319, 1108],
    [289, 111, 1109],
    [73, 93, 1110],
    [275, 91, 1111],
    [342, 270, 1112],
    [385, 114, 1113],
    [410, 301, 1114],
    [293, 599, 1115],
    [105, 123, 1116],
    [351, 341, 1117],
    [274, 111, 1118],
    [288, 304, 1119],
    [352, 519, 1120],
    [488, 320, 1121],
    [275, 654, 1122],
    [14, 102, 1123],
    [294, 349, 1124],
    [294, 368, 1125],
    [371, 111, 1126],
    [473, 116, 1127],
    [859, 372, 1128],
    [266, 119, 1129],
    [294, 325, 1130],
    [277, 120, 1131],
    [296, 90, 1132],
    [101, 317, 1133],
    [294, 804, 1134],
    [788, 115, 1135],
    [482, 1074, 1136],
    [105, 447, 1137],
    [282, 269, 1138],
    [366, 529, 1139],
    [103, 112, 1140],
    [308, 121, 1141],
    [349, 324, 1142],
    [375, 289, 1143],
    [266, 392, 1144],
    [605, 448, 1145],
    [294, 996, 1146],
    [453, 80, 1147],
    [276, 591, 1148],
    [342, 1101, 1149],
    [101, 430, 1150],
    [359, 280, 1151],
    [517, 86, 1152],
    [382, 317, 1153],
    [408, 102, 1154],
    [953, 115, 1155],
    [260, 341, 1156],
    [120, 125, 1157],
    [118, 319, 1158],
    [264, 113, 1159],
    [109, 317, 1160],
    [325, 125, 1161],
    [734, 119, 1162],
    [455, 76, 1163],
    [260, 364, 1164],
    [282, 115, 1165],
    [272, 358, 1166],
    [281, 268, 1167],
    [521, 575, 1168],
    [478, 583, 1169],
    [376, 321, 1170],
    [290, 400, 1171],
    [442, 125, 1172],
    [719, 415, 1173],
    [272, 689, 1174],
    [94, 703, 1175],
    [1175, 1163, 1176],
    [1169, 1176, 1177],
    [814, 469, 1178],
    [113, 284, 1179],
    [125, 371, 1180],
    [282, 383, 1181],
    [102, 401, 1182],
    [109, 400, 1183],
    [276, 519, 1184],
    [1059, 608, 1185],
    [115, 836, 1186],
    [14, 103, 1187],
    [274, 312, 1188],
    [436, 324, 1189],
    [77, 438, 1190],
    [288, 465, 1191],
    [286, 751, 1192],
    [634, 1118, 1193],
    [290, 809, 1194],
    [268, 114, 1195],
    [604, 623, 1196],
    [322, 108, 1197],
    [335, 415, 1198],
    [276, 421, 1199],
    [284, 485, 1200],
    [367, 755, 1201],
    [677, 794, 1202],
    [297, 112, 1203],
    [290, 353, 1204],
    [404, 496, 1205],
    [300, 268, 1206],
    [107, 322, 1207],
    [812, 330, 1208],
    [819, 115, 1209],
    [1171, 1182, 1210],
    [376, 120, 1211],
    [760, 355, 1212],
    [281, 821, 1213],
    [120, 123, 1214],
    [381, 91, 1215],
    [350, 333, 1216],
    [272, 305, 1217],
    [501, 79, 1218],
    [325, 108, 1219],
    [106, 565, 1220],
    [554, 295, 1221],
    [574, 77, 1222],
    [1111, 1215, 1223],
    [1223, 1218, 1224],
    [109, 124, 1225],
    [282, 261, 1226],
    [89, 88, 1227],
    [273, 418, 1228],
    [977, 88, 1229],
    [272, 364, 1230],
    [101, 330, 1231],
    [382, 116, 1232],
    [518, 794, 1233],
    [265, 519, 1234],
    [282, 685, 1235],
    [1011, 1186, 1236],
    [321, 104, 1237],
    [107, 324, 1238],
    [434, 969, 1239],
    [76, 782, 1240],
    [260, 268, 1241],
    [518, 1200, 1242],
    [105, 324, 1243],
    [89, 80, 1244],
    [376, 261, 1245],
    [282, 420, 1246],
    [439, 1136, 1247],
    [567, 108, 1248],
    [882, 1244, 1249],
    [272, 349, 1250],
    [451, 303, 1251],
    [483, 106, 1252],
    [665, 119, 1253],
    [286, 871, 1254],
    [1249, 455, 1255],
    [308, 112, 1256],
    [378, 315, 1257],
    [282, 901, 1258],
    [265, 817, 1259],
    [267, 570, 1260],
    [616, 358, 1261],
    [965, 116, 1262],
    [77, 80, 1263],
    [75, 73, 1264],
    [749, 456, 1265],
    [285, 471, 1266],
    [81, 372, 1267],
    [272, 559, 1268],
    [448, 266, 1269],
    [587, 698, 1270],
    [102, 120, 1271],
    [335, 120, 1272],
    [543, 304, 1273],
    [376, 1015, 1274],
    [281, 263, 1275],
    [310, 283, 1276],
    [444, 322, 1277],
    [429, 479, 1278],
    [1278, 1240, 1279],
    [342, 667, 1280],
    [1152, 1227, 1281],
    [1281, 402, 1282],
    [407, 435, 1283],
    [104, 119, 1284],
    [620, 585, 1285],
    [268, 118, 1286],
    [294, 861, 1287],
    [109, 322, 1288],
    [365, 355, 1289],
    [410, 274, 1290],
    [432, 70, 1291],
    [458, 87, 1292],
    [562, 384, 1293],
    [655, 1291, 1294],
    [265, 632, 1295],
    [775, 1035, 1296],
    [1296, 372, 1297],
    [517, 1279, 1298],
    [508, 1294, 1299],
    [1299, 1285, 1300],
    [112, 120, 1301],
    [267, 115, 1302],
    [972, 277, 1303],
    [288, 118, 1304],
    [285, 310, 1305],
    [122, 515, 1306],
    [903, 757, 1307],
    [723, 1180, 1308],
    [88, 640, 1309],
    [289, 125, 1310],
    [279, 119, 1311],
    [103, 317, 1312],
    [860, 762, 1313],
    [318, 341, 1314],
    [260, 844, 1315],
    [476, 381, 1316],
    [600, 115, 1317],
    [674, 312, 1318],
    [122, 125, 1319],
    [112, 106, 1320],
    [380, 336, 1321],
    [274, 125, 1322],
    [115, 386, 1323],
    [603, 114, 1324],
    [294, 1097, 1325],
    [75, 381, 1326],
    [82, 73, 1327],
    [276, 867, 1328],
    [272, 283, 1329],
    [275, 79, 1330],
    [868, 487, 1331],
    [375, 122, 1332],
    [297, 417, 1333],
    [316, 544, 1334],
    [885, 345, 1335],
    [289, 485, 1336],
    [1326, 455, 1337],
    [1316, 1337, 1338],
    [282, 576, 1339],
    [587, 470, 1340],
    [116, 656, 1341],
    [272, 698, 1342],
    [264, 688, 1343],
    [265, 273, 1344],
    [286, 401, 1345],
    [284, 119, 1346],
    [351, 536, 1347],
    [342, 268, 1348],
    [286, 446, 1349],
    [567, 261, 1350],
    [105, 572, 1351],
    [69, 907, 1352],
    [618, 894, 1353],
    [782, 1263, 1354],
    [326, 322, 1355],
    [113, 102, 1356],
    [119, 401, 1357],
    [991, 418, 1358],
    [370, 125, 1359],
    [352, 341, 1360],
    [337, 994, 1361],
    [103, 345, 1362],
    [1264, 520, 1363],
    [389, 125, 1364],
    [279, 414, 1365],
    [445, 72, 1366],
    [282, 498, 1367],
    [938, 73, 1368],
    [604, 320, 1369],
    [350, 1357, 1370],
    [974, 1363, 1371],
    [264, 820, 1372],
    [385, 368, 1373],
    [1105, 303, 1374],
    [498, 643, 1375],
    [934, 307, 1376],
    [1203, 116, 1377],
    [381, 966, 1378],
    [315, 491, 1379],
    [104, 319, 1380],
    [276, 289, 1381],
    [321, 120, 1382],
    [605, 400, 1383],
    [339, 528, 1384],
    [735, 105, 1385],
    [460, 586, 1386],
    [286, 392, 1387],
    [638, 496, 1388],
    [290, 709, 1389],
    [710, 503, 1390],
    [391, 976, 1391],
    [1330, 1352, 1392],
    [1392, 1378, 1393],
    [280, 119, 1394],
    [416, 1303, 1395],
    [294, 310, 1396],
    [408, 114, 1397],
    [276, 371, 1398],
    [109, 510, 1399],
    [368, 646, 1400],
    [276, 1081, 1401],
    [101, 321, 1402],
    [359, 568, 1403],
    [282, 108, 1404],
    [426, 278, 1405],
    [963, 358, 1406],
    [291, 102, 1407],
    [116, 280, 1408],
    [272, 400, 1409],
    [415, 125, 1410],
    [275, 458, 1411],
    [1411, 71, 1412],
    [263, 469, 1413],
    [1082, 748, 1414],
    [513, 105, 1415],
    [808, 304, 1416],
    [758, 637, 1417],
    [765, 114, 1418],
    [1052, 402, 1419],
    [1412, 1419, 1420],
    [601, 1145, 1421],
    [282, 1269, 1422],
    [115, 300, 1423],
    [327, 283, 1424],
    [351, 349, 1425],
    [265, 1096, 1426],
    [987, 115, 1427],
    [110, 1137, 1428],
    [109, 122, 1429],
    [109, 320, 1430],
    [351, 268, 1431],
    [478, 599, 1432],
    [986, 305, 1433],
    [367, 466, 1434],
    [1032, 120, 1435],
    [814, 114, 1436],
    [112, 304, 1437],
    [309, 114, 1438],
    [371, 120, 1439],
    [395, 299, 1440],
    [482, 283, 1441],
    [290, 617, 1442],
    [1400, 1286, 1443],
    [569, 730, 1444],
    [260, 783, 1445],
    [1444, 1292, 1446],
    [863, 821, 1447],
    [1073, 528, 1448],
    [473, 1220, 1449],
    [1268, 125, 1450],
    [311, 112, 1451],
    [116, 343, 1452],
    [279, 274, 1453],
    [291, 388, 1454],
    [443, 71, 1455],
    [260, 1126, 1456],
    [272, 121, 1457],
    [308, 118, 1458],
    [325, 105, 1459],
    [267, 941, 1460],
    [646, 324, 1461],
    [113, 820, 1462],
    [405, 949, 1463],
    [971, 1383, 1464],
    [36, 109, 1465],
    [77, 69, 1466],
    [613, 300, 1467],
    [273, 324, 1468],
    [311, 104, 1469],
    [380, 1306, 1470],
    [474, 120, 1471],
    [488, 300, 1472],
    [618, 319, 1473],
    [109, 631, 1474],
    [1354, 520, 1475],
    [453, 1475, 1476],
    [426, 1104, 1477],
    [897, 1375, 1478],
    [360, 120, 1479],
    [305, 119, 1480],
    [348, 105, 1481],
    [14, 113, 1482],
    [339, 112, 1483],
    [109, 363, 1484],
    [314, 299, 1485],
    [548, 111, 1486],
    [307, 322, 1487],
    [281, 364, 1488],
    [375, 324, 1489],
    [445, 88, 1490],
    [264, 598, 1491],
    [264, 277, 1492],
    [272, 115, 1493],
    [276, 450, 1494],
    [356, 87, 1495],
    [341, 387, 1496],
    [433, 320, 1497],
    [440, 115, 1498],
    [541, 357, 1499],
    [1324, 1463, 1500],
    [677, 1490, 1501],
    [1398, 312, 1502],
    [314, 1461, 1503],
    [1501, 1495, 1504],
    [376, 108, 1505],
    [77, 381, 1506],
    [839, 122, 1507],
    [86, 1506, 1508],
    [601, 300, 1509],
    [342, 493, 1510],
    [337, 312, 1511],
    [373, 1206, 1512],
    [416, 507, 1513],
    [1199, 303, 1514],
    [112, 636, 1515],
    [1504, 372, 1516],
    [589, 1508, 1517],
    [14, 116, 1518],
    [1309, 1067, 1519],
    [882, 1519, 1520],
    [316, 119, 1521],
    [368, 125, 1522],
    [282, 368, 1523],
    [105, 371, 1524],
    [517, 1520, 1525],
    [623, 447, 1526],
    [1217, 582, 1527],
    [1272, 1088, 1528],
    [113, 116, 1529],
    [267, 456, 1530],
    [532, 447, 1531],
    [472, 1016, 1532],
    [374, 119, 1533],
    [93, 71, 1534],
    [309, 278, 1535],
    [1178, 485, 1536],
    [263, 330, 1537],
    [404, 270, 1538],
    [360, 493, 1539],
    [1275, 1271, 1540],
    [1122, 88, 1541],
    [1541, 655, 1542],
    [644, 531, 1543],
    [265, 1031, 1544],
    [453, 915, 1545],
    [265, 1040, 1546],
    [765, 1408, 1547],
    [1534, 402, 1548],
    [1545, 830, 1549],
    [1542, 1548, 1550],
    [761, 493, 1551],
    [14, 125, 1552],
    [381, 1063, 1553],
    [309, 268, 1554],
    [365, 283, 1555],
    [378, 363, 1556],
    [267, 582, 1557],
    [287, 844, 1558],
    [360, 1151, 1559],
    [872, 1219, 1560],
    [440, 1382, 1561],
    [305, 125, 1562],
    [109, 274, 1563],
    [115, 106, 1564],
    [113, 119, 1565],
    [775, 108, 1566],
    [318, 383, 1567],
    [14, 104, 1568],
    [118, 672, 1569],
    [281, 305, 1570],
    [116, 284, 1571],
    [394, 379, 1572],
    [294, 526, 1573],
    [356, 458, 1574],
    [1147, 1553, 1575],
    [508, 325, 1576],
    [457, 1470, 1577],
    [1566, 1237, 1578],
    [802, 466, 1579],
    [935, 119, 1580],
    [1167, 397, 1581],
    [1452, 104, 1582],
    [284, 277, 1583],
    [104, 277, 1584],
    [104, 104, 1585],
    [308, 109, 1586],
    [264, 345, 1587],
    [356, 90, 1588],
    [351, 364, 1589],
    [691, 103, 1590],
    [903, 445, 1591],
    [391, 1301, 1592],
    [655, 372, 1593],
    [1588, 1593, 1594],
    [517, 1594, 1595],
    [453, 1515, 1596],
    [1409, 1144, 1597],
    [87, 84, 1598],
    [1598, 443, 1599],
    [638, 707, 1600],
    [261, 104, 1601],
    [264, 284, 1602],
    [309, 120, 1603],
    [1599, 83, 1604],
    [457, 620, 1605],
    [558, 381, 1606],
    [294, 435, 1607],
    [749, 304, 1608],
    [604, 363, 1609],
    [776, 372, 1610],
    [938, 1610, 1611],
    [840, 401, 1612],
    [1605, 1604, 1613],
    [310, 274, 1614],
    [289, 119, 1615],
    [109, 101, 1616],
    [14, 106, 1617],
    [426, 268, 1618],
    [264, 393, 1619],
    [279, 120, 1620],
    [316, 599, 1621],
    [311, 101, 1622],
    [111, 284, 1623],
    [472, 998, 1624],
    [282, 364, 1625],
    [1455, 89, 1626],
    [286, 319, 1627],
    [476, 1443, 1628],
    [541, 422, 1629],
    [373, 320, 1630],
    [423, 321, 1631],
    [929, 345, 1632],
    [294, 612, 1633],
    [267, 519, 1634],
    [351, 962, 1635],
    [1626, 610, 1636],
    [558, 1636, 1637],
    [14, 108, 1638],
    [281, 498, 1639],
    [404, 103, 1640],
    [808, 536, 1641],
    [309, 112, 1642],
    [322, 277, 1643],
    [109, 336, 1644],
    [375, 116, 1645],
    [562, 559, 1646],
    [365, 586, 1647],
    [596, 299, 1648],
    [859, 669, 1649],
    [933, 496, 1650],
    [1305, 568, 1651],
    [1483, 993, 1652],
    [440, 1496, 1653],
    [457, 915, 1654],
    [105, 125, 1655],
    [1512, 671, 1656],
    [344, 266, 1657],
    [352, 1018, 1658],
    [308, 322, 1659],
    [269, 113, 1660],
    [275, 73, 1661],
    [121, 469, 1662],
    [308, 268, 1663],
    [614, 397, 1664],
    [389, 277, 1665],
    [434, 353, 1666],
    [260, 481, 1667],
    [616, 123, 1668],
    [1654, 84, 1669],
    [778, 72, 1670],
    [276, 831, 1671],
    [497, 1284, 1672],
    [1334, 125, 1673],
    [80, 966, 1674],
    [388, 119, 1675],
    [269, 112, 1676],
    [275, 93, 1677],
    [276, 733, 1678],
    [264, 1487, 1679],
    [457, 654, 1680],
    [1680, 1674, 1681],
    [1329, 1208, 1682],
    [282, 612, 1683],
    [101, 651, 1684],
    [694, 268, 1685],
    [264, 749, 1686],
    [264, 1228, 1687],
    [277, 125, 1688],
    [1207, 343, 1689],
    [125, 102, 1690],
    [281, 284, 1691],
    [121, 312, 1692],
    [109, 345, 1693],
    [738, 608, 1694],
    [347, 119, 1695],
    [802, 594, 1696],
    [291, 466, 1697],
    [535, 277, 1698],
    [1669, 1110, 1699],
    [288, 831, 1700],
    [877, 119, 1701],
    [1368, 1267, 1702],
    [287, 1121, 1703],
    [1677, 826, 1704],
    [1154, 1428, 1705],
    [985, 274, 1706],
    [305, 103, 1707],
    [262, 123, 1708],
    [265, 277, 1709],
    [655, 776, 1710],
    [92, 1574, 1711],
    [272, 684, 1712],
    [400, 482, 1713],
    [1036, 119, 1714],
    [290, 1188, 1715],
    [731, 119, 1716],
    [708, 125, 1717],
    [1710, 82, 1718],
    [583, 1711, 1719],
    [83, 1719, 1720],
    [457, 1720, 1721],
    [878, 336, 1722],
    [748, 120, 1723],
    [288, 753, 1724],
    [974, 88, 1725],
    [267, 1153, 1726],
    [1690, 1439, 1727],
    [1020, 1718, 1728],
    [1728, 1466, 1729],
    [121, 283, 1730],
    [408, 544, 1731],
    [275, 69, 1732],
    [267, 266, 1733],
    [963, 110, 1734],
    [423, 115, 1735],
    [426, 328, 1736],
    [432, 87, 1737],
    [1229, 1737, 1738],
    [546, 1608, 1739],
    [1739, 637, 1740],
    [118, 487, 1741],
    [260, 496, 1742],
    [276, 681, 1743],
    [347, 529, 1744],
    [267, 598, 1745],
    [284, 900, 1746],
    [1362, 648, 1747],
    [1164, 1453, 1748],
    [102, 125, 1749],
    [979, 1195, 1750],
    [281, 413, 1751],
    [268, 113, 1752],
    [1131, 387, 1753],
    [512, 654, 1754],
    [286, 397, 1755],
    [376, 319, 1756],
    [86, 1063, 1757],
    [392, 1746, 1758],
    [679, 111, 1759],
    [1754, 1757, 1760],
    [1295, 955, 1761],
    [840, 280, 1762],
    [102, 1321, 1763],
    [677, 1738, 1764],
    [14, 79, 1765],
    [70, 93, 1766],
    [311, 310, 1767],
    [360, 461, 1768],
    [70, 443, 1769],
    [440, 371, 1770],
    [367, 277, 1771],
    [375, 106, 1772],
    [282, 535, 1773],
    [1734, 1364, 1774],
    [990, 113, 1775],
    [563, 1312, 1776],
    [718, 119, 1777],
    [286, 1723, 1778],
    [264, 266, 1779],
    [74, 74, 1780],
    [404, 284, 1781],
    [261, 114, 1782],
    [292, 320, 1783],
    [265, 322, 1784],
    [373, 280, 1785],
    [907, 776, 1786],
    [318, 359, 1787],
    [14, 401, 1788],
    [286, 536, 1789],
    [262, 791, 1790],
    [616, 300, 1791],
    [1302, 105, 1792],
    [1591, 1786, 1793],
    [1793, 1769, 1794],
    [1794, 1670, 1795],
    [1432, 961, 1796],
    [1667, 277, 1797],
    [583, 1780, 1798],
    [556, 580, 1799],
    [358, 283, 1800],
    [77, 72, 1801],
    [265, 280, 1802],
    [120, 284, 1803],
    [118, 304, 1804],
    [298, 409, 1805],
    [358, 303, 1806],
    [105, 388, 1807],
    [395, 283, 1808],
    [264, 450, 1809],
    [308, 1583, 1810],
    [1479, 783, 1811],
    [1544, 125, 1812],
    [1618, 1064, 1813],
    [101, 103, 1814],
    [36, 438, 1815],
    [261, 119, 1816],
    [104, 307, 1817],
    [1125, 1341, 1818],
    [264, 279, 1819],
    [268, 112, 1820],
    [264, 348, 1821],
    [679, 485, 1822],
    [717, 301, 1823],
    [418, 119, 1824],
    [497, 320, 1825],
    [375, 528, 1826],
    [639, 283, 1827],
    [1003, 452, 1828],
    [780, 1055, 1829],
    [1815, 1327, 1830],
    [1304, 707, 1831],
    [697, 1319, 1832],
    [1570, 900, 1833],
    [86, 687, 1834],
    [36, 341, 1835],
    [562, 491, 1836],
    [14, 90, 1837],
    [408, 268, 1838],
    [360, 103, 1839],
    [121, 270, 1840],
    [754, 277, 1841],
    [292, 1689, 1842],
    [309, 108, 1843],
    [109, 447, 1844],
    [403, 1093, 1845],
    [345, 125, 1846],
    [101, 327, 1847],
    [338, 119, 1848],
    [308, 464, 1849],
    [422, 114, 1850],
    [282, 433, 1851],
    [443, 72, 1852],
    [453, 1255, 1853],
    [600, 358, 1854],
    [442, 707, 1855],
    [285, 757, 1856],
    [786, 119, 1857],
    [282, 824, 1858],
    [671, 1563, 1859],
    [457, 1834, 1860],
    [1860, 73, 1861],
    [113, 277, 1862],
    [116, 112, 1863],
    [101, 126, 1864],
    [103, 101, 1865],
    [380, 829, 1866],
    [510, 304, 1867],
    [315, 324, 1868],
    [122, 345, 1869],
    [101, 358, 1870],
    [374, 111, 1871],
    [400, 108, 1872],
    [1451, 1472, 1873],
    [14, 415, 1874],
    [419, 299, 1875],
    [260, 1424, 1876],
    [344, 503, 1877],
    [115, 1037, 1878],
    [1631, 279, 1879],
    [983, 565, 1880],
    [618, 1024, 1881],
    [1034, 405, 1882],
    [498, 1064, 1883],
    [274, 1399, 1884],
    [1867, 1763, 1885],
    [124, 120, 1886],
    [262, 321, 1887],
    [267, 310, 1888],
    [403, 120, 1889],
    [263, 415, 1890],
    [297, 321, 1891],
    [390, 529, 1892],
    [322, 119, 1893],
    [387, 119, 1894],
    [508, 1885, 1895],
    [262, 405, 1896],
    [419, 829, 1897],
    [538, 119, 1898],
    [476, 1079, 1899],
    [818, 312, 1900],
    [1113, 105, 1901],
    [1635, 405, 1902],
    [114, 115, 1903],
    [114, 277, 1904],
    [121, 116, 1905],
    [594, 304, 1906],
    [272, 310, 1907],
    [315, 104, 1908],
    [408, 791, 1909],
    [787, 105, 1910],
    [367, 348, 1911],
    [109, 371, 1912],
    [282, 485, 1913],
    [1458, 598, 1914],
    [1033, 593, 1915],
    [719, 119, 1916],
    [286, 1850, 1917],
    [1505, 383, 1918],
    [1332, 430, 1919],
    [1573, 280, 1920],
    [1828, 1288, 1921],
    [897, 1845, 1922],
    [781, 387, 1923],
    [317, 120, 1924],
    [426, 299, 1925],
    [102, 112, 1926],
    [265, 368, 1927],
    [107, 283, 1928],
    [823, 1569, 1929],
    [276, 363, 1930],
    [266, 324, 1931],
    [307, 305, 1932],
    [1589, 450, 1933],
    [294, 446, 1934],
    [642, 1037, 1935],
    [114, 450, 1936],
    [504, 104, 1937],
    [440, 273, 1938],
    [512, 121, 1939],
    [1650, 797, 1940],
    [292, 633, 1941],
    [653, 289, 1942],
    [691, 116, 1943],
    [1225, 120, 1944],
    [793, 123, 1945],
    [1340, 628, 1946],
    [556, 1644, 1947],
    [266, 101, 1948],
    [1622, 1161, 1949],
    [325, 414, 1950],
    [80, 73, 1951],
    [589, 80, 1952],
    [1952, 445, 1953],
    [264, 430, 1954],
    [77, 94, 1955],
    [376, 353, 1956],
    [36, 357, 1957],
    [489, 357, 1958],
    [1686, 628, 1959],
    [282, 757, 1960],
    [285, 422, 1961],
    [272, 824, 1962],
    [664, 299, 1963],
    [647, 637, 1964],
    [579, 662, 1965],
    [693, 471, 1966],
    [754, 681, 1967],
    [1955, 661, 1968],
    [1953, 1968, 1969],
    [573, 1410, 1970],
    [1122, 74, 1971],
    [434, 1255, 1972],
    [1485, 413, 1973],
    [261, 1582, 1974],
    [351, 1741, 1975],
    [1801, 527, 1976],
    [1971, 1976, 1977],
    [107, 119, 1978],
    [14, 107, 1979],
    [318, 108, 1980],
    [1004, 114, 1981],
    [279, 261, 1982],
    [348, 397, 1983],
    [296, 119, 1984],
    [499, 305, 1985],
    [360, 751, 1986],
    [372, 82, 1987],
    [642, 829, 1988],
    [1021, 104, 1989],
    [568, 104, 1990],
    [954, 575, 1991],
    [276, 598, 1992],
    [260, 1537, 1993],
    [543, 1054, 1994],
    [1388, 125, 1995],
    [1539, 405, 1996],
    [567, 1727, 1997],
    [1810, 371, 1998],
    [1937, 648, 1999],
    [419, 312, 2000],
    [119, 1232, 2001],
    [122, 115, 2002],
    [546, 284, 2003],
    [2003, 1614, 2004],
    [102, 119, 2005],
    [267, 340, 2006],
    [504, 469, 2007],
    [311, 103, 2008],
    [109, 484, 2009],
    [679, 1142, 2010],
    [314, 106, 2011],
    [114, 304, 2012],
    [523, 119, 2013],
    [571, 119, 2014],
    [524, 299, 2015],
    [397, 341, 2016],
    [346, 529, 2017],
    [443, 87, 2018],
    [518, 1053, 2019],
    [1022, 119, 2020],
    [315, 651, 2021],
    [617, 797, 2022],
    [1235, 405, 2023],
    [308, 1055, 2024],
    [281, 1161, 2025],
    [1036, 104, 2026],
    [332, 119, 2027],
    [107, 121, 2028],
    [339, 289, 2029],
    [309, 1648, 2030],
    [73, 70, 2031],
    [121, 101, 2032],
    [112, 263, 2033],
    [572, 119, 2034],
    [360, 348, 2035],
    [314, 103, 2036],
    [2031, 1229, 2037],
    [367, 101, 2038],
    [370, 312, 2039],
    [376, 116, 2040],
    [394, 319, 2041],
    [71, 527, 2042],
    [377, 701, 2043],
    [105, 528, 2044],
    [423, 1243, 2045],
    [679, 349, 2046],
    [579, 289, 2047],
    [1070, 668, 2048],
    [613, 106, 2049],
    [634, 263, 2050],
    [265, 684, 2051],
    [716, 115, 2052],
    [788, 1846, 2053],
    [841, 119, 2054],
    [375, 878, 2055],
    [2037, 1190, 2056],
    [525, 2056, 2057],
    [1982, 105, 2058],
    [1094, 119, 2059],
    [103, 1665, 2060],
    [1252, 392, 2061],
    [1431, 599, 2062],
    [280, 283, 2063],
    [282, 289, 2064],
    [115, 116, 2065],
    [2016, 115, 2066],
    [14, 101, 2067],
    [83, 91, 2068],
    [276, 368, 2069],
    [340, 116, 2070],
    [281, 1429, 2071],
    [297, 278, 2072],
    [294, 515, 2073],
    [789, 641, 2074],
    [276, 379, 2075],
    [293, 415, 2076],
    [298, 421, 2077],
    [439, 109, 2078],
    [510, 111, 2079],
    [910, 386, 2080],
    [518, 446, 2081],
    [276, 1121, 2082],
    [617, 116, 2083],
    [722, 701, 2084],
    [532, 950, 2085],
    [1024, 304, 2086],
    [587, 1107, 2087],
    [316, 1320, 2088],
    [1436, 460, 2089],
    [525, 1974, 2090],
    [260, 277, 2091],
    [1987, 72, 2092],
    [434, 1884, 2093],
    [298, 341, 2094],
    [265, 266, 2095],
    [1075, 510, 2096],
    [267, 1080, 2097],
    [294, 289, 2098],
    [565, 371, 2099],
    [510, 119, 2100],
    [1069, 307, 2101],
    [116, 498, 2102],
    [348, 119, 2103],
    [371, 113, 2104],
    [517, 2092, 2105],
    [2105, 661, 2106],
    [1083, 102, 2107],
    [375, 112, 2108],
    [103, 392, 2109],
    [2033, 2060, 2110],
    [2106, 520, 2111],
    [573, 111, 2112],
    [1899, 1694, 2113],
    [663, 119, 2114],
    [754, 116, 2115],
    [897, 1999, 2116],
    [342, 1231, 2117],
    [969, 119, 2118],
    [311, 1497, 2119],
    [1606, 2042, 2120],
    [2046, 741, 2121],
    [2086, 1660, 2122],
    [272, 2101, 2123],
    [260, 1133, 2124],
    [260, 279, 2125],
    [284, 330, 2126],
    [287, 105, 2127],
    [282, 325, 2128],
    [260, 284, 2129],
    [114, 303, 2130],
    [1021, 113, 2131],
    [309, 766, 2132],
    [364, 108, 2133],
    [451, 565, 2134],
    [272, 598, 2135],
    [1425, 336, 2136],
    [281, 397, 2137],
    [499, 307, 2138],
    [109, 526, 2139],
    [627, 380, 2140],
    [523, 114, 2141],
    [508, 2122, 2142],
    [606, 111, 2143],
    [1127, 1562, 2144],
    [1141, 941, 2145],
    [434, 807, 2146],
    [1194, 705, 2147],
    [1471, 481, 2148],
    [1492, 300, 2149],
    [291, 1571, 2150],
    [1927, 1584, 2151],
    [2081, 753, 2152],
    [106, 2079, 2153],
    [88, 123, 2154],
    [345, 119, 2155],
    [83, 84, 2156],
    [262, 107, 2157],
    [267, 382, 2158],
    [268, 299, 2159],
    [36, 300, 2160],
    [419, 892, 2161],
    [264, 310, 2162],
    [394, 1983, 2163],
    [401, 277, 2164],
    [776, 443, 2165],
    [108, 384, 2166],
    [1725, 629, 2167],
    [2167, 372, 2168],
    [408, 279, 2169],
    [838, 119, 2170],
    [113, 515, 2171],
    [264, 832, 2172],
    [281, 582, 2173],
    [281, 632, 2174],
    [682, 389, 2175],
    [603, 2165, 2176],
    [267, 1000, 2177],
    [1498, 1441, 2178],
    [2176, 1951, 2179],
    [276, 1351, 2180],
    [1488, 123, 2181],
    [273, 1601, 2182],
    [1679, 856, 2183],
    [2062, 415, 2184],
    [758, 1179, 2185],
    [267, 1698, 2186],
    [94, 69, 2187],
    [264, 409, 2188],
    [272, 279, 2189],
    [282, 274, 2190],
    [107, 304, 2191],
    [351, 321, 2192],
    [1388, 680, 2193],
    [267, 446, 2194],
    [262, 447, 2195],
    [453, 69, 2196],
    [267, 1806, 2197],
    [629, 2187, 2198],
    [537, 2198, 2199],
    [622, 299, 2200],
    [1197, 2014, 2201],
    [2199, 520, 2202],
    [376, 812, 2203],
    [512, 1707, 2204],
    [407, 1883, 2205],
    [986, 284, 2206],
    [850, 998, 2207],
    [494, 2110, 2208],
    [394, 1336, 2209],
    [494, 1964, 2210],
    [2204, 817, 2211],
    [765, 469, 2212],
    [1379, 104, 2213],
    [294, 1133, 2214],
    [430, 119, 2215],
    [473, 304, 2216],
    [1226, 105, 2217],
    [268, 123, 2218],
    [281, 118, 2219],
    [548, 997, 2220],
    [340, 312, 2221],
    [364, 315, 2222],
    [294, 364, 2223],
    [264, 304, 2224],
    [106, 358, 2225],
    [102, 363, 2226],
    [1057, 1676, 2227],
    [294, 488, 2228],
    [109, 586, 2229],
    [272, 593, 2230],
    [888, 119, 2231],
    [677, 443, 2232],
    [2125, 317, 2233],
    [850, 656, 2234],
    [1032, 312, 2235],
    [1033, 277, 2236],
    [437, 1116, 2237],
    [627, 1158, 2238],
    [1230, 300, 2239],
    [308, 1276, 2240],
    [860, 1403, 2241],
    [265, 1713, 2242],
    [1030, 1865, 2243],
    [436, 1886, 2244],
    [434, 2066, 2245],
    [106, 418, 2246],
    [276, 279, 2247],
    [710, 119, 2248],
    [442, 400, 2249],
    [587, 389, 2250],
    [654, 72, 2251],
    [260, 125, 2252],
    [122, 338, 2253],
    [2055, 388, 2254],
    [322, 330, 2255],
    [272, 368, 2256],
    [267, 101, 2257],
    [261, 268, 2258],
    [335, 107, 2259],
    [308, 289, 2260],
    [2251, 372, 2261],
    [1246, 405, 2262],
    [303, 417, 2263],
    [413, 299, 2264],
    [322, 413, 2265],
    [618, 387, 2266],
    [1909, 277, 2267],
    [365, 973, 2268],
    [1706, 2153, 2269],
    [339, 594, 2270],
    [342, 709, 2271],
    [851, 120, 2272],
    [453, 1798, 2273],
    [2273, 1366, 2274],
    [2232, 1267, 2275],
    [2275, 1327, 2276],
    [311, 993, 2277],
    [1082, 105, 2278],
    [1140, 1847, 2279],
    [1147, 2261, 2280],
    [111, 283, 2281],
    [267, 273, 2282],
    [340, 106, 2283],
    [102, 105, 2284],
    [1957, 277, 2285],
    [264, 671, 2286],
    [489, 1366, 2287],
    [360, 107, 2288],
    [264, 111, 2289],
    [119, 283, 2290],
    [368, 116, 2291],
    [1214, 359, 2292],
    [273, 106, 2293],
    [72, 69, 2294],
    [394, 515, 2295],
    [440, 284, 2296],
    [335, 102, 2297],
    [103, 343, 2298],
    [1226, 277, 2299],
    [393, 299, 2300],
    [321, 415, 2301],
    [282, 446, 2302],
    [558, 77, 2303],
    [502, 1386, 2304],
    [267, 547, 2305],
    [573, 312, 2306],
    [264, 576, 2307],
    [615, 307, 2308],
    [630, 111, 2309],
    [693, 487, 2310],
    [330, 648, 2311],
    [2265, 2311, 2312],
    [264, 662, 2313],
    [268, 751, 2314],
    [335, 1207, 2315],
    [760, 330, 2316],
    [121, 791, 2317],
    [802, 446, 2318],
    [1214, 1053, 2319],
    [2225, 1183, 2320],
    [121, 2320, 2321],
    [642, 1016, 2322],
    [962, 648, 2323],
    [1006, 452, 2324],
    [1396, 1474, 2325],
    [1661, 848, 2326],
    [1709, 485, 2327],
    [508, 2243, 2328],
    [1035, 2294, 2329],
    [2303, 2329, 2330],
    [464, 119, 2331],
    [359, 108, 2332],
    [275, 381, 2333],
    [83, 76, 2334],
    [2051, 304, 2335],
    [276, 338, 2336],
    [414, 119, 2337],
    [115, 266, 2338],
    [272, 348, 2339],
    [281, 121, 2340],
    [296, 106, 2341],
    [330, 113, 2342],
    [112, 299, 2343],
    [2069, 739, 2344],
    [87, 629, 2345],
    [120, 304, 2346],
    [267, 324, 2347],
    [388, 114, 2348],
    [349, 283, 2349],
    [910, 300, 2350],
    [2019, 1093, 2351],
    [558, 1758, 2352],
    [2027, 608, 2353],
    [547, 125, 2354],
    [272, 580, 2355],
    [1552, 263, 2356],
    [2334, 82, 2357],
    [686, 628, 2358],
    [525, 1265, 2359],
    [308, 755, 2360],
    [365, 797, 2361],
    [825, 304, 2362],
    [404, 1320, 2363],
    [1586, 493, 2364],
    [1561, 608, 2365],
    [693, 2314, 2366],
    [265, 1890, 2367],
    [1907, 813, 2368],
    [260, 101, 2369],
    [717, 105, 2370],
    [103, 420, 2371],
    [116, 283, 2372],
    [613, 116, 2373],
    [114, 111, 2374],
    [394, 409, 2375],
    [482, 277, 2376],
    [305, 400, 2377],
    [803, 392, 2378],
    [283, 108, 2379],
    [262, 103, 2380],
    [263, 114, 2381],
    [2162, 2293, 2382],
    [1630, 2139, 2383],
    [14, 269, 2384],
    [286, 348, 2385],
    [294, 319, 2386],
    [373, 1078, 2387],
    [310, 119, 2388],
    [276, 752, 2389],
    [360, 104, 2390],
    [308, 380, 2391],
    [572, 993, 2392],
    [393, 330, 2393],
    [274, 405, 2394],
    [113, 797, 2395],
    [272, 783, 2396],
    [121, 448, 2397],
    [497, 283, 2398],
    [541, 684, 2399],
    [722, 120, 2400],
    [118, 632, 2401],
    [490, 689, 2402],
    [281, 681, 2403],
    [376, 688, 2404],
    [690, 119, 2405],
    [267, 724, 2406],
    [567, 804, 2407],
    [957, 107, 2408],
    [1945, 740, 2409],
    [825, 575, 2410],
    [872, 263, 2411],
    [1585, 284, 2412],
    [957, 266, 2413],
    [1006, 345, 2414],
    [1768, 389, 2415],
    [121, 1102, 2416],
    [276, 2300, 2417],
    [2342, 535, 2418],
    [546, 1859, 2419],
    [1939, 1747, 2420],
    [2047, 1820, 2421],
    [77, 86, 2422],
    [289, 273, 2423],
    [301, 119, 2424],
    [261, 113, 2425],
    [71, 69, 2426],
    [288, 349, 2427],
    [919, 1766, 2428],
    [82, 88, 2429],
    [282, 118, 2430],
    [272, 289, 2431],
    [321, 113, 2432],
    [419, 586, 2433],
    [2196, 2428, 2434],
    [2043, 901, 2435],
    [498, 120, 2436],
    [376, 123, 2437],
    [603, 2321, 2438],
    [792, 105, 2439],
    [281, 380, 2440],
    [299, 401, 2441],
    [434, 108, 2442],
    [490, 392, 2443],
    [107, 2436, 2444],
    [394, 470, 2445],
    [481, 119, 2446],
    [303, 526, 2447],
    [109, 534, 2448],
    [121, 534, 2449],
    [499, 547, 2450],
    [549, 315, 2451],
    [573, 415, 2452],
    [121, 599, 2453],
    [282, 762, 2454],
    [496, 651, 2455],
    [376, 696, 2456],
    [722, 116, 2457],
    [871, 104, 2458],
    [885, 631, 2459],
    [264, 1265, 2460],
    [281, 1109, 2461],
    [1124, 122, 2462],
    [1418, 960, 2463],
    [1745, 119, 2464],
    [1833, 448, 2465],
    [1888, 277, 2466],
    [992, 125, 2467],
    [546, 321, 2468],
    [308, 301, 2469],
    [102, 102, 2470],
    [14, 114, 2471],
    [80, 93, 2472],
    [264, 809, 2473],
    [290, 301, 2474],
    [280, 338, 2475],
    [115, 278, 2476],
    [280, 101, 2477],
    [272, 317, 2478],
    [342, 122, 2479],
    [337, 270, 2480],
    [512, 535, 2481],
    [440, 1844, 2482],
    [408, 113, 2483],
    [1735, 336, 2484],
    [314, 418, 2485],
    [1498, 628, 2486],
    [1684, 632, 2487],
    [496, 114, 2488],
    [77, 583, 2489],
    [1167, 348, 2490],
    [605, 345, 2491],
    [638, 103, 2492],
    [1250, 646, 2493],
    [436, 709, 2494],
    [780, 119, 2495],
    [574, 2100, 2496],
    [784, 1040, 2497],
    [342, 1356, 2498],
    [1250, 748, 2499],
    [1304, 471, 2500],
    [1075, 1526, 2501],
    [1691, 125, 2502],
    [1938, 279, 2503],
    [2481, 280, 2504],
    [338, 114, 2505],
    [265, 2099, 2506],
    [556, 389, 2507],
    [109, 116, 2508],
    [77, 90, 2509],
    [358, 324, 2510],
    [272, 925, 2511],
    [290, 368, 2512],
    [277, 114, 2513],
    [408, 2412, 2514],
    [272, 303, 2515],
    [1138, 2395, 2516],
    [423, 1208, 2517],
    [681, 104, 2518],
    [1457, 125, 2519],
    [349, 355, 2520],
    [121, 355, 2521],
    [276, 364, 2522],
    [316, 892, 2523],
    [550, 119, 2524],
    [265, 371, 2525],
    [494, 105, 2526],
    [2189, 418, 2527],
    [615, 2423, 2528],
    [36, 389, 2529],
    [1190, 2426, 2530],
    [113, 401, 2531],
    [444, 283, 2532],
    [440, 303, 2533],
    [109, 456, 2534],
    [616, 532, 2535],
    [518, 105, 2536],
    [540, 104, 2537],
    [1489, 119, 2538],
    [1642, 359, 2539],
    [292, 695, 2540],
    [2487, 101, 2541],
    [896, 324, 2542],
    [1205, 119, 2543],
    [971, 2444, 2544],
    [1056, 363, 2545],
    [86, 1110, 2546],
    [573, 2001, 2547],
    [306, 1803, 2548],
    [1980, 307, 2549],
    [2509, 2018, 2550],
    [909, 2357, 2551],
    [2078, 2418, 2552],
    [2489, 69, 2553],
    [416, 2491, 2554],
    [2526, 2394, 2555],
    [517, 2530, 2556],
    [118, 120, 2557],
    [1607, 724, 2558],
    [119, 115, 2559],
    [368, 330, 2560],
    [661, 70, 2561],
    [310, 324, 2562],
    [386, 119, 2563],
    [286, 327, 2564],
    [112, 277, 2565],
    [472, 301, 2566],
    [294, 284, 2567],
    [546, 896, 2568],
    [1070, 2550, 2569],
    [111, 304, 2570],
    [1770, 2534, 2571],
    [1248, 263, 2572],
    [1248, 273, 2573],
    [550, 1817, 2574],
    [121, 364, 2575],
    [534, 108, 2576],
    [512, 751, 2577],
    [874, 119, 2578],
    [301, 414, 2579],
    [282, 510, 2580],
    [471, 125, 2581],
    [112, 582, 2582],
    [1396, 1693, 2583],
    [556, 357, 2584],
    [1984, 925, 2585],
    [1755, 345, 2586],
    [615, 112, 2587],
    [616, 103, 2588],
    [494, 654, 2589],
    [456, 741, 2590],
    [884, 684, 2591],
    [922, 405, 2592],
    [931, 422, 2593],
    [1014, 348, 2594],
    [1057, 705, 2595],
    [283, 1102, 2596],
    [508, 2541, 2597],
    [2040, 609, 2598],
    [546, 1265, 2599],
    [437, 1323, 2600],
    [282, 1866, 2601],
    [276, 2255, 2602],
    [282, 2263, 2603],
    [408, 2378, 2604],
    [275, 2561, 2605],
    [2589, 2429, 2606],
    [2605, 2068, 2607],
    [368, 119, 2608],
    [103, 125, 2609],
    [120, 115, 2610],
    [851, 2102, 2611],
    [353, 115, 2612],
    [594, 284, 2613],
    [112, 119, 2614],
    [36, 671, 2615],
    [352, 1129, 2616],
    [14, 78, 2617],
    [89, 86, 2618],
    [272, 2458, 2619],
    [14, 55, 2620],
    [456, 738, 2621],
    [291, 123, 2622],
    [314, 119, 2623],
    [282, 317, 2624],
    [342, 310, 2625],
    [931, 380, 2626],
    [291, 544, 2627],
    [370, 321, 2628],
    [272, 380, 2629],
    [36, 479, 2630],
    [308, 547, 2631],
    [2219, 571, 2632],
    [403, 106, 2633],
    [416, 107, 2634],
    [771, 299, 2635],
    [282, 593, 2636],
    [288, 464, 2637],
    [124, 1093, 2638],
    [472, 266, 2639],
    [476, 125, 2640],
    [114, 636, 2641],
    [505, 108, 2642],
    [282, 807, 2643],
    [563, 123, 2644],
    [318, 2392, 2645],
    [335, 633, 2646],
    [854, 526, 2647],
    [279, 680, 2648],
    [686, 277, 2649],
    [286, 689, 2650],
    [1127, 112, 2651],
    [75, 711, 2652],
    [761, 268, 2653],
    [775, 93, 2654],
    [781, 755, 2655],
    [910, 280, 2656],
    [262, 950, 2657],
    [1123, 105, 2658],
    [119, 906, 2659],
    [920, 328, 2660],
    [1067, 2652, 2661],
    [629, 2661, 2662],
    [784, 2379, 2663],
    [1083, 2083, 2664],
    [565, 1346, 2665],
    [2665, 648, 2666],
    [440, 1399, 2667],
    [1620, 324, 2668],
    [472, 2058, 2669],
    [2107, 1827, 2670],
    [567, 2323, 2671],
    [615, 2312, 2672],
    [2442, 2401, 2673],
    [119, 108, 2674],
    [266, 283, 2675],
    [105, 283, 2676],
    [115, 274, 2677],
    [14, 1564, 2678],
    [360, 102, 2679],
    [14, 266, 2680],
    [594, 324, 2681],
    [1335, 363, 2682],
    [307, 283, 2683],
    [371, 119, 2684],
    [36, 358, 2685],
    [125, 304, 2686],
    [317, 125, 2687],
    [285, 319, 2688],
    [14, 756, 2689],
    [121, 324, 2690],
    [433, 299, 2691],
    [377, 283, 2692],
    [265, 358, 2693],
    [364, 123, 2694],
    [264, 368, 2695],
    [685, 1948, 2696],
    [122, 389, 2697],
    [281, 389, 2698],
    [1645, 462, 2699],
    [413, 113, 2700],
    [371, 415, 2701],
    [532, 279, 2702],
    [311, 446, 2703],
    [1705, 119, 2704],
    [276, 488, 2705],
    [1159, 547, 2706],
    [446, 526, 2707],
    [110, 698, 2708],
    [884, 289, 2709],
    [617, 102, 2710],
    [623, 125, 2711],
    [290, 832, 2712],
    [823, 274, 2713],
    [288, 709, 2714],
    [693, 2171, 2715],
    [867, 125, 2716],
    [415, 2022, 2717],
    [1477, 119, 2718],
    [310, 2696, 2719],
    [1640, 1080, 2720],
    [1772, 481, 2721],
    [120, 1782, 2722],
    [1988, 392, 2723],
    [115, 2425, 2724],
    [2717, 961, 2725],
    [260, 422, 2726],
    [304, 277, 2727],
    [119, 103, 2728],
    [102, 279, 2729],
    [276, 535, 2730],
    [268, 125, 2731],
    [318, 382, 2732],
    [289, 112, 2733],
    [272, 284, 2734],
    [342, 359, 2735],
    [276, 341, 2736],
    [335, 113, 2737],
    [108, 519, 2738],
    [865, 1775, 2739],
    [413, 105, 2740],
    [294, 387, 2741],
    [999, 405, 2742],
    [351, 413, 2743],
    [101, 452, 2744],
    [477, 643, 2745],
    [463, 363, 2746],
    [2724, 1616, 2747],
    [105, 466, 2748],
    [2137, 114, 2749],
    [906, 536, 2750],
    [605, 631, 2751],
    [286, 925, 2752],
    [77, 661, 2753],
    [699, 304, 2754],
    [272, 762, 2755],
    [868, 279, 2756],
    [457, 1852, 2757],
    [558, 2662, 2758],
    [367, 824, 2759],
    [365, 892, 2760],
    [781, 908, 2761],
    [792, 2612, 2762],
    [77, 1067, 2763],
    [2757, 2763, 2764],
    [267, 1131, 2765],
    [1211, 401, 2766],
    [1246, 315, 2767],
    [664, 1529, 2768],
    [1965, 363, 2769],
    [551, 2291, 2770],
    [272, 2301, 2771],
    [1561, 2397, 2772],
    [1020, 2422, 2773],
    [494, 2546, 2774],
    [75, 2553, 2775],
    [2773, 2775, 2776],
    [2575, 112, 2777],
    [304, 363, 2778],
    [126, 105, 2779],
    [446, 417, 2780],
    [499, 280, 2781],
    [337, 118, 2782],
    [118, 274, 2783],
    [314, 110, 2784],
    [102, 324, 2785],
    [36, 325, 2786],
    [107, 107, 2787],
    [442, 571, 2788],
    [294, 279, 2789],
    [260, 274, 2790],
    [2308, 2711, 2791],
    [444, 393, 2792],
    [262, 125, 2793],
    [294, 121, 2794],
    [265, 1000, 2795],
    [268, 348, 2796],
    [600, 506, 2797],
    [280, 125, 2798],
    [282, 101, 2799],
    [289, 114, 2800],
    [267, 1430, 2801],
    [104, 304, 2802],
    [1073, 123, 2803],
    [324, 119, 2804],
    [546, 120, 2805],
    [115, 388, 2806],
    [276, 1077, 2807],
    [109, 389, 2808],
    [391, 104, 2809],
    [470, 307, 2810],
    [2093, 2377, 2811],
    [324, 456, 2812],
    [115, 829, 2813],
    [105, 496, 2814],
    [273, 568, 2815],
    [860, 359, 2816],
    [282, 1753, 2817],
    [621, 299, 2818],
    [990, 315, 2819],
    [686, 631, 2820],
    [716, 295, 2821],
    [2634, 485, 2822],
    [437, 812, 2823],
    [839, 113, 2824],
    [1254, 641, 2825],
    [490, 1008, 2826],
    [2084, 1950, 2827],
    [2272, 1157, 2828],
    [1630, 1077, 2829],
    [1190, 69, 2830],
    [2145, 125, 2831],
    [1256, 348, 2832],
    [579, 1288, 2833],
    [615, 2744, 2834],
    [1841, 799, 2835],
    [437, 1351, 2836],
    [1384, 304, 2837],
    [265, 1430, 2838],
    [613, 1868, 2839],
    [1708, 1153, 2840],
    [1732, 278, 2841],
    [314, 1903, 2842],
    [991, 2085, 2843],
    [552, 2638, 2844],
    [525, 2472, 2845],
    [111, 324, 2846],
    [262, 116, 2847],
    [360, 671, 2848],
    [113, 324, 2849],
    [101, 695, 2850],
    [522, 299, 2851],
    [316, 116, 2852],
    [561, 1824, 2853],
    [436, 386, 2854],
    [679, 330, 2855],
    [267, 1126, 2856],
    [126, 284, 2857],
    [264, 382, 2858],
    [481, 324, 2859],
    [808, 2719, 2860],
    [342, 113, 2861],
    [276, 397, 2862],
    [2621, 284, 2863],
    [265, 324, 2864],
    [265, 559, 2865],
    [398, 102, 2866],
    [2361, 1157, 2867],
    [425, 1386, 2868],
    [121, 371, 2869],
    [284, 392, 2870],
    [287, 422, 2871],
    [395, 307, 2872],
    [397, 283, 2873],
    [104, 405, 2874],
    [811, 277, 2875],
    [264, 433, 2876],
    [563, 103, 2877],
    [451, 1008, 2878],
    [106, 2716, 2879],
    [2411, 484, 2880],
    [457, 381, 2881],
    [2297, 358, 2882],
    [122, 510, 2883],
    [490, 303, 2884],
    [107, 608, 2885],
    [563, 111, 2886],
    [573, 299, 2887],
    [1069, 1365, 2888],
    [627, 112, 2889],
    [645, 119, 2890],
    [413, 651, 2891],
    [326, 1403, 2892],
    [1527, 786, 2893],
    [1211, 319, 2894],
    [291, 803, 2895],
    [809, 102, 2896],
    [1602, 312, 2897],
    [335, 972, 2898],
    [627, 996, 2899],
    [276, 999, 2900],
    [2700, 648, 2901],
    [1020, 769, 2902],
    [1241, 1151, 2903],
    [1350, 268, 2904],
    [1752, 648, 2905],
    [1878, 324, 2906],
    [2385, 680, 2907],
    [348, 2032, 2908],
    [2207, 119, 2909],
    [2230, 261, 2910],
    [426, 2253, 2911],
    [497, 2348, 2912],
    [2381, 418, 2913],
    [2173, 2475, 2914],
    [1773, 2488, 2915],
    [1432, 2582, 2916],
    [2585, 572, 2917],
    [1014, 2815, 2918],
    [1606, 2830, 2919],
    [2881, 640, 2920],
    [101, 328, 2921],
    [36, 92, 2922],
    [360, 106, 2923],
    [986, 102, 2924],
    [104, 317, 2925],
    [1825, 284, 2926],
    [975, 277, 2927],
    [323, 469, 2928],
    [286, 305, 2929],
    [265, 820, 2930],
    [289, 304, 2931],
    [404, 310, 2932],
    [351, 274, 2933],
    [286, 1870, 2934],
    [299, 277, 2935],
    [264, 565, 2936],
    [300, 112, 2937],
    [440, 387, 2938],
    [587, 2338, 2939],
    [298, 123, 2940],
    [267, 280, 2941],
    [309, 102, 2942],
    [395, 107, 2943],
    [312, 120, 2944],
    [297, 320, 2945],
    [101, 1312, 2946],
    [298, 340, 2947],
    [118, 327, 2948],
    [329, 105, 2949],
    [358, 277, 2950],
    [1404, 2560, 2951],
    [385, 325, 2952],
    [430, 283, 2953],
    [374, 832, 2954],
    [118, 448, 2955],
    [282, 413, 2956],
    [476, 1031, 2957],
    [281, 485, 2958],
    [598, 119, 2959],
    [2008, 901, 2960],
    [561, 418, 2961],
    [101, 586, 2962],
    [286, 632, 2963],
    [2863, 322, 2964],
    [644, 707, 2965],
    [398, 724, 2966],
    [1943, 1000, 2967],
    [318, 1153, 2968],
    [365, 799, 2969],
    [822, 105, 2970],
    [933, 387, 2971],
    [1742, 116, 2972],
    [310, 1039, 2973],
    [2228, 315, 2974],
    [1189, 119, 2975],
    [1407, 1655, 2976],
    [710, 1423, 2977],
    [1532, 277, 2978],
    [1640, 535, 2979],
    [1840, 879, 2980],
    [1404, 2221, 2981],
    [276, 2576, 2982],
    [2615, 274, 2983],
    [613, 2659, 2984],
    [311, 2738, 2985],
    [508, 2747, 2986],
    [351, 115, 2987],
    [452, 289, 2988],
    [357, 119, 2989],
    [114, 125, 2990],
    [276, 465, 2991],
    [120, 119, 2992],
    [14, 261, 2993],
    [351, 1524, 2994],
    [512, 322, 2995],
    [286, 284, 2996],
    [102, 305, 2997],
    [108, 114, 2998],
    [754, 2750, 2999],
    [1256, 1322, 3000],
    [359, 414, 3001],
    [931, 498, 3002],
    [264, 330, 3003],
    [73, 91, 3004],
    [851, 1145, 3005],
    [279, 1039, 3006],
    [272, 566, 3007],
    [311, 270, 3008],
    [376, 121, 3009],
    [300, 125, 3010],
    [286, 303, 3011],
    [305, 107, 3012],
    [306, 120, 3013],
    [307, 266, 3014],
    [309, 113, 3015],
    [276, 310, 3016],
    [311, 278, 3017],
    [314, 104, 3018],
    [393, 312, 3019],
    [315, 279, 3020],
    [1341, 104, 3021],
    [277, 317, 3022],
    [322, 125, 3023],
    [281, 752, 3024],
    [294, 322, 3025],
    [264, 896, 3026],
    [490, 2596, 3027],
    [265, 325, 3028],
    [342, 106, 3029],
    [260, 345, 3030],
    [347, 1386, 3031],
    [360, 1206, 3032],
    [373, 317, 3033],
    [1706, 2725, 3034],
    [381, 88, 3035],
    [3035, 527, 3036],
    [351, 384, 3037],
    [351, 387, 3038],
    [1219, 274, 3039],
    [488, 121, 3040],
    [121, 994, 3041],
    [264, 400, 3042],
    [1000, 637, 3043],
    [1124, 646, 3044],
    [615, 2908, 3045],
    [482, 1076, 3046],
    [601, 270, 3047],
    [288, 593, 3048],
    [290, 2980, 3049],
    [286, 470, 3050],
    [483, 461, 3051],
    [276, 491, 3052],
    [495, 104, 3053],
    [286, 504, 3054],
    [616, 106, 3055],
    [121, 1924, 3056],
    [569, 445, 3057],
    [617, 105, 3058],
    [317, 762, 3059],
    [407, 591, 3060],
    [437, 2676, 3061],
    [615, 118, 3062],
    [893, 119, 3063],
    [2333, 2753, 3064],
    [3004, 640, 3065],
    [722, 103, 3066],
    [761, 114, 3067],
    [394, 817, 3068],
    [632, 955, 3069],
    [489, 3036, 3070],
    [494, 2007, 3071],
    [985, 303, 3072],
    [109, 999, 3073],
    [1587, 631, 3074],
    [1079, 345, 3075],
    [2922, 77, 3076],
    [1125, 119, 3077],
    [1275, 484, 3078],
    [1302, 283, 3079],
    [272, 1321, 3080],
    [1345, 119, 3081],
    [351, 1351, 3082],
    [1407, 324, 3083],
    [1638, 327, 3084],
    [1276, 1749, 3085],
    [1033, 1753, 3086],
    [518, 2666, 3087],
    [3029, 1531, 3088],
    [541, 1889, 3089],
    [1941, 119, 3090],
    [2146, 3056, 3091],
    [272, 2063, 3092],
    [282, 2118, 3093],
    [781, 2164, 3094],
    [1751, 2374, 3095],
    [2212, 115, 3096],
    [2259, 301, 3097],
    [613, 2279, 3098],
    [2282, 1817, 3099],
    [2296, 405, 3100],
    [2437, 729, 3101],
    [2482, 1322, 3102],
    [2616, 637, 3103],
    [1006, 2751, 3104],
    [494, 2905, 3105],
    [554, 3043, 3106],
    [512, 3065, 3107],
    [119, 116, 3108],
    [395, 304, 3109],
    [644, 305, 3110],
    [447, 324, 3111],
    [109, 672, 3112],
    [342, 320, 3113],
    [276, 105, 3114],
    [2044, 277, 3115],
    [929, 118, 3116],
    [316, 321, 3117],
    [455, 443, 3118],
    [275, 83, 3119],
    [281, 1066, 3120],
    [289, 330, 3121],
    [104, 284, 3122],
    [929, 266, 3123],
    [303, 102, 3124],
    [693, 491, 3125],
    [1552, 338, 3126],
    [321, 112, 3127],
    [389, 414, 3128],
    [264, 338, 3129],
    [827, 119, 3130],
    [404, 371, 3131],
    [276, 413, 3132],
    [403, 452, 3133],
    [1141, 389, 3134],
    [1141, 392, 3135],
    [276, 1054, 3136],
    [394, 105, 3137],
    [122, 1150, 3138],
    [603, 469, 3139],
    [457, 2812, 3140],
    [434, 101, 3141],
    [2743, 386, 3142],
    [638, 2708, 3143],
    [499, 112, 3144],
    [494, 115, 3145],
    [265, 2201, 3146],
    [499, 383, 3147],
    [377, 572, 3148],
    [627, 118, 3149],
    [617, 3022, 3150],
    [430, 612, 3151],
    [282, 1684, 3152],
    [294, 639, 3153],
    [268, 643, 3154],
    [121, 646, 3155],
    [670, 266, 3156],
    [1607, 1468, 3157],
    [710, 380, 3158],
    [265, 2707, 3159],
    [766, 119, 3160],
    [777, 119, 3161],
    [780, 113, 3162],
    [782, 84, 3163],
    [107, 786, 3164],
    [367, 1109, 3165],
    [265, 1413, 3166],
    [494, 2901, 3167],
    [917, 363, 3168],
    [923, 651, 3169],
    [2752, 338, 3170],
    [935, 125, 3171],
    [351, 1107, 3172],
    [2217, 997, 3173],
    [276, 1116, 3174],
    [1170, 2133, 3175],
    [1091, 1232, 3176],
    [115, 2998, 3177],
    [3124, 1158, 3178],
    [281, 1643, 3179],
    [3179, 113, 3180],
    [262, 3039, 3181],
    [475, 1904, 3182],
    [2097, 2026, 3183],
    [2115, 1402, 3184],
    [265, 2581, 3185],
    [453, 2618, 3186],
    [3186, 1309, 3187],
    [478, 2733, 3188],
    [523, 2742, 3189],
    [3163, 2345, 3190],
    [706, 119, 3191],
    [268, 324, 3192],
    [261, 348, 3193],
    [1581, 119, 3194],
    [262, 358, 3195],
    [14, 112, 3196],
    [391, 336, 3197],
    [77, 75, 3198],
    [113, 279, 3199],
    [102, 1522, 3200],
    [412, 529, 3201],
    [1361, 2441, 3202],
    [1235, 612, 3203],
    [70, 89, 3204],
    [299, 456, 3205],
    [525, 3190, 3206],
    [69, 88, 3207],
    [423, 345, 3208],
    [281, 672, 3209],
    [3204, 759, 3210],
    [627, 1097, 3211],
    [279, 324, 3212],
    [480, 487, 3213],
    [618, 456, 3214],
    [518, 303, 3215],
    [397, 345, 3216],
    [14, 279, 3217],
    [563, 116, 3218],
    [506, 304, 3219],
    [116, 321, 3220],
    [554, 570, 3221],
    [278, 303, 3222],
    [644, 301, 3223],
    [365, 389, 3224],
    [835, 119, 3225],
    [282, 684, 3226],
    [719, 363, 3227],
    [274, 1076, 3228],
    [264, 327, 3229],
    [325, 648, 3230],
    [613, 122, 3231],
    [294, 371, 3232],
    [375, 107, 3233],
    [544, 125, 3234],
    [1106, 1413, 3235],
    [404, 388, 3236],
    [554, 341, 3237],
    [393, 493, 3238],
    [268, 469, 3239],
    [260, 485, 3240],
    [933, 324, 3241],
    [80, 1110, 3242],
    [2087, 405, 3243],
    [260, 2393, 3244],
    [579, 506, 3245],
    [600, 273, 3246],
    [629, 402, 3247],
    [263, 643, 3248],
    [1124, 389, 3249],
    [656, 104, 3250],
    [761, 709, 3251],
    [477, 739, 3252],
    [777, 916, 3253],
    [476, 817, 3254],
    [282, 879, 3255],
    [910, 799, 3256],
    [272, 2780, 3257],
    [934, 921, 3258],
    [14, 976, 3259],
    [297, 2701, 3260],
    [2097, 330, 3261],
    [1120, 879, 3262],
    [2492, 2913, 3263],
    [1116, 273, 3264],
    [1141, 417, 3265],
    [282, 1142, 3266],
    [1401, 582, 3267],
    [1436, 418, 3268],
    [1442, 484, 3269],
    [784, 2447, 3270],
    [495, 1582, 3271],
    [1661, 92, 3272],
    [1663, 322, 3273],
    [1770, 338, 3274],
    [686, 2376, 3275],
    [2408, 289, 3276],
    [2483, 1862, 3277],
    [375, 2531, 3278],
    [2664, 108, 3279],
    [2956, 572, 3280],
    [476, 3178, 3281],
    [1725, 3198, 3282],
    [3282, 3247, 3283],
    [760, 104, 3284],
    [308, 101, 3285],
    [876, 119, 3286],
    [2400, 1752, 3287],
    [603, 270, 3288],
    [407, 422, 3289],
    [275, 703, 3290],
    [497, 304, 3291],
    [86, 69, 3292],
    [105, 348, 3293],
    [335, 315, 3294],
    [276, 462, 3295],
    [281, 1064, 3296],
    [440, 488, 3297],
    [279, 283, 3298],
    [307, 116, 3299],
    [113, 484, 3300],
    [351, 471, 3301],
    [572, 392, 3302],
    [1070, 3207, 3303],
    [281, 266, 3304],
    [1625, 300, 3305],
    [377, 322, 3306],
    [563, 106, 3307],
    [266, 304, 3308],
    [14, 312, 3309],
    [399, 2298, 3310],
    [512, 3264, 3311],
    [359, 111, 3312],
    [308, 345, 3313],
    [276, 896, 3314],
    [394, 465, 3315],
    [407, 2921, 3316],
    [118, 1016, 3317],
    [1733, 418, 3318],
    [377, 118, 3319],
    [732, 119, 3320],
    [288, 380, 3321],
    [380, 125, 3322],
    [287, 393, 3323],
    [317, 528, 3324],
    [403, 125, 3325],
    [2734, 748, 3326],
    [416, 280, 3327],
    [425, 119, 3328],
    [521, 1564, 3329],
    [488, 106, 3330],
    [1344, 277, 3331],
    [462, 324, 3332],
    [3297, 123, 3333],
    [377, 506, 3334],
    [1138, 299, 3335],
    [404, 493, 3336],
    [1120, 705, 3337],
    [339, 1310, 3338],
    [394, 1481, 3339],
    [294, 689, 3340],
    [563, 102, 3341],
    [490, 576, 3342],
    [415, 707, 3343],
    [644, 724, 3344],
    [2496, 1072, 3345],
    [828, 125, 3346],
    [839, 104, 3347],
    [108, 866, 3348],
    [436, 2896, 3349],
    [14, 990, 3350],
    [1030, 119, 3351],
    [267, 1150, 3352],
    [1166, 119, 3353],
    [1250, 355, 3354],
    [1256, 861, 3355],
    [2095, 1228, 3356],
    [638, 1319, 3357],
    [274, 1410, 3358],
    [351, 1615, 3359],
    [71, 1798, 3360],
    [3303, 3360, 3361],
    [1802, 415, 3362],
    [439, 1932, 3363],
    [2154, 359, 3364],
    [3158, 348, 3365],
    [2305, 119, 3366],
    [2382, 1066, 3367],
    [290, 2453, 3368],
    [2462, 536, 3369],
    [2685, 317, 3370],
    [2709, 315, 3371],
    [3054, 333, 3372],
    [3100, 672, 3373],
    [1003, 3177, 3374],
    [1159, 115, 3375],
    [307, 359, 3376],
    [640, 88, 3377],
    [123, 328, 3378],
    [349, 289, 3379],
    [736, 575, 3380],
    [547, 303, 3381],
    [119, 261, 3382],
    [311, 106, 3383],
    [268, 283, 3384],
    [284, 283, 3385],
    [426, 681, 3386],
    [662, 324, 3387],
    [114, 526, 3388],
    [267, 268, 3389],
    [358, 345, 3390],
    [272, 101, 3391],
    [723, 301, 3392],
    [640, 76, 3393],
    [276, 2432, 3394],
    [691, 113, 3395],
    [300, 278, 3396],
    [301, 120, 3397],
    [310, 304, 3398],
    [310, 120, 3399],
    [315, 278, 3400],
    [3393, 2156, 3401],
    [377, 358, 3402],
    [360, 112, 3403],
    [282, 321, 3404],
    [949, 386, 3405],
    [367, 422, 3406],
    [375, 371, 3407],
    [965, 738, 3408],
    [115, 623, 3409],
    [36, 388, 3410],
    [286, 389, 3411],
    [282, 397, 3412],
    [451, 2218, 3413],
    [717, 283, 3414],
    [410, 105, 3415],
    [3132, 279, 3416],
    [518, 277, 3417],
    [88, 438, 3418],
    [3418, 3242, 3419],
    [439, 325, 3420],
    [456, 2032, 3421],
    [476, 3421, 3422],
    [274, 448, 3423],
    [2735, 125, 3424],
    [272, 1237, 3425],
    [407, 488, 3426],
    [497, 104, 3427],
    [290, 510, 3428],
    [423, 565, 3429],
    [557, 349, 3430],
    [574, 266, 3431],
    [3431, 1747, 3432],
    [577, 299, 3433],
    [1645, 1161, 3434],
    [664, 363, 3435],
    [1150, 274, 3436],
    [3003, 1081, 3437],
    [1195, 330, 3438],
    [342, 762, 3439],
    [508, 2800, 3440],
    [784, 804, 3441],
    [613, 1306, 3442],
    [335, 1862, 3443],
    [579, 921, 3444],
    [765, 994, 3445],
    [70, 1052, 3446],
    [360, 2213, 3447],
    [122, 1076, 3448],
    [1246, 1238, 3449],
    [1083, 371, 3450],
    [101, 1104, 3451],
    [1123, 325, 3452],
    [314, 1140, 3453],
    [483, 1140, 3454],
    [440, 1160, 3455],
    [1165, 388, 3456],
    [282, 1188, 3457],
    [1199, 1008, 3458],
    [267, 2126, 3459],
    [1442, 338, 3460],
    [2957, 3230, 3461],
    [483, 3010, 3462],
    [1493, 301, 3463],
    [1499, 119, 3464],
    [2087, 3164, 3465],
    [1773, 1365, 3466],
    [410, 1807, 3467],
    [453, 2118, 3468],
    [309, 2246, 3469],
    [2252, 1055, 3470],
    [2732, 2343, 3471],
    [2380, 461, 3472],
    [2479, 430, 3473],
    [3066, 1692, 3474],
    [3420, 961, 3475],
    [2654, 3446, 3476],
    [3476, 88, 3477],
    [14, 273, 3478],
    [434, 3085, 3479],
    [14, 115, 3480],
    [69, 79, 3481],
    [1851, 628, 3482],
    [112, 116, 3483],
    [490, 389, 3484],
    [115, 301, 3485],
    [121, 102, 3486],
    [284, 672, 3487],
    [761, 124, 3488],
    [1262, 565, 3489],
    [105, 111, 3490],
    [1663, 284, 3491],
    [451, 379, 3492],
    [771, 586, 3493],
    [1331, 119, 3494],
    [417, 284, 3495],
    [351, 925, 3496],
    [307, 277, 3497],
    [272, 2331, 3498],
    [490, 519, 3499],
    [1214, 1944, 3500],
    [349, 1078, 3501],
    [627, 325, 3502],
    [311, 269, 3503],
    [308, 752, 3504],
    [757, 104, 3505],
    [326, 310, 3506],
    [2093, 109, 3507],
    [356, 3210, 3508],
    [2842, 1362, 3509],
    [423, 409, 3510],
    [394, 2201, 3511],
    [276, 387, 3512],
    [2158, 2343, 3513],
    [423, 1804, 3514],
    [691, 107, 3515],
    [423, 105, 3516],
    [807, 277, 3517],
    [118, 506, 3518],
    [438, 72, 3519],
    [272, 464, 3520],
    [446, 105, 3521],
    [364, 447, 3522],
    [122, 582, 3523],
    [308, 3127, 3524],
    [281, 470, 3525],
    [1790, 1402, 3526],
    [496, 345, 3527],
    [1864, 324, 3528],
[...]
