{
  "version": "1.0",
  "truncation": null,
  "padding": null,
  "added_tokens": [
    {
      "id": 0,
      "content": "<pad>",
      "single_word": false,
      "lstrip": false,
      "rstrip": false,
      "normalized": false,
      "special": true
    },
    {
      "id": 1,
      "content": "<unk>",
      "single_word": false,
      "lstrip": false,
      "rstrip": false,
      "normalized": false,
      "special": true
    },
    {
      "id": 2,
      "content": "<bos>",
      "single_word": false,
      "lstrip": false,
      "rstrip": false,
      "normalized": false,
      "special": true
    },
    {
      "id": 3,
      "content": "<eos>",
      "single_word": false,
      "lstrip": false,
      "rstrip": false,
      "normalized": false,
      "special": true
    }
  ],
  "normalizer": null,
  "pre_tokenizer": {
    "type": "ByteLevel",
    "add_prefix_space": true,
    "trim_offsets": true,
    "use_regex": true
  },
  "post_processor": null,
  "decoder": {
    "type": "ByteLevel",
    "add_prefix_space": true,
    "trim_offsets": true,
    "use_regex": true
  },
  "model": {
    "type": "BPE",
    "dropout": null,
    "unk_token": "<unk>",
    "continuing_subword_prefix": null,
    "end_of_word_suffix": null,
    "fuse_unk": false,
    "byte_fallback": false,
    "ignore_merges": false,
    "vocab": {
      "<pad>": 0,
      "<unk>": 1,
      "<bos>": 2,
      "<eos>": 3,
      "!": 4,
      "\"": 5,
      "#": 6,
      "$": 7,
      "%": 8,
      "&": 9,
      "'": 10,
      "(": 11,
      ")": 12,
      "*": 13,
      "+": 14,
      ",": 15,
      "-": 16,
      ".": 17,
      "/": 18,
      "0": 19,
      "1": 20,
      "2": 21,
      "3": 22,
      "4": 23,
      "5": 24,
      "6": 25,
      "7": 26,
      "8": 27,
      "9": 28,
      ":": 29,
      ";": 30,
      "<": 31,
      "=": 32,
      ">": 33,
      "?": 34,
      "@": 35,
      "A": 36,
      "B": 37,
      "C": 38,
      "D": 39,
      "E": 40,
      "F": 41,
      "G": 42,
      "H": 43,
      "I": 44,
      "J": 45,
      "K": 46,
      "L": 47,
      "M": 48,
      "N": 49,
      "O": 50,
      "P": 51,
      "Q": 52,
      "R": 53,
      "S": 54,
      "T": 55,
      "U": 56,
      "V": 57,
      "W": 58,
      "X": 59,
      "Y": 60,
      "Z": 61,
      "[": 62,
      "\\": 63,
      "]": 64,
      "^": 65,
      "_": 66,
      "`": 67,
      "a": 68,
      "b": 69,
      "c": 70,
      "d": 71,
      "e": 72,
      "f": 73,
      "g": 74,
      "h": 75,
      "i": 76,
      "j": 77,
      "k": 78,
      "l": 79,
      "m": 80,
      "n": 81,
      "o": 82,
      "p": 83,
      "q": 84,
      "r": 85,
      "s": 86,
      "t": 87,
      "u": 88,
      "v": 89,
      "w": 90,
      "x": 91,
      "y": 92,
      "z": 93,
      "{": 94,
      "|": 95,
      "}": 96,
      "~": 97,
      "¡": 98,
      "¢": 99,
      "£": 100,
      "¤": 101,
      "¥": 102,
      "¦": 103,
      "§": 104,
      "¨": 105,
      "©": 106,
      "ª": 107,
      "«": 108,
      "¬": 109,
      "®": 110,
      "¯": 111,
      "°": 112,
      "±": 113,
      "²": 114,
      "³": 115,
      "´": 116,
      "µ": 117,
      "¶": 118,
      "·": 119,
      "¸": 120,
      "¹": 121,
      "º": 122,
      "»": 123,
      "¼": 124,
      "½": 125,
      "¾": 126,
      "¿": 127,
      "Â": 128,
      "Ã": 129,
      "Ä": 130,
      "Å": 131,
      "Æ": 132,
      "Ç": 133,
      "È": 134,
      "É": 135,
      "Ê": 136,
      "Ë": 137,
      "Ì": 138,
      "Í": 139,
      "Î": 140,
      "Ï": 141,
      "Ð": 142,
      "Ñ": 143,
      "Ò": 144,
      "Ó": 145,
      "Ô": 146,
      "Õ": 147,
      "Ö": 148,
      "×": 149,
      "Ø": 150,
      "Ù": 151,
      "Ú": 152,
      "Û": 153,
      "Ü": 154,
      "ß": 155,
      "à": 156,
      "á": 157,
      "â": 158,
      "ã": 159,
      "ä": 160,
      "å": 161,
      "æ": 162,
      "ç": 163,
      "è": 164,
      "é": 165,
      "ê": 166,
      "ë": 167,
      "ì": 168,
      "í": 169,
      "î": 170,
      "ï": 171,
      "ð": 172,
      "Ċ": 173,
      "Ġ": 174,
      "Ģ": 175,
      "ģ": 176,
      "Ĥ": 177,
      "ĥ": 178,
      "Ħ": 179,
      "ħ": 180,
      "Ĩ": 181,
      "ĩ": 182,
      "Ī": 183,
      "ī": 184,
      "Ĭ": 185,
      "ĭ": 186,
      "Į": 187,
      "į": 188,
      "İ": 189,
      "ı": 190,
      "Ĳ": 191,
      "ĳ": 192,
      "Ĵ": 193,
      "ĵ": 194,
      "Ķ": 195,
      "ķ": 196,
      "ĸ": 197,
      "Ĺ": 198,
      "ĺ": 199,
      "Ļ": 200,
      "ļ": 201,
      "Ľ": 202,
      "ľ": 203,
      "Ŀ": 204,
      "ŀ": 205,
      "Ł": 206,
      "ł": 207,
      "Ń": 208,
      "Ġt": 209,
      "Ġa": 210,
      "in": 211,
      "he": 212,
      "er": 213,
      "on": 214,
      "re": 215,
      "Ġthe": 216,
      "Ġs": 217,
      "Ġw": 218,
      "at": 219,
      "or": 220,
      "en": 221,
      "an": 222,
      "Ġo": 223,
      "is": 224,
      "Ġc": 225,
      "ed": 226,
      "it": 227,
      "ing": 228,
      "Ġf": 229,
      "es": 230,
      "Ġb": 231,
      "ar": 232,
      "Ġp": 233,
      "al": 234,
      "ou": 235,
      "Ġof": 236,
      "Ġin": 237,
      "Ġto": 238,
      "Ġan": 239,
      "as": 240,
      "Ġm": 241,
      "Ġh": 242,
      "ic": 243,
      "Ġd": 244,
      "le": 245,
      "ĠT": 246,
      "om": 247,
      "Ġand": 248,
      "âĢ": 249,
      "ion": 250,
      "Ġth": 251,
      "ĠS": 252,
      "il": 253,
      "ent": 254,
      "ĠA": 255,
      "st": 256,
      "Ġn": 257,
      "ay": 258,
      "Ġl": 259,
      "Ġre": 260,
      "ĠC": 261,
      "ve": 262,
      "ro": 263,
      "ĠI": 264,
      "id": 265,
      "Ġon": 266,
      "Ġg": 267,
      "ac": 268,
      "ĠM": 269,
      "Ġbe": 270,
      "Ġe": 271,
      "am": 272,
      "ly": 273,
      "ot": 274,
      "ol": 275,
      "ig": 276,
      "ut": 277,
      "et": 278,
      "ad": 279,
      "Ġfor": 280,
      "ow": 281,
      "Ġis": 282,
      "ĠB": 283,
      "ur": 284,
      "ĠP": 285,
      "ver": 286,
      "im": 287,
      "ter": 288,
      "âĢĻ": 289,
      "el": 290,
      "un": 291,
      "ec": 292,
      "us": 293,
      "ĠThe": 294,
      "Ġst": 295,
      "ir": 296,
      "ĠW": 297,
      "Ġy": 298,
      "Ġthat": 299,
      "ĠD": 300,
      "ĠF": 301,
      "ĠR": 302,
      "Ġhe": 303,
      "ation": 304,
      "Ġit": 305,
      "ith": 306,
      "ĠN": 307,
      "ill": 308,
      "ĠH": 309,
      "ew": 310,
      "ers": 311,
      "Ġ2": 312,
      "Ġwith": 313,
      "ce": 314,
      "Ġwh": 315,
      "Ġat": 316,
      "ĠG": 317,
      "ag": 318,
      "ri": 319,
      "ch": 320,
      "est": 321,
      "ĠL": 322,
      "oun": 323,
      "ul": 324,
      "em": 325,
      "Ġas": 326,
      "ĠâĢ": 327,
      "ear": 328,
      "Ġ1": 329,
      "Ġwas": 330,
      "ts": 331,
      "os": 332,
      "and": 333,
      "igh": 334,
      "um": 335,
      "ĠE": 336,
      "ld": 337,
      "ke": 338,
      "ĠJ": 339,
      "th": 340,
      "Ġr": 341,
      "ate": 342,
      "op": 343,
      "res": 344,
      "rom": 345,
      "ĠO": 346,
      "ct": 347,
      "up": 348,
      "Ġal": 349,
      "Ġyou": 350,
      "Ġcon": 351,
      "Ġhas": 352,
      "Ġha": 353,
      "'s": 354,
      "Ġ(": 355,
      "ain": 356,
      "Ġby": 357,
      "ĠU": 358,
      "Ġcom": 359,
      "ore": 360,
      "her": 361,
      "Ġpro": 362,
      "oo": 363,
      "Ġare": 364,
      "ap": 365,
      "if": 366,
      "ist": 367,
      "Ġfrom": 368,
      "Ġv": 369,
      "day": 370,
      "oc": 371,
      "Ġwe": 372,
      "ity": 373,
      "Ġ20": 374,
      "ab": 375,
      "Ġhave": 376,
      "Ġde": 377,
      "ast": 378,
      "art": 379,
      "ack": 380,
      "Ġsh": 381,
      "all": 382,
      "ort": 383,
      "end": 384,
      "ive": 385,
      "ess": 386,
      "Ġex": 387,
      "ust": 388,
      "Ġse": 389,
      "ight": 390,
      "ost": 391,
      "ment": 392,
      "out": 393,
      "ies": 394,
      "ub": 395,
      "ĠIn": 396,
      "Ġle": 397,
      "our": 398,
      "ak": 399,
      "Ġch": 400,
      "Ġhis": 401,
      "Ġthis": 402,
      "pp": 403,
      "qu": 404,
      "Ġpl": 405,
      "se": 406,
      "Ġab": 407,
      "ial": 408,
      "ĠSt": 409,
      "ard": 410,
      "ome": 411,
      "ĠTh": 412,
      "Ġnot": 413,
      "ant": 414,
      "Ġun": 415,
      "ice": 416,
      "Ġor": 417,
      "ĠK": 418,
      "Ġ201": 419,
      "ep": 420,
      "Ġtr": 421,
      "ia": 422,
      "Ġj": 423,
      "Ġsp": 424,
      "Ġnew": 425,
      "ud": 426,
      "ĠâĢľ": 427,
      "ge": 428,
      "are": 429,
      "ould": 430,
      "Ġwor": 431,
      "iv": 432,
      "gh": 433,
      "Ġwill": 434,
      "ans": 435,
      "ect": 436,
      "ber": 437,
      "ide": 438,
      "ound": 439,
      "ure": 440,
      "ell": 441,
      "Ġk": 442,
      "ff": 443,
      "Ġup": 444,
      "Ġyear": 445,
      "Ġbeen": 446,
      "mer": 447,
      "Ġar": 448,
      "âĢĿ": 449,
      "age": 450,
      "od": 451,
      "Ġout": 452,
      "ine": 453,
      "ong": 454,
      "fter": 455,
      "ra": 456,
      "Ġsa": 457,
      "Ġoff": 458,
      "ame": 459,
      "Ġ\"": 460,
      "Ġag": 461,
      "cc": 462,
      "00": 463,
      "ich": 464,
      "ary": 465,
      "Ġabout": 466,
      "Ġus": 467,
      "ĠCh": 468,
      "ous": 469,
      "ks": 470,
      "hen": 471,
      "Ġtheir": 472,
      "Ġwho": 473,
      "ally": 474,
      "ĠV": 475,
      "og": 476,
      "ail": 477,
      "ime": 478,
      "ord": 479,
      "Ġone": 480,
      "one": 481,
      "ie": 482,
      "ough": 483,
      "ĠY": 484,
      "Ġcl": 485,
      "Ġbut": 486,
      "ire": 487,
      "ip": 488,
      "ated": 489,
      "Ġall": 490,
      "ign": 491,
      "Ġint": 492,
      "Ġits": 493,
      "Ġafter": 494,
      "ident": 495,
      "ions": 496,
      "ĠAn": 497,
      "ian": 498,
      "ry": 499,
      "port": 500,
      "Ġcomp": 501,
      "Ġgo": 502,
      "own": 503,
      "der": 504,
      "ue": 505,
      "ere": 506,
      "Ġman": 507,
      "Ġcan": 508,
      "ace": 509,
      "ike": 510,
      "Ġmore": 511,
      "Ġover": 512,
      "Ġne": 513,
      "Ġad": 514,
      "ake": 515,
      "Ġthey": 516,
      "ite": 517,
      "irst": 518,
      "Ġ-": 519,
      "ays": 520,
      "ind": 521,
      "Ġsaid": 522,
      "iz": 523,
      "ass": 524,
      "king": 525,
      "Ġdo": 526,
      "ĠIt": 527,
      "av": 528,
      "Ġres": 529,
      "ence": 530,
      "lic": 531,
      "act": 532,
      "uc": 533,
      "ood": 534,
      "Ġme": 535,
      "Ġcont": 536,
      "Ġexp": 537,
      "ek": 538,
      "pt": 539,
      "Ġim": 540,
      "very": 541,
      "Ġrec": 542,
      "ther": 543,
      "Ġpol": 544,
      "Ġfirst": 545,
      "ress": 546,
      "Ġ3": 547,
      "Ġtw": 548,
      "ount": 549,
      "old": 550,
      "ning": 551,
      "ile": 552,
      "ĠUn": 553,
      "ens": 554,
      "Ġsc": 555,
      "Ġpe": 556,
      "ase": 557,
      "ree": 558,
      "Ġdis": 559,
      "Ġwere": 560,
      "ĠTr": 561,
      "ven": 562,
      "ll": 563,
      "Ġwhich": 564,
      "Ġso": 565,
      "Ġhad": 566,
      "ob": 567,
      "Ġapp": 568,
      "vers": 569,
      "Ġte": 570,
      "able": 571,
      "ory": 572,
      "ark": 573,
      "Ġsome": 574,
      "ren": 575,
      "Ġthan": 576,
      "Ġacc": 577,
      "hed": 578,
      "ĠNew": 579,
      "ople": 580,
      "Ġyour": 581,
      "ug": 582,
      "ose": 583,
      "amp": 584,
      "Ġqu": 585,
      "Ġen": 586,
      "ick": 587,
      "vel": 588,
      "aw": 589,
      "ne": 590,
      "Ġher": 591,
      "ations": 592,
      "Ġinc": 593,
      "Ġwhen": 594,
      "ach": 595,
      "ish": 596,
      "orm": 597,
      "Ġinto": 598,
      "ook": 599,
      "Ġmy": 600,
      "resident": 601,
      "ump": 602,
      "ical": 603,
      "Ġpre": 604,
      "Ġtime": 605,
      "ib": 606,
      "Ġlike": 607,
      "ov": 608,
      "ade": 609,
      "itt": 610,
      "Ġro": 611,
      "reat": 612,
      "Ġpeople": 613,
      "ft": 614,
      "ang": 615,
      "ors": 616,
      "Ġper": 617,
      "Ġgr": 618,
      "Ġkn": 619,
      "ction": 620,
      "oin": 621,
      "oll": 622,
      "Ġtwo": 623,
      "ance": 624,
      "Ġjust": 625,
      "ond": 626,
      "Ġpart": 627,
      "ict": 628,
      "Ġweek": 629,
      "Ġplay": 630,
      "Ġser": 631,
      "ĠâĢĶ": 632,
      "Ġyears": 633,
      "ĠThis": 634,
      "ult": 635,
      "Ġinter": 636,
      "ton": 637,
      "Ġwould": 638,
      "ates": 639,
      "Ġour": 640,
      "ild": 641,
      "ason": 642,
      "Ġget": 643,
      "wn": 644,
      "Ġwhat": 645,
      "Ġlast": 646,
      "..": 647,
      "Ġbl": 648,
      "man": 649,
      "ove": 650,
      "pl": 651,
      "Ġ19": 652,
      "Ġatt": 653,
      "ĠWh": 654,
      "oy": 655,
      "Ġpr": 656,
      "Ġagain": 657,
      "ublic": 658,
      "Ġbec": 659,
      "Ġmost": 660,
      "ings": 661,
      "Ġ4": 662,
      "ock": 663,
      "ĠWe": 664,
      "Ġother": 665,
      "ational": 666,
      "rit": 667,
      "ious": 668,
      "hing": 669,
      "meric": 670,
      "esday": 671,
      "anc": 672,
      "Ġdec": 673,
      "Ġco": 674,
      "ents": 675,
      "Ġnow": 676,
      "so": 677,
      "iss": 678,
      "ĠAs": 679,
      "ition": 680,
      "ased": 681,
      "ĠTrump": 682,
      "ĠâĢĵ": 683,
      "uch": 684,
      "Ġthem": 685,
      "Ġback": 686,
      "Ġno": 687,
      "fer": 688,
      "Ġthere": 689,
      "ĠAmeric": 690,
      "here": 691,
      "Ġann": 692,
      "ĠSh": 693,
      "Ġmon": 694,
      "ĠFr": 695,
      "Ġsup": 696,
      "uring": 697,
      "Ġ$": 698,
      "use": 699,
      "Ġop": 700,
      "Ġam": 701,
      "ited": 702,
      "ĠRe": 703,
      "ced": 704,
      "hn": 705,
      "Ġsec": 706,
      "ĠHe": 707,
      "Ġ5": 708,
      "rib": 709,
      "we": 710,
      "form": 711,
      "Ġbr": 712,
      "Ġhow": 713,
      "ont": 714,
      "hot": 715,
      "iew": 716,
      "por": 717,
      "Ġcomm": 718,
      "Ġfe": 719,
      "ons": 720,
      "ok": 721,
      "Ġany": 722,
      "land": 723,
      "ual": 724,
      "Ġdes": 725,
      "Ġshow": 726,
      "Ġworld": 727,
      "ty": 728,
      "pe": 729,
      "Ġshe": 730,
      "Ġinv": 731,
      "vern": 732,
      "Ġcall": 733,
      "ĠLe": 734,
      "ĠMar": 735,
      "ater": 736,
      "aking": 737,
      "'t": 738,
      "Ġoffic": 739,
      "urn": 740,
      "oot": 741,
      "ating": 742,
      "ath": 743,
      "gr": 744,
      "ĠAr": 745,
      "xt": 746,
      "Ġem": 747,
      "les": 748,
      "ters": 749,
      "Ġbet": 750,
      "ru": 751,
      "Ġact": 752,
      "row": 753,
      "ince": 754,
      "oup": 755,
      "Ġcould": 756,
      "ork": 757,
      "io": 758,
      "ĠFor": 759,
      "Ġwork": 760,
      "arg": 761,
      "ting": 762,
      "Ġrele": 763,
      "te": 764,
      "Ġreport": 765,
      "ĠCom": 766,
      "Ġunder": 767,
      "ool": 768,
      "Ġhim": 769,
      "lect": 770,
      "ics": 771,
      "Ġdown": 772,
      "fore": 773,
      "ording": 774,
      "ink": 775,
      "ĠAnd": 776,
      "ise": 777,
      "Ġfin": 778,
      "Ġmonth": 779,
      "red": 780,
      "illion": 781,
      "ĠBut": 782,
      "Ġevery": 783,
      "enc": 784,
      "Ġteam": 785,
      "Ġbeing": 786,
      "ĠAl": 787,
      "uss": 788,
      "ĠCl": 789,
      "ied": 790,
      "Ġcons": 791,
      "Ġif": 792,
      "ix": 793,
      "ĠRep": 794,
      "Ġfl": 795,
      "Ġannoun": 796,
      "Ġcount": 797,
      "Ġmay": 798,
      "ollow": 799,
      "onal": 800,
      "Ġcap": 801,
      "rough": 802,
      "Ġmany": 803,
      "Ġnews": 804,
      "Ġsay": 805,
      "pr": 806,
      "Ġonly": 807,
      "ife": 808,
      "Ġbu": 809,
      "eral": 810,
      "tern": 811,
      "ists": 812,
      "ames": 813,
      "ĠPresident": 814,
      "Ġgame": 815,
      "ouse": 816,
      "Ġstart": 817,
      "ier": 818,
      "Ġagainst": 819,
      "com": 820,
      "ember": 821,
      "ĠEn": 822,
      "ĠIm": 823,
      "orn": 824,
      "ĠIs": 825,
      "riv": 826,
      "any": 827,
      "ause": 828,
      "Ġear": 829,
      "Ġlong": 830,
      "Ġsur": 831,
      "Ġev": 832,
      "als": 833,
      "Ġend": 834,
      "vernment": 835,
      "ful": 836,
      "Ġind": 837,
      "Ġstud": 838,
      "ank": 839,
      "Ġalso": 840,
      "Ġac": 841,
      "az": 842,
      "Ġknow": 843,
      "ros": 844,
      "Ġeven": 845,
      "Ġmade": 846,
      "oss": 847,
      "Ġcr": 848,
      "Ġrem": 849,
      "ah": 850,
      "ull": 851,
      "year": 852,
      "elf": 853,
      "urs": 854,
      "ĠOn": 855,
      "Ġsub": 856,
      "Ġpost": 857,
      "ower": 858,
      "Ġbefore": 859,
      "Ġduring": 860,
      "lud": 861,
      "atch": 862,
      "other": 863,
      "Ġmake": 864,
      "Ġreg": 865,
      "Ġlead": 866,
      "ĠMon": 867,
      "Ġcar": 868,
      "Ġsee": 869,
      "ĠBl": 870,
      "ee": 871,
      "du": 872,
      "Ġ6": 873,
      "ivers": 874,
      "olog": 875,
      "und": 876,
      "ward": 877,
      "Ġthrough": 878,
      "Ġthree": 879,
      "ative": 880,
      "per": 881,
      "Ġdef": 882,
      "Ġhigh": 883,
      "Ġseason": 884,
      "Ġart": 885,
      "Ġstr": 886,
      "Ġsm": 887,
      "Ġbig": 888,
      "ĠJo": 889,
      "Ġset": 890,
      "att": 891,
      "Ġ10": 892,
      "Ġfound": 893,
      "co": 894,
      "Ġown": 895,
      "ities": 896,
      "ama": 897,
      "Ġrecent": 898,
      "ĠUS": 899,
      "ange": 900,
      "ex": 901,
      "Ġbel": 902,
      "ular": 903,
      "Ġwom": 904,
      "Ġmed": 905,
      "air": 906,
      "Ġadd": 907,
      "gan": 908,
      "ily": 909,
      "ax": 910,
      "Ġcol": 911,
      "ject": 912,
      "Ġway": 913,
      "velop": 914,
      "ĠDe": 915,
      "Ġday": 916,
      "000": 917,
      "ĠYou": 918,
      "Ġgovernment": 919,
      "Ġpolice": 920,
      "Ġ200": 921,
      "Ġtoday": 922,
      "yst": 923,
      "Ġaround": 924,
      "ures": 925,
      "ĠSc": 926,
      "Ġent": 927,
      "Ġdr": 928,
      "sc": 929,
      "ox": 930,
      "ale": 931,
      "ash": 932,
      "Ġsign": 933,
      "way": 934,
      "Ġwhere": 935,
      "Ġimp": 936,
      "ages": 937,
      "Ġ7": 938,
      "Ġsays": 939,
      "Ġdid": 940,
      "Ġass": 941,
      "erv": 942,
      "view": 943,
      "ets": 944,
      "Ġinclud": 945,
      "Ġcamp": 946,
      "ĠPro": 947,
      "Ġlaw": 948,
      "Ġsince": 949,
      "imes": 950,
      "iday": 951,
      "Ġrel": 952,
      "Ġgu": 953,
      "Ġwant": 954,
      "ert": 955,
      "Ġhel": 956,
      "Ġ--": 957,
      "Ġmin": 958,
      "iel": 959,
      "omet": 960,
      "Ġhead": 961,
      "son": 962,
      "chool": 963,
      "hip": 964,
      "led": 965,
      "hoto": 966,
      "onald": 967,
      "ĠInd": 968,
      "Ġhere": 969,
      "Ġke": 970,
      "Ġ8": 971,
      "ern": 972,
      "ble": 973,
      "Ġmuch": 974,
      "Ġhome": 975,
      "ĠAt": 976,
      "ady": 977,
      "ement": 978,
      "aj": 979,
      "its": 980,
      "Ġstate": 981,
      ",âĢĿ": 982,
      "ines": 983,
      "Ġrun": 984,
      "ĠSp": 985,
      "Ġfew": 986,
      "Ġfil": 987,
      "ĠTu": 988,
      "Ġneed": 989,
      "au": 990,
      "Ġofficial": 991,
      "Ġwar": 992,
      "hes": 993,
      "Ġsu": 994,
      "Ġfam": 995,
      "med": 996,
      "Ġplan": 997,
      "ric": 998,
      "ave": 999,
      "Ġwhile": 1000,
      "Ġaccording": 1001,
      "Ġret": 1002,
      "Ġpresident": 1003,
      "Ġhelp": 1004,
      "ween": 1005,
      "ism": 1006,
      "ph": 1007,
      "ights": 1008,
      "ĠTuesday": 1009,
      "Ġins": 1010,
      "Ġbecause": 1011,
      "atur": 1012,
      "duc": 1013,
      "ific": 1014,
      "Ġannounced": 1015,
      "Ġgen": 1016,
      "Ġnight": 1017,
      "line": 1018,
      "Ġ'": 1019,
      "Ġ9": 1020,
      "uth": 1021,
      "Ġfr": 1022,
      "ott": 1023,
      "ision": 1024,
      "ĠMonday": 1025,
      "ross": 1026,
      "ĠOb": 1027,
      "Ġter": 1028,
      "Ġgroup": 1029,
      "ral": 1030,
      "Ġopen": 1031,
      "Ġnext": 1032,
      "ourt": 1033,
      "Ġ2016": 1034,
      "ys": 1035,
      "ĠUnited": 1036,
      "ideo": 1037,
      "Ġbetween": 1038,
      "Ġtake": 1039,
      "ĠSun": 1040,
      "Ġdon": 1041,
      "Ġdevelop": 1042,
      "Ġshould": 1043,
      "Ġuse": 1044,
      "alth": 1045,
      "ursday": 1046,
      "ĠWed": 1047,
      "ient": 1048,
      "ital": 1049,
      "oth": 1050,
      "Ġwell": 1051,
      "Ġfollow": 1052,
      ").": 1053,
      "ible": 1054,
      "ĠThursday": 1055,
      "ON": 1056,
      "Ġconf": 1057,
      "ik": 1058,
      "ĠFriday": 1059,
      "ĠCan": 1060,
      "Ġnear": 1061,
      "Ġprov": 1062,
      "ling": 1063,
      "ars": 1064,
      "orth": 1065,
      "Ġtrans": 1066,
      "Ġvot": 1067,
      "nesday": 1068,
      "Ġtal": 1069,
      "Ġpublic": 1070,
      "Ġcur": 1071,
      "ner": 1072,
      "leg": 1073,
      "ms": 1074,
      "ĠWednesday": 1075,
      "ĠDonald": 1076,
      "ystem": 1077,
      "Ġleg": 1078,
      "ĠAd": 1079,
      "Ġgood": 1080,
      "ather": 1081,
      "ĠSe": 1082,
      "ives": 1083,
      "Ġvery": 1084,
      "Ġnum": 1085,
      "ments": 1086,
      "Ġright": 1087,
      "ĠAmerican": 1088,
      "ina": 1089,
      "con": 1090,
      "rat": 1091,
      "ĠZ": 1092,
      "ared": 1093,
      "ands": 1094,
      "Ġdif": 1095,
      "ret": 1096,
      "Ġcent": 1097,
      "ĠTo": 1098,
      "ĠRepublic": 1099,
      "ought": 1100,
      "uck": 1101,
      "ished": 1102,
      "gest": 1103,
      "ĠSen": 1104,
      "ices": 1105,
      "Ġthose": 1106,
      "Ġserv": 1107,
      "Ġbus": 1108,
      "Ġspec": 1109,
      "ying": 1110,
      "Ġsl": 1111,
      "ution": 1112,
      "ĠTw": 1113,
      "ins": 1114,
      "ports": 1115,
      "ister": 1116,
      "ĠIf": 1117,
      "Ġcountry": 1118,
      "oint": 1119,
      "ĠBe": 1120,
      "Ġgoing": 1121,
      "âĢĶ": 1122,
      "Ġformer": 1123,
      "Ġph": 1124,
      "ned": 1125,
      "Ġmillion": 1126,
      "ĠBy": 1127,
      "ĠChr": 1128,
      "ually": 1129,
      "min": 1130,
      "Ġcompany": 1131,
      "Ġpers": 1132,
      "ĠQ": 1133,
      "ĠMay": 1134,
      "cl": 1135,
      "Ġcity": 1136,
      "iver": 1137,
      "ĠJohn": 1138,
      "),": 1139,
      "Ġtop": 1140,
      "ĠPl": 1141,
      "ball": 1142,
      "ues": 1143,
      "Ġlook": 1144,
      "Ġstill": 1145,
      "ants": 1146,
      "aim": 1147,
      "Ġago": 1148,
      "Ġfour": 1149,
      "ĠPol": 1150,
      "Ġprot": 1151,
      "bers": 1152,
      "iversity": 1153,
      "ience": 1154,
      "let": 1155,
      "ĠThere": 1156,
      "irect": 1157,
      "ger": 1158,
      "Ġdoes": 1159,
      "Ġloc": 1160,
      "outh": 1161,
      "Ġ2017": 1162,
      "Ġcre": 1163,
      "Ġpolit": 1164,
      "Ġfind": 1165,
      "Ġeff": 1166,
      "Ġinvest": 1167,
      "rap": 1168,
      "Ġ2015": 1169,
      "uro": 1170,
      "Ġread": 1171,
      "arge": 1172,
      "Ġmod": 1173,
      "ility": 1174,
      "Ġcapt": 1175,
      "Ġdet": 1176,
      "lection": 1177,
      "icle": 1178,
      "riend": 1179,
      "Ġreal": 1180,
      "IN": 1181,
      "ĠMin": 1182,
      "gle": 1183,
      "Ġlife": 1184,
      "Ġcalled": 1185,
      "Ġsecond": 1186,
      "aign": 1187,
      "Ġkill": 1188,
      "Ġiss": 1189,
      "ĠYork": 1190,
      "bs": 1191,
      "iness": 1192,
      "Ġext": 1193,
      "Ġbest": 1194,
      "Ġsomet": 1195,
      "ĠBr": 1196,
      "Ġgreat": 1197,
      "eb": 1198,
      "Ġtold": 1199,
      "Ġspe": 1200,
      "aun": 1201,
      "Ġused": 1202,
      "istr": 1203,
      "Ġseries": 1204,
      "ected": 1205,
      "ajor": 1206,
      "Ġmar": 1207,
      "akes": 1208,
      "ubl": 1209,
      "--": 1210,
      "Ġdays": 1211,
      "get": 1212,
      "earch": 1213,
      "ĠCol": 1214,
      "rent": 1215,
      "Ġvideo": 1216,
      "Ġwin": 1217,
      "Ġpass": 1218,
      "ired": 1219,
      "rem": 1220,
      "Ġgl": 1221,
      "Ġpop": 1222,
      "Ġsupport": 1223,
      "Ġattack": 1224,
      "ĠObama": 1225,
      "ĠOne": 1226,
      "ider": 1227,
      "ney": 1228,
      "Ġmov": 1229,
      ",\"": 1230,
      "Ġchild": 1231,
      "aren": 1232,
      "ĠWhen": 1233,
      "AN": 1234,
      "Ġhapp": 1235,
      "Ġpast": 1236,
      "ER": 1237,
      "Ġmark": 1238,
      "Ġinst": 1239,
      "ĠComm": 1240,
      "Ġresp": 1241,
      "gram": 1242,
      "Ġsystem": 1243,
      "Ġmem": 1244,
      "Ġmil": 1245,
      "Ġthese": 1246,
      "Ġanother": 1247,
      "Ġcampaign": 1248,
      "ved": 1249,
      "ention": 1250,
      "Ġbre": 1251,
      "osed": 1252,
      "ked": 1253,
      "ĠFl": 1254,
      "Ġreleased": 1255,
      "Ġdeb": 1256,
      "ĠSunday": 1257,
      "Ġche": 1258,
      "ony": 1259,
      "Ġschool": 1260,
      "Ġquest": 1261,
      "The": 1262,
      "emoc": 1263,
      "Ġed": 1264,
      "Ġlot": 1265,
      "cent": 1266,
      "used": 1267,
      "iet": 1268,
      "Ġsim": 1269,
      "ency": 1270,
      "ĠState": 1271,
      "ague": 1272,
      "ense": 1273,
      "gy": 1274,
      "Ġfar": 1275,
      "Ġbro": 1276,
      "ene": 1277,
      "Ġ12": 1278,
      "echn": 1279,
      "ashing": 1280,
      "Ġwon": 1281,
      "ature": 1282,
      "ĠCar": 1283,
      "une": 1284,
      "ĠHouse": 1285,
      "ĠOr": 1286,
      "ittle": 1287,
      "Ġleft": 1288,
      "ield": 1289,
      "Ġmor": 1290,
      "ving": 1291,
      "ĠWor": 1292,
      "ĠRuss": 1293,
      "acy": 1294,
      "Ġthen": 1295,
      "ĠNews": 1296,
      "Ġrece": 1297,
      "ĠPr": 1298,
      "Ġbuild": 1299,
      "ized": 1300,
      "ster": 1301,
      "ĠCon": 1302,
      "ute": 1303,
      "Ġput": 1304,
      "ness": 1305,
      "Ġhist": 1306,
      "Ġseem": 1307,
      "ĠCity": 1308,
      "reen": 1309,
      "Ġreported": 1310,
      "ised": 1311,
      "aturday": 1312,
      "Ġexpl": 1313,
      "Ġsoc": 1314,
      "ober": 1315,
      "Ġdisc": 1316,
      "Ġtri": 1317,
      "Ġexper": 1318,
      "ĠâĢĺ": 1319,
      "Ġwr": 1320,
      "ird": 1321,
      "Ġpres": 1322,
      "rest": 1323,
      "Ġadv": 1324,
      "ĠThat": 1325,
      "ĠSaturday": 1326,
      "ech": 1327,
      "Ġpar": 1328,
      "Ġprom": 1329,
      "Ġpower": 1330,
      "Ġ2014": 1331,
      "ley": 1332,
      "ck": 1333,
      "ĠPh": 1334,
      "Ġdiffer": 1335,
      "ĠUniversity": 1336,
      "AS": 1337,
      "Ġloo": 1338,
      "ury": 1339,
      "ĠCal": 1340,
      "unity": 1341,
      "inal": 1342,
      "br": 1343,
      "els": 1344,
      "ata": 1345,
      "ĠJan": 1346,
      "Ġclaim": 1347,
      "Ġcontin": 1348,
      "ĠEuro": 1349,
      "ĠImage": 1350,
      "iving": 1351,
      "Ġthink": 1352,
      "Ġold": 1353,
      "Ġfree": 1354,
      "Ġcome": 1355,
      "Ġbelie": 1356,
      "Ġav": 1357,
      "uthor": 1358,
      "ĠAll": 1359,
      "ĠEm": 1360,
      "ode": 1361,
      "Ġcontro": 1362,
      "ves": 1363,
      "aff": 1364,
      "ories": 1365,
      "Ġsame": 1366,
      "lear": 1367,
      "app": 1368,
      "Ġboth": 1369,
      "ĠAm": 1370,
      "ĠMc": 1371,
      "ĠThey": 1372,
      "ces": 1373,
      "ects": 1374,
      "ĠHow": 1375,
      "Ġmet": 1376,
      "Ġknown": 1377,
      "ided": 1378,
      "ĠGr": 1379,
      "conom": 1380,
      "Ġmight": 1381,
      "Ġlist": 1382,
      "emocrat": 1383,
      "Ġmedia": 1384,
      "ĠWith": 1385,
      "ched": 1386,
      "Ġstat": 1387,
      "ĠCanad": 1388,
      "Ġturn": 1389,
      "Ġthings": 1390,
      "Ġ18": 1391,
      "Ġinf": 1392,
      "Ġ11": 1393,
      "Ġhum": 1394,
      "ology": 1395,
      "Ġprogram": 1396,
      "ĠSy": 1397,
      "ody": 1398,
      "oard": 1399,
      "Ġmajor": 1400,
      "iam": 1401,
      "ept": 1402,
      "ional": 1403,
      "Ġpay": 1404,
      "int": 1405,
      "less": 1406,
      "Ġplace": 1407,
      "Ġmonths": 1408,
      "Ġdep": 1409,
      "ederal": 1410,
      "Ġdel": 1411,
      "reet": 1412,
      "ĠEd": 1413,
      "Ġcare": 1414,
      "Ġdev": 1415,
      "OR": 1416,
      "cept": 1417,
      "ĠStates": 1418,
      "ĠBar": 1419,
      "ĠSo": 1420,
      "Ġever": 1421,
      "Ġnumber": 1422,
      "ĠNational": 1423,
      "Ġhand": 1424,
      "ever": 1425,
      "artment": 1426,
      "Ġlittle": 1427,
      "ains": 1428,
      "urity": 1429,
      "ashington": 1430,
      "Ġbeh": 1431,
      "Ġintern": 1432,
      "ĠAust": 1433,
      "Ġlaun": 1434,
      "oad": 1435,
      "Ġve": 1436,
      "Ġi": 1437,
      "ream": 1438,
      "ically": 1439,
      "Ġfac": 1440,
      "Ġmorning": 1441,
      "Ġ15": 1442,
      "uly": 1443,
      "ĠX": 1444,
      "ĠShe": 1445,
      "ĠWorld": 1446,
      "ĠMan": 1447,
      "gin": 1448,
      "Ġrep": 1449,
      "Ġdesign": 1450,
      "ron": 1451,
      "Ġsuch": 1452,
      "ĠWashington": 1453,
      "Ġair": 1454,
      "Ġreally": 1455,
      "20": 1456,
      "enn": 1457,
      "ĠWhat": 1458,
      "Ġgot": 1459,
      "raft": 1460,
      "ĠNorth": 1461,
      "Ġdirect": 1462,
      "ĠDemocrat": 1463,
      "ĠCent": 1464,
      "Ġref": 1465,
      "ator": 1466,
      "ĠEx": 1467,
      "Ġmove": 1468,
      "Ġstory": 1469,
      "ission": 1470,
      "Ġvis": 1471,
      "Ġ[": 1472,
      "Ġhard": 1473,
      "ĠApp": 1474,
      "Ġbusiness": 1475,
      "scrib": 1476,
      "ĠCo": 1477,
      "Ġsomething": 1478,
      "self": 1479,
      "Ġrest": 1480,
      "ĠDec": 1481,
      "ĠEurope": 1482,
      "ĠSup": 1483,
      "ows": 1484,
      "Ġopp": 1485,
      "Ġ0": 1486,
      "back": 1487,
      "ĠAfter": 1488,
      "imate": 1489,
      "ĠNo": 1490,
      "ror": 1491,
      "Ġdeal": 1492,
      "augh": 1493,
      "Ġnever": 1494,
      "Ġacross": 1495,
      "itter": 1496,
      "Ġwomen": 1497,
      "ĠAb": 1498,
      "Ġlat": 1499,
      "Ġincluding": 1500,
      "Ġtest": 1501,
      "Ġsever": 1502,
      "Ġtook": 1503,
      "ourn": 1504,
      "Ġcurrent": 1505,
      "AR": 1506,
      "ready": 1507,
      "Ġmen": 1508,
      "Ġrecord": 1509,
      "ians": 1510,
      "ĠChrist": 1511,
      "Ġfriend": 1512,
      "oney": 1513,
      "the": 1514,
      "Ġgames": 1515,
      "Ġhealth": 1516,
      ".âĢĿ": 1517,
      "ĠMed": 1518,
      "Ġob": 1519,
      "ann": 1520,
      "ĠHill": 1521,
      "Ġappro": 1522,
      "inton": 1523,
      "ĠOct": 1524,
      "ize": 1525,
      "...": 1526,
      "ising": 1527,
      "uters": 1528,
      "ered": 1529,
      "aul": 1530,
      "yn": 1531,
      "Ġearly": 1532,
      "Ġtoo": 1533,
      "rew": 1534,
      "IS": 1535,
      "side": 1536,
      "Ġelect": 1537,
      "Ġ.": 1538,
      "ĠWar": 1539,
      "Ġ2013": 1540,
      "ending": 1541,
      "Ġfamily": 1542,
      "Ġpubl": 1543,
      "oon": 1544,
      "Ġleast": 1545,
      "Ġposs": 1546,
      "Ġtechn": 1547,
      "ĠAmerica": 1548,
      "ium": 1549,
      "Ġsk": 1550,
      "to": 1551,
      "ably": 1552,
      "Ġprev": 1553,
      "Ġalready": 1554,
      "ĠDav": 1555,
      "Ġusing": 1556,
      "Ġfive": 1557,
      "book": 1558,
      "ured": 1559,
      "ush": 1560,
      "ison": 1561,
      "ele": 1562,
      "ially": 1563,
      "ĠClinton": 1564,
      "thing": 1565,
      "ane": 1566,
      "Ġsex": 1567,
      "Ġchar": 1568,
      "ived": 1569,
      "iting": 1570,
      "cess": 1571,
      "ĠBrit": 1572,
      "AT": 1573,
      "ways": 1574,
      "ĠRepublican": 1575,
      "ai": 1576,
      "Ġeconom": 1577,
      "Ġlet": 1578,
      "Ġinterest": 1579,
      "ĠNot": 1580,
      "Ġrelease": 1581,
      "ones": 1582,
      "alf": 1583,
      "Ġwoman": 1584,
      "Ġeas": 1585,
      "oogle": 1586,
      "Ġrequ": 1587,
      "Ġarticle": 1588,
      "ĠIntern": 1589,
      "right": 1590,
      "Ġmaking": 1591,
      "Ġdifferent": 1592,
      "Ġname": 1593,
      "ior": 1594,
      "erman": 1595,
      "ract": 1596,
      "Ġfollowing": 1597,
      "Ġfact": 1598,
      "Ġpriv": 1599,
      "Ġcaption": 1600,
      "Ġsum": 1601,
      "oung": 1602,
      "Ġlatest": 1603,
      "ained": 1604,
      "ming": 1605,
      "ĠGet": 1606,
      "ĠGe": 1607,
      "ĠPost": 1608,
      "Ġdem": 1609,
      "Ġgrow": 1610,
      "Ġjob": 1611,
      "Ġwithout": 1612,
      "ĠSec": 1613,
      "ĠSept": 1614,
      "Ġrecently": 1615,
      "irl": 1616,
      "Ġfoot": 1617,
      "ploy": 1618,
      "BC": 1619,
      "Ġsmall": 1620,
      "ails": 1621,
      "Ġclass": 1622,
      "by": 1623,
      "Ġide": 1624,
      "formation": 1625,
      "Ġ&": 1626,
      "Ġreports": 1627,
      "Ġincre": 1628,
      "ours": 1629,
      "eting": 1630,
      "aining": 1631,
      "Ġcame": 1632,
      "ĠDep": 1633,
      "Ġkeep": 1634,
      "ĠMarch": 1635,
      "ged": 1636,
      "Ġprof": 1637,
      "Ġbecome": 1638,
      "be": 1639,
      "ĠSouth": 1640,
      "ĠAug": 1641,
      "Ġinvestig": 1642,
      "ĠCount": 1643,
      "ĠBro": 1644,
      "Ġorgan": 1645,
      "itc": 1646,
      "ĠEng": 1647,
      "Ġdri": 1648,
      "most": 1649,
      "ipp": 1650,
      "Ġstand": 1651,
      "ĠGoogle": 1652,
      "Ġtax": 1653,
      "ware": 1654,
      "Ġform": 1655,
      "Ġsol": 1656,
      "ering": 1657,
      "ief": 1658,
      "Ġaway": 1659,
      "ĠApr": 1660,
      "ĠJust": 1661,
      "Ġlater": 1662,
      "ĠMich": 1663,
      "esp": 1664,
      "Ġappear": 1665,
      "Ġsw": 1666,
      "Ġevent": 1667,
      "ecut": 1668,
      "opy": 1669,
      "idd": 1670,
      "Ġvers": 1671,
      "ĠSte": 1672,
      "ĠJune": 1673,
      "Ġseen": 1674,
      "Ġeach": 1675,
      "Ġdeath": 1676,
      "Ġreve": 1677,
      "ple": 1678,
      "aken": 1679,
      "ĠPolice": 1680,
      "sh": 1681,
      "ĠHar": 1682,
      "duct": 1683,
      "Ġstar": 1684,
      "Ġfull": 1685,
      "Ġfun": 1686,
      "Ġhop": 1687,
      "Ġchange": 1688,
      "iol": 1689,
      "ĠJuly": 1690,
      "ten": 1691,
      "Ġchang": 1692,
      "atter": 1693,
      "Ġant": 1694,
      "ES": 1695,
      "Ġproduc": 1696,
      "Ġoper": 1697,
      "eks": 1698,
      "ĠNow": 1699,
      "ĠCalif": 1700,
      "ĠUp": 1701,
      "Ġhistory": 1702,
      "Ġmilit": 1703,
      "Ġplayers": 1704,
      "hers": 1705,
      "ccess": 1706,
      "Ġorder": 1707,
      "Ġconc": 1708,
      "icy": 1709,
      "Ġproble": 1710,
      "attle": 1711,
      "ference": 1712,
      "ĠPart": 1713,
      "iber": 1714,
      "aid": 1715,
      "Ġ30": 1716,
      "Ġpercent": 1717,
      "Ġdata": 1718,
      "Ġless": 1719,
      "af": 1720,
      "Ġmus": 1721,
      "Ġbill": 1722,
      "Ġalleg": 1723,
      "Ġcor": 1724,
      "usp": 1725,
      "ana": 1726,
      "Ġarrest": 1727,
      "rop": 1728,
      "Ġseveral": 1729,
      "Ġmain": 1730,
      "Ġfilm": 1731,
      "urch": 1732,
      "Ġcase": 1733,
      "ham": 1734,
      "'re": 1735,
      "Ġweeks": 1736,
      "ĠGu": 1737,
      "Ġsent": 1738,
      "Ġprop": 1739,
      "Ġcharg": 1740,
      "ĠPhoto": 1741,
      "ĠMr": 1742,
      "Ġcand": 1743,
      "ĠApril": 1744,
      "Ġ16": 1745,
      "Ġsix": 1746,
      "ĠFace": 1747,
      "Ġsing": 1748,
      "'ve": 1749,
      "ript": 1750,
      "Ġproject": 1751,
      "Ġmanag": 1752,
      "Ġcomple": 1753,
      "ened": 1754,
      "Ġworking": 1755,
      "til": 1756,
      "ĠFeb": 1757,
      "tt": 1758,
      "aster": 1759,
      "ots": 1760,
      "uture": 1761,
      "ĠAustral": 1762,
      "Ġauthor": 1763,
      "Ġcourt": 1764,
      "Ġel": 1765,
      "Ġwhy": 1766,
      "ĠDr": 1767,
      "Ġ2012": 1768,
      "ection": 1769,
      "ĠRes": 1770,
      "Ġ14": 1771,
      "Ġline": 1772,
      "Ġmembers": 1773,
      "Ġban": 1774,
      "Ġvict": 1775,
      "Ġwrit": 1776,
      "Ġnational": 1777,
      "iqu": 1778,
      "ries": 1779,
      "Ġpolitical": 1780,
      "Ġsour": 1781,
      "etw": 1782,
      "Ġstop": 1783,
      "Ġfore": 1784,
      "Ġorig": 1785,
      "orts": 1786,
      "Ġmiss": 1787,
      "eng": 1788,
      "Ġimport": 1789,
      "Ġpoint": 1790,
      "Re": 1791,
      "ĠRed": 1792,
      "Ġlear": 1793,
      "Ġ13": 1794,
      "Ġalways": 1795,
      "Ġcomes": 1796,
      "Ġtell": 1797,
      "ING": 1798,
      "Ġbiggest": 1799,
      "Ġcrit": 1800,
      "ĠWest": 1801,
      "Ġhost": 1802,
      "aring": 1803,
      "Ġbetter": 1804,
      "ĠAss": 1805,
      "ĠSan": 1806,
      "ĠFacebook": 1807,
      "ified": 1808,
      "Ġupd": 1809,
      "Ġpat": 1810,
      "Ġshort": 1811,
      "Ġstarted": 1812,
      "uff": 1813,
      ".,": 1814,
      "Ġyet": 1815,
      "ds": 1816,
      "Ġlate": 1817,
      "ĠCounty": 1818,
      "Ġfederal": 1819,
      "go": 1820,
      "Ġfight": 1821,
      "Ġreturn": 1822,
      "Ġelection": 1823,
      "ĠAf": 1824,
      "Ġbook": 1825,
      "Ġalong": 1826,
      "ats": 1827,
      "Ġcoming": 1828,
      "Ġsocial": 1829,
      "ertain": 1830,
      "ued": 1831,
      "Ġgun": 1832,
      "ended": 1833,
      "ĠGo": 1834,
      "Ġcover": 1835,
      "Ġbas": 1836,
      "ograp": 1837,
      "uary": 1838,
      "Ġdist": 1839,
      "Ġparty": 1840,
      "Ġpresidential": 1841,
      "Ġofficials": 1842,
      "Ġ|": 1843,
      "rael": 1844,
      "Ġkilled": 1845,
      "ailable": 1846,
      "ĠPar": 1847,
      "Ġsusp": 1848,
      "Ġlocal": 1849,
      "Ġchildren": 1850,
      "Ġmoney": 1851,
      "Ġlove": 1852,
      "off": 1853,
      "Ġaff": 1854,
      "Ġview": 1855,
      "Ġconsider": 1856,
      "OS": 1857,
      "Ġ/": 1858,
      "Ġdiscuss": 1859,
      "Ġgetting": 1860,
      "Ġlarge": 1861,
      "Ġdidn": 1862,
      "Ġpress": 1863,
      "ĠWhite": 1864,
      "Ġhit": 1865,
      "Ġonline": 1866,
      "Ġ25": 1867,
      "EN": 1868,
      "ted": 1869,
      "Ġfund": 1870,
      "Ġhuman": 1871,
      "Ġ17": 1872,
      "Ġcandid": 1873,
      "Ġinterview": 1874,
      "my": 1875,
      "Ġland": 1876,
      "ĠNe": 1877,
      "Ġthing": 1878,
      "amed": 1879,
      "Ġperform": 1880,
      "ĠCourt": 1881,
      "Ġlive": 1882,
      "ards": 1883,
      "arter": 1884,
      "ery": 1885,
      "Ġreveal": 1886,
      "aps": 1887,
      "itor": 1888,
      "ĠHere": 1889,
      "Ġallow": 1890,
      "Ġinj": 1891,
      "lin": 1892,
      "Ġyoung": 1893,
      "Ġtry": 1894,
      "lier": 1895,
      "ĠOff": 1896,
      "mber": 1897,
      "Ġviol": 1898,
      "ĠAcc": 1899,
      "Ġwhe": 1900,
      "oci": 1901,
      "Ġdead": 1902,
      "Ġpos": 1903,
      "Ġpartic": 1904,
      "ij": 1905,
      "Ġshoot": 1906,
      "Ġinformation": 1907,
      "ĠGerman": 1908,
      "ĠDavid": 1909,
      "Ġbehind": 1910,
      "Ġexc": 1911,
      "inc": 1912,
      "Ġonce": 1913,
      "Ġweekend": 1914,
      "bl": 1915,
      "ĠChina": 1916,
      ".\"": 1917,
      "Ġemail": 1918,
      "Ġfire": 1919,
      "Ġoften": 1920,
      "Ġquestion": 1921,
      "ĠMy": 1922,
      "ovember": 1923,
      "ĠIsrael": 1924,
      "Ġthought": 1925,
      "Ġamong": 1926,
      "ĠPaul": 1927,
      "Ġindust": 1928,
      "Ġwent": 1929,
      "Ġty": 1930,
      "Ġfans": 1931,
      "uge": 1932,
      "Ġmarket": 1933,
      "lam": 1934,
      "Ġthough": 1935,
      "iven": 1936,
      "osp": 1937,
      "ĠÂ": 1938,
      "ĠDepartment": 1939,
      "Ġpublished": 1940,
      "Ġtimes": 1941,
      "Ġconfir": 1942,
      "Ġuntil": 1943,
      "ape": 1944,
      "ĠTwitter": 1945,
      "ization": 1946,
      "Ġcommunity": 1947,
      "Ġtit": 1948,
      "head": 1949,
      "ored": 1950,
      "Ġprocess": 1951,
      "Ġjoin": 1952,
      "ases": 1953,
      "Ġfeel": 1954,
      "Ġwater": 1955,
      "ality": 1956,
      "Ġlooking": 1957,
      "ournal": 1958,
      "Ġspecial": 1959,
      "Ġfav": 1960,
      "stit": 1961,
      "Ġperson": 1962,
      "ĠNovember": 1963,
      "apan": 1964,
      "Ġfuture": 1965,
      "ĠCaliforn": 1966,
      "ides": 1967,
      "igr": 1968,
      "Ġhold": 1969,
      "Ġshows": 1970,
      "ĠFollow": 1971,
      "ĠTex": 1972,
      "Ġavailable": 1973,
      "Ġcost": 1974,
      "ĠTV": 1975,
      "for": 1976,
      "Ġstudy": 1977,
      "ender": 1978,
      "Ġpo": 1979,
      "Ġreason": 1980,
      "Ġrul": 1981,
      "Ġtaken": 1982,
      "hern": 1983,
      "Ġfinal": 1984,
      "iously": 1985,
      "ĠTe": 1986,
      "Ġactiv": 1987,
      "Ġhaving": 1988,
      "Ġalmost": 1989,
      "ustom": 1990,
      "ĠIr": 1991,
      "ĠLeague": 1992,
      "Ġasked": 1993,
      "Ġpopular": 1994,
      "Ġest": 1995,
      "ensive": 1996,
      "Ġcut": 1997,
      "lege": 1998,
      "Ġlevel": 1999,
      "ey": 2000,
      "Ġwatch": 2001,
      "Ġocc": 2002,
      "ĠSw": 2003,
      "ĠMus": 2004,
      "scribe": 2005,
      "Ġvar": 2006,
      "Ġ199": 2007,
      "ael": 2008,
      "Ġface": 2009,
      "ĠJanuary": 2010,
      "ades": 2011,
      "Ġstories": 2012,
      "Ġsit": 2013,
      "ĠSeptember": 2014,
      "ĠSyri": 2015,
      "ĠCalifornia": 2016,
      "Ġsug": 2017,
      "key": 2018,
      "AL": 2019,
      "Ġhalf": 2020,
      "ĠEar": 2021,
      "ĠHillary": 2022,
      "Ġra": 2023,
      "ĠJapan": 2024,
      "Ġsuccess": 2025,
      "ruct": 2026,
      "ĠGeor": 2027,
      "Ġpot": 2028,
      "Ġmass": 2029,
      "raw": 2030,
      "10": 2031,
      "ales": 2032,
      "gress": 2033,
      "ĠWill": 2034,
      "Ġeng": 2035,
      "sw": 2036,
      "Ġmom": 2037,
      "Ġgive": 2038,
      "aker": 2039,
      "obal": 2040,
      "ĠOctober": 2041,
      "Ġclose": 2042,
      "Ġgener": 2043,
      "AP": 2044,
      "Ġcreat": 2045,
      "ester": 2046,
      "ĠLast": 2047,
      "Ġsecurity": 2048,
      "ĠAng": 2049,
      "Ġfood": 2050,
      "Ġthird": 2051,
      "Ġwebs": 2052,
      "ergy": 2053,
      "Ġep": 2054,
      "ument": 2055,
      "sp": 2056,
      "Ġfront": 2057,
      "aily": 2058,
      "duction": 2059,
      "Ġshot": 2060,
      "ĠGen": 2061,
      "Ġservice": 2062,
      "Ġtaking": 2063,
      "Ġdoesn": 2064,
      "Ġdesc": 2065,
      "Ġfall": 2066,
      "Ġmilitary": 2067,
      "Ġ24": 2068,
      "30": 2069,
      "istration": 2070,
      "atures": 2071,
      "ler": 2072,
      "Ġtrad": 2073,
      "ung": 2074,
      "Ġoffice": 2075,
      "lease": 2076,
      "Ġbegin": 2077,
      "Ġversion": 2078,
      "Ġcour": 2079,
      "amer": 2080,
      "umb": 2081,
      "lim": 2082,
      "ators": 2083,
      "ĠAugust": 2084,
      "reme": 2085,
      "ring": 2086,
      "empt": 2087,
      "ĠStreet": 2088,
      "cover": 2089,
      "Ġcharac": 2090,
      "Ġimportant": 2091,
      "ĠImages": 2092,
      "NN": 2093,
      "ential": 2094,
      "Ġhours": 2095,
      "read": 2096,
      "11": 2097,
      "50": 2098,
      "Ġbillion": 2099,
      "de": 2100,
      "isc": 2101,
      "ĠPark": 2102,
      "Ġbased": 2103,
      "ĠGl": 2104,
      "ĠWhile": 2105,
      "Reuters": 2106,
      "ences": 2107,
      "ĠMic": 2108,
      "aper": 2109,
      "reed": 2110,
      "alk": 2111,
      "Ġenough": 2112,
      "FL": 2113,
      "Ġca": 2114,
      "Ġmusic": 2115,
      "Ġbring": 2116,
      "ĠMinister": 2117,
      "Ġrights": 2118,
      "âĢ¦": 2119,
      "Ġthreat": 2120,
      "ĠSenate": 2121,
      "stand": 2122,
      "hel": 2123,
      "Ġclub": 2124,
      "Ġstri": 2125,
      "ĠDo": 2126,
      "Ġlarg": 2127,
      "ĠCong": 2128,
      "ĠTexas": 2129,
      "Ġinvol": 2130,
      "Ġcele": 2131,
      "time": 2132,
      "vil": 2133,
      "ĠDay": 2134,
      "Ġsite": 2135,
      "omin": 2136,
      "ĠCanada": 2137,
      "ately": 2138,
      "Ġmult": 2139,
      "Ġplans": 2140,
      "ĠAccording": 2141,
      "opyright": 2142,
      "....": 2143,
      "ault": 2144,
      "Ġ#": 2145,
      "Ġrunning": 2146,
      "ounc": 2147,
      "Ġaut": 2148,
      "iron": 2149,
      "ocked": 2150,
      "ĠApple": 2151,
      "itch": 2152,
      "Ġcoach": 2153,
      "ĠMark": 2154,
      "Ġ21": 2155,
      "Ġnearly": 2156,
      "Ġlight": 2157,
      "ĠDecember": 2158,
      "Ġprob": 2159,
      "alt": 2160,
      "Ġtrying": 2161,
      "St": 2162,
      "Ġclear": 2163,
      "Ġgirl": 2164,
      "ĠAg": 2165,
      "cer": 2166,
      "ĠPlay": 2167,
      "ĠEl": 2168,
      "val": 2169,
      "Ġside": 2170,
      "ĠSub": 2171,
      "idence": 2172,
      "ĠPhil": 2173,
      "ps": 2174,
      "ondon": 2175,
      "reg": 2176,
      "Ġisn": 2177,
      "Ġhom": 2178,
      "Ġoutside": 2179,
      "Ġsuggest": 2180,
      "ĠMe": 2181,
      "Ġsummer": 2182,
      "etwork": 2183,
      "Ġphot": 2184,
      "Ġaddress": 2185,
      "Ġdied": 2186,
      "ĠPe": 2187,
      "__": 2188,
      "Ġfail": 2189,
      "cast": 2190,
      "lev": 2191,
      "ĠSm": 2192,
      "ĠUpd": 2193,
      "Ġemploy": 2194,
      "bor": 2195,
      "Ġissue": 2196,
      "Ġhouse": 2197,
      "vert": 2198,
      "Ġdrug": 2199,
      "Ġval": 2200,
      "iec": 2201,
      "cy": 2202,
      "Ġste": 2203,
      "Ġmust": 2204,
      "Ġstudents": 2205,
      "Ġboo": 2206,
      "Ġsurpr": 2207,
      "ministration": 2208,
      "ĠIndia": 2209,
      "itten": 2210,
      "iety": 2211,
      "Ġarrested": 2212,
      "Ġ2011": 2213,
      "Ġactually": 2214,
      "ĠQu": 2215,
      "ĠLondon": 2216,
      "ĠBritish": 2217,
      "ĠUK": 2218,
      "Ġwa": 2219,
      "ĠFrom": 2220,
      "Ġblack": 2221,
      "resent": 2222,
      "Ġshare": 2223,
      "Ġbuilding": 2224,
      "aur": 2225,
      "Ġarea": 2226,
      "Ġbreak": 2227,
      "Ġbit": 2228,
      "Ġcoup": 2229,
      "apt": 2230,
      "Ġdecision": 2231,
      "Ġcustom": 2232,
      "Ġintro": 2233,
      "ruary": 2234,
      "ĠPat": 2235,
      "asing": 2236,
      "pro": 2237,
      "Ġdoc": 2238,
      "Ġwhether": 2239,
      "Ġsn": 2240,
      "Ġopt": 2241,
      "Ġboy": 2242,
      "Ġheld": 2243,
      "oke": 2244,
      "TON": 2245,
      "ky": 2246,
      "oud": 2247,
      "omb": 2248,
      "lish": 2249,
      "ĠCongress": 2250,
      "Ġfootball": 2251,
      "Ġap": 2252,
      "Ġbad": 2253,
      "Ġnation": 2254,
      "wards": 2255,
      "Ġ,": 2256,
      "urg": 2257,
      "Ġcond": 2258,
      "ĠRec": 2259,
      "ĠMedia": 2260,
      "ĠAct": 2261,
      "ĠKe": 2262,
      "ĠKore": 2263,
      "Ġchall": 2264,
      "ograph": 2265,
      "ĠFirst": 2266,
      "ulation": 2267,
      "ounds": 2268,
      "ective": 2269,
      "Ġdecided": 2270,
      "Ġpract": 2271,
      "Ġappe": 2272,
      "ances": 2273,
      "of": 2274,
      "EL": 2275,
      "Ġpoll": 2276,
      "IT": 2277,
      "Ġ100": 2278,
      "Ġmess": 2279,
      "itted": 2280,
      "ĠSome": 2281,
      "Ġalleged": 2282,
      "Ġgiven": 2283,
      "Ġearlier": 2284,
      "Ġidea": 2285,
      "Ġident": 2286,
      "ĠMichael": 2287,
      "ĠFebruary": 2288,
      "Ġblog": 2289,
      "Ġmid": 2290,
      "ĠIslam": 2291,
      "ĠSand": 2292,
      "ĠPal": 2293,
      "Ġcelebr": 2294,
      "Ġren": 2295,
      "Ġlikely": 2296,
      "uel": 2297,
      "ĠStar": 2298,
      "Ġpret": 2299,
      "lex": 2300,
      "irc": 2301,
      "Ġresearch": 2302,
      "Ġanal": 2303,
      "Ġplayer": 2304,
      "Ġkind": 2305,
      "Ġbar": 2306,
      "Ġindustry": 2307,
      "Ġvote": 2308,
      "Ġer": 2309,
      "ida": 2310,
      "Ġexpected": 2311,
      "ittee": 2312,
      "aut": 2313,
      "ĠJames": 2314,
      "Ġ22": 2315,
      "Ġwind": 2316,
      "arm": 2317,
      "Ġcontrol": 2318,
      "Ġdoing": 2319,
      "ening": 2320,
      "Ġtown": 2321,
      "ults": 2322,
      "Ġpresent": 2323,
      "ĠDemocratic": 2324,
      "Ġspace": 2325,
      "itting": 2326,
      "based": 2327,
      "Ġsaying": 2328,
      "ids": 2329,
      "Ġable": 2330,
      "Ġconv": 2331,
      "Ġseems": 2332,
      "Ġprofess": 2333,
      "Ġtra": 2334,
      "Ġwanted": 2335,
      "Ġwithin": 2336,
      "ĠEuropean": 2337,
      "Ġtalk": 2338,
      "ote": 2339,
      "Ġbegan": 2340,
      "irt": 2341,
      "ĠPer": 2342,
      "ĠPet": 2343,
      "Ġterror": 2344,
      "atic": 2345,
      "Ġfoc": 2346,
      "itive": 2347,
      "ply": 2348,
      "Ġmag": 2349,
      "olution": 2350,
      "Ġimm": 2351,
      "ĠToday": 2352,
      "Ġmean": 2353,
      "ĠRussian": 2354,
      "ask": 2355,
      "ĠCor": 2356,
      "oice": 2357,
      "itcoin": 2358,
      "Ġleader": 2359,
      "Ã©": 2360,
      "ĠTor": 2361,
      "istan": 2362,
      "ĠBill": 2363,
      "ese": 2364,
      "Ġothers": 2365,
      "ĠChar": 2366,
      "Ġfig": 2367,
      "iant": 2368,
      "Ġaccess": 2369,
      "Ġrad": 2370,
      "Ġpick": 2371,
      "Ġimpro": 2372,
      "Ġnon": 2373,
      "sel": 2374,
      "Ġleaders": 2375,
      "iddle": 2376,
      "Ġannounce": 2377,
      "Ġpack": 2378,
      "Ġanim": 2379,
      "Ġbody": 2380,
      "Ġcompan": 2381,
      "esterday": 2382,
      "Ġlaunch": 2383,
      "ĠBlack": 2384,
      "Ġwebsite": 2385,
      "load": 2386,
      "Ġcompet": 2387,
      "Ġsingle": 2388,
      "ico": 2389,
      "Ġcertain": 2390,
      "erson": 2391,
      "ĠAmericans": 2392,
      "Ġpolicy": 2393,
      "US": 2394,
      "Ġmakes": 2395,
      "utes": 2396,
      "Ġsuper": 2397,
      "ĠShow": 2398,
      "ilt": 2399,
      "Ġtoget": 2400,
      "Ġaction": 2401,
      "Ġtogether": 2402,
      "ule": 2403,
      "Ġlegal": 2404,
      "ĠTwo": 2405,
      "ino": 2406,
      "Ġfeature": 2407,
      "Ġdevelopment": 2408,
      "Ġstep": 2409,
      "Ġsure": 2410,
      "Ġscient": 2411,
      "Ġpossible": 2412,
      "ĠTH": 2413,
      "ops": 2414,
      "ĠRussia": 2415,
      "Ġsen": 2416,
      "Ġrac": 2417,
      "arent": 2418,
      "----": 2419,
      "Ġbelieve": 2420,
      "uter": 2421,
      "Ġsoon": 2422,
      "earc": 2423,
      "Ġred": 2424,
      "ago": 2425,
      "Ġdue": 2426,
      "ĠIndian": 2427,
      "Ġvia": 2428,
      "Ġtrack": 2429,
      "Ġcourse": 2430,
      "'m": 2431,
      "riz": 2432,
      "Ġlow": 2433,
      "Ġeveryone": 2434,
      "play": 2435,
      "Ġkey": 2436,
      "Ġreceived": 2437,
      "Ġprotest": 2438,
      "Ġcouple": 2439,
      "Ġ23": 2440,
      "ams": 2441,
      "Ġz": 2442,
      "ried": 2443,
      "Ġimage": 2444,
      "Ġproblem": 2445,
      "ivil": 2446,
      "aged": 2447,
      "viron": 2448,
      "ampions": 2449,
      "Ġprobably": 2450,
      "ouncil": 2451,
      "OP": 2452,
      "Ġarg": 2453,
      "itions": 2454,
      "Ġquarter": 2455,
      "ĠCenter": 2456,
      "Ġcomplete": 2457,
      "Ġinternational": 2458,
      "Ġtechnology": 2459,
      "ĠParty": 2460,
      "ead": 2461,
      "Ġreview": 2462,
      "istrict": 2463,
      "Ġsaf": 2464,
      "mon": 2465,
      "Ġdone": 2466,
      "Ġgeneral": 2467,
      "abor": 2468,
      "ĠCont": 2469,
      "isl": 2470,
      "ĠHigh": 2471,
      "Ġfavor": 2472,
      "ival": 2473,
      "IC": 2474,
      "Ġusers": 2475,
      "Ġey": 2476,
      "aced": 2477,
      "Ġequ": 2478,
      "Ġquick": 2479,
      "Ġprep": 2480,
      "Ġsold": 2481,
      "Ġsecret": 2482,
      "Ġrevealed": 2483,
      "Ġdescrib": 2484,
      "ped": 2485,
      "ift": 2486,
      "ĠMo": 2487,
      "Ġ50": 2488,
      "Ġanti": 2489,
      "ĠEmail": 2490,
      "Ġlaws": 2491,
      "Ġfinally": 2492,
      "Ġrole": 2493,
      "yl": 2494,
      "order": 2495,
      "Ġmur": 2496,
      "ĠAngel": 2497,
      "Ġansw": 2498,
      "Ġemer": 2499,
      "cript": 2500,
      "Ġlim": 2501,
      "over": 2502,
      "IL": 2503,
      "inking": 2504,
      "angu": 2505,
      "Ġfir": 2506,
      "fic": 2507,
      "ĠMore": 2508,
      "Ġroad": 2509,
      "ecutive": 2510,
      "Ġmeeting": 2511,
      "coming": 2512,
      "Ġexperience": 2513,
      "Ġconfirmed": 2514,
      "Ġplaying": 2515,
      "osing": 2516,
      "ili": 2517,
      "rie": 2518,
      "Ġquite": 2519,
      "Ġfield": 2520,
      "Ġheard": 2521,
      "Ġstrong": 2522,
      "ĠNFL": 2523,
      "Ġattempt": 2524,
      "ners": 2525,
      "Ġdevice": 2526,
      "Ġhig": 2527,
      "Ġfriends": 2528,
      "Ġtarg": 2529,
      "Ġconst": 2530,
      "elling": 2531,
      "Ġcomb": 2532,
      "ĠFlor": 2533,
      "ancial": 2534,
      "udge": 2535,
      "ĠAir": 2536,
      "Ġ198": 2537,
      "Ġentire": 2538,
      "Ġpretty": 2539,
      "box": 2540,
      "Ġcandidate": 2541,
      "Ġcompanies": 2542,
      "ĠJe": 2543,
      "Ġcult": 2544,
      "Ġglobal": 2545,
      "uk": 2546,
      "obile": 2547,
      "Ġpict": 2548,
      "Ġbelow": 2549,
      "lement": 2550,
      "Ġroom": 2551,
      "Ġmind": 2552,
      "akers": 2553,
      "Ġthous": 2554,
      "Ġnamed": 2555,
      "Ġplayed": 2556,
      "ĠCr": 2557,
      "come": 2558,
      "Ġtot": 2559,
      "raz": 2560,
      "ĠOver": 2561,
      "Ġinside": 2562,
      "Ġ26": 2563,
      "Ġlost": 2564,
      "yle": 2565,
      "down": 2566,
      "Ġ27": 2567,
      "ĠInt": 2568,
      "ĠDis": 2569,
      "Ġpoin": 2570,
      "ĠInternational": 2571,
      "elt": 2572,
      "Ġcommon": 2573,
      "vironment": 2574,
      "Ġmeans": 2575,
      "Ġdebate": 2576,
      "fl": 2577,
      "ym": 2578,
      "ches": 2579,
      "Ġdou": 2580,
      "aving": 2581,
      "ston": 2582,
      "ĠKing": 2583,
      "Ġhot": 2584,
      "Ġaccount": 2585,
      "Ġpersonal": 2586,
      "Ġlargest": 2587,
      "ĠFlorida": 2588,
      "ĠSer": 2589,
      "den": 2590,
      "ament": 2591,
      "bed": 2592,
      "iding": 2593,
      "Ġmovie": 2594,
      "itional": 2595,
      "Ġtreat": 2596,
      "ĠWind": 2597,
      "ĠHol": 2598,
      "Ġfeatures": 2599,
      "ĠShare": 2600,
      "aks": 2601,
      "ĠDan": 2602,
      "Ġpiec": 2603,
      "Ġdig": 2604,
      "ĠFranc": 2605,
      "**": 2606,
      "Ġage": 2607,
      "ville": 2608,
      "ED": 2609,
      "Ġphone": 2610,
      "Ġwhite": 2611,
      "ently": 2612,
      "ĠRober": 2613,
      "Ġconference": 2614,
      "ĠEast": 2615,
      "Ġrace": 2616,
      "Ġaw": 2617,
      "Ġsoft": 2618,
      "We": 2619,
      "Ġcurrently": 2620,
      "ĠTur": 2621,
      "uit": 2622,
      "Ġresident": 2623,
      "ging": 2624,
      "ability": 2625,
      "rup": 2626,
      "ination": 2627,
      "Ġrev": 2628,
      "ural": 2629,
      "Ġpage": 2630,
      "Ġlonger": 2631,
      "Ġsuff": 2632,
      "Ġconn": 2633,
      "etro": 2634,
      "Ġcopyright": 2635,
      "ique": 2636,
      "15": 2637,
      "Ġjournal": 2638,
      "Ġlo": 2639,
      "ares": 2640,
      "ux": 2641,
      "Ġproper": 2642,
      "ises": 2643,
      "Ġ2010": 2644,
      "like": 2645,
      "hood": 2646,
      "ĠAfric": 2647,
      "ĠAustralia": 2648,
      "ĠRom": 2649,
      "Ġpain": 2650,
      "ither": 2651,
      "Ġmember": 2652,
      "Ġcontract": 2653,
      "ĠSch": 2654,
      "unic": 2655,
      "Ġmot": 2656,
      "ĠTrans": 2657,
      "Ġled": 2658,
      "Ġprim": 2659,
      "ospital": 2660,
      "mit": 2661,
      "estern": 2662,
      "Ġsaw": 2663,
      "Ġphoto": 2664,
      "Ġquestions": 2665,
      "undred": 2666,
      "Ġresult": 2667,
      "avy": 2668,
      "ĠComp": 2669,
      "Ġenergy": 2670,
      "Ġforward": 2671,
      "Ġhimself": 2672,
      "Ġsomeone": 2673,
      "oved": 2674,
      "Ġteams": 2675,
      "Ġconcern": 2676,
      "ping": 2677,
      "Ġdirector": 2678,
      "EW": 2679,
      "Ġcreated": 2680,
      "Ġcoll": 2681,
      "Ġmother": 2682,
      "Ġ28": 2683,
      "Ġaccused": 2684,
      "rote": 2685,
      "ĠTimes": 2686,
      "eth": 2687,
      "Ġlooks": 2688,
      "19": 2689,
      "Ġstaff": 2690,
      "wood": 2691,
      "Ġliving": 2692,
      "ĠVal": 2693,
      "ĠBu": 2694,
      "not": 2695,
      "ĠTom": 2696,
      "ĠCons": 2697,
      "porters": 2698,
      "noon": 2699,
      "ĠEvery": 2700,
      "Ġdiscover": 2701,
      "Ġstatement": 2702,
      "ĠiP": 2703,
      "ĠSoc": 2704,
      "ett": 2705,
      "ined": 2706,
      "Ġrepl": 2707,
      "Ġadministration": 2708,
      "ĠRich": 2709,
      "aces": 2710,
      "12": 2711,
      "oming": 2712,
      "ached": 2713,
      "ĠMicro": 2714,
      "ĠThank": 2715,
      "Ġstudent": 2716,
      "ĠChic": 2717,
      "Ġofficer": 2718,
      "ĠHis": 2719,
      "Ġri": 2720,
      "ĠSchool": 2721,
      "Ġcountries": 2722,
      "Ġissues": 2723,
      "me": 2724,
      "Ġoil": 2725,
      "unt": 2726,
      "anger": 2727,
      "'ll": 2728,
      "Ġshooting": 2729,
      "Th": 2730,
      "joy": 2731,
      "Photo": 2732,
      "ww": 2733,
      "Ġbroad": 2734,
      "icles": 2735,
      "ĠHer": 2736,
      "redit": 2737,
      "Ġafternoon": 2738,
      "aine": 2739,
      "inn": 2740,
      "vey": 2741,
      "Ġseven": 2742,
      "Ġcareer": 2743,
      "//": 2744,
      "ĠScott": 2745,
      "Ġveh": 2746,
      "BA": 2747,
      "Ġmurder": 2748,
      "Ġsource": 2749,
      "ĠBay": 2750,
      "oph": 2751,
      "Ġmoment": 2752,
      "Ġwrote": 2753,
      "Ġround": 2754,
      "inese": 2755,
      "rench": 2756,
      "Ġtitle": 2757,
      "roid": 2758,
      "Ġnotice": 2759,
      "anks": 2760,
      "Ġdest": 2761,
      "Ġsearch": 2762,
      "pped": 2763,
      "Ġepis": 2764,
      "ĠChicago": 2765,
      "Ġneigh": 2766,
      "Ġself": 2767,
      "using": 2768,
      "Ġspent": 2769,
      "Ġblock": 2770,
      "Ġlaunched": 2771,
      "Ġtravel": 2772,
      "Ġwide": 2773,
      "Ġsqu": 2774,
      "aph": 2775,
      "soft": 2776,
      "Ġcreate": 2777,
      "://": 2778,
      "AC": 2779,
      "epend": 2780,
      "roll": 2781,
      "selves": 2782,
      "Ġbene": 2783,
      "Ġris": 2784,
      "Ġexpect": 2785,
      "raq": 2786,
      "ribut": 2787,
      "Ġvictim": 2788,
      "Ġstore": 2789,
      "atives": 2790,
      "Ġfell": 2791,
      "ears": 2792,
      "ĠMcC": 2793,
      "Ġposted": 2794,
      "Ġvisit": 2795,
      "Ġwants": 2796,
      "Ġ40": 2797,
      "Ġarriv": 2798,
      "Ġport": 2799,
      "ĠMor": 2800,
      "urb": 2801,
      "Ġchief": 2802,
      "ellig": 2803,
      "ĠOf": 2804,
      "Ġunderstand": 2805,
      "ĠGreen": 2806,
      "ips": 2807,
      "Ġcontrovers": 2808,
      "Ġeasy": 2809,
      "ĠGame": 2810,
      "Ġdam": 2811,
      "Ġrob": 2812,
      "AM": 2813,
      "ĠMex": 2814,
      "Ġcle": 2815,
      "Ġenc": 2816,
      "Ġwasn": 2817,
      "esc": 2818,
      "ilar": 2819,
      "ĠIraq": 2820,
      "ĠOh": 2821,
      "Ġbecame": 2822,
      "Ġeverything": 2823,
      "Ġturned": 2824,
      "Ġchanges": 2825,
      "ify": 2826,
      "amb": 2827,
      "Ġcapital": 2828,
      "Ġhope": 2829,
      "ford": 2830,
      "uation": 2831,
      "Ġ29": 2832,
      "Ġgoal": 2833,
      "Ġboard": 2834,
      "EO": 2835,
      "ĠCup": 2836,
      "Ġsigned": 2837,
      "Ġhappened": 2838,
      "yan": 2839,
      "Ġball": 2840,
      "Ġdeep": 2841,
      "ĠGeorge": 2842,
      "kn": 2843,
      "clus": 2844,
      "anch": 2845,
      "Ġahead": 2846,
      "ĠBen": 2847,
      "Ġbuy": 2848,
      "duce": 2849,
      "iled": 2850,
      "lick": 2851,
      "Ġpred": 2852,
      "It": 2853,
      "ude": 2854,
      "ĠChinese": 2855,
      "Ġfur": 2856,
      "ores": 2857,
      "ĠDon": 2858,
      "earchers": 2859,
      "ĠSee": 2860,
      "str": 2861,
      "ota": 2862,
      "Ġmatter": 2863,
      "Ġlegisl": 2864,
      "ole": 2865,
      "Ġparticular": 2866,
      "Ġpoints": 2867,
      "ĠFrancis": 2868,
      "ĠChe": 2869,
      "Ġnothing": 2870,
      "jects": 2871,
      "ĠEngland": 2872,
      "atform": 2873,
      "ĠThese": 2874,
      "Ġapplic": 2875,
      "Ġdog": 2876,
      "Ġbase": 2877,
      "Ġinit": 2878,
      "ĠJack": 2879,
      "BS": 2880,
      "Ġaud": 2881,
      "itiz": 2882,
      "Ġwal": 2883,
      "Ġple": 2884,
      "ĠMart": 2885,
      "ĠWell": 2886,
      "ĠMike": 2887,
      "Ġprice": 2888,
      "ĠSuper": 2889,
      "Ġtem": 2890,
      "oor": 2891,
      "Ġtwe": 2892,
      "ivid": 2893,
      "Ġ197": 2894,
      "Ġnetwork": 2895,
      "ope": 2896,
      "Ġcontent": 2897,
      "ĠIran": 2898,
      "Ġways": 2899,
      "Ġservices": 2900,
      "Ġwritten": 2901,
      "ray": 2902,
      "Ġyesterday": 2903,
      "Ġmeas": 2904,
      "board": 2905,
      "ites": 2906,
      "Ġprison": 2907,
      "iter": 2908,
      "Ġdaily": 2909,
      "Ġson": 2910,
      "bum": 2911,
      "urning": 2912,
      "Ġprivacy": 2913,
      "Ġhuge": 2914,
      "ĠAlex": 2915,
      "Ġinvestigation": 2916,
      "ĠIS": 2917,
      "Ġfem": 2918,
      "fort": 2919,
      "Ġcy": 2920,
      "Ġfast": 2921,
      "ĠInternet": 2922,
      "ĠRepublicans": 2923,
      "ĠJer": 2924,
      "Ġoriginal": 2925,
      "Ġtakes": 2926,
      "Ġconsum": 2927,
      "ASH": 2928,
      "ĠBarack": 2929,
      "Ġlangu": 2930,
      "Ġsat": 2931,
      "Ġanything": 2932,
      "idge": 2933,
      "Ġthousands": 2934,
      "Ġhon": 2935,
      "Ġdeliver": 2936,
      "ĠAssoci": 2937,
      "ĠMicrosoft": 2938,
      "verage": 2939,
      "Ġdro": 2940,
      "ĠMad": 2941,
      "Ġhighl": 2942,
      "fully": 2943,
      "room": 2944,
      "ĠLos": 2945,
      "Ġtrue": 2946,
      "ĠMuslim": 2947,
      "Ġstates": 2948,
      "aught": 2949,
      "onto": 2950,
      "iers": 2951,
      "Ġfan": 2952,
      "INGTON": 2953,
      "vent": 2954,
      "ĠBern": 2955,
      "Ġofficers": 2956,
      "Ġfinancial": 2957,
      "Ġdesp": 2958,
      "ET": 2959,
      "ends": 2960,
      "Ġgrowing": 2961,
      "Ġoffer": 2962,
      "Ġwords": 2963,
      "Ġleading": 2964,
      "Ġpull": 2965,
      "Ġeight": 2966,
      "aming": 2967,
      "Ġwrong": 2968,
      "ĠPress": 2969,
      "ona": 2970,
      "Ġhor": 2971,
      "16": 2972,
      "etty": 2973,
      "ĠPrime": 2974,
      "Ġclaims": 2975,
      "OT": 2976,
      "par": 2977,
      "ĠDel": 2978,
      "uana": 2979,
      "Ġstarting": 2980,
      "ĠFrench": 2981,
      "Ġsmart": 2982,
      "ession": 2983,
      "inks": 2984,
      "iod": 2985,
      "Ġcollege": 2986,
      "ĠChris": 2987,
      "ĠBre": 2988,
      "ĠStud": 2989,
      "Ġtelev": 2990,
      "Ġcontinue": 2991,
      "ĠHowever": 2992,
      "unk": 2993,
      "ĠWilliam": 2994,
      "Ġheart": 2995,
      "Ġenjoy": 2996,
      "Ġden": 2997,
      "ĠGeneral": 2998,
      "udget": 2999,
      "icks": 3000,
      "ĠAndroid": 3001,
      "Ġcoun": 3002,
      "Ġrefer": 3003,
      "Ġsimple": 3004,
      "uses": 3005,
      "ĠToronto": 3006,
      "Ġprivate": 3007,
      "ĠMatt": 3008,
      "ijuana": 3009,
      "ĠPort": 3010,
      "irth": 3011,
      "ĠUnion": 3012,
      "Ġdetails": 3013,
      "na": 3014,
      "Ġdiv": 3015,
      "Ġrepresent": 3016,
      "osh": 3017,
      "Ġincident": 3018,
      "Ġweb": 3019,
      "ervative": 3020,
      "Ġmatch": 3021,
      "Ġexist": 3022,
      "Ġill": 3023,
      "Ġcharacter": 3024,
      "bit": 3025,
      "ĠWindows": 3026,
      "Ġworth": 3027,
      "fect": 3028,
      "FC": 3029,
      "eg": 3030,
      "ugg": 3031,
      "ĠCanadian": 3032,
      "uclear": 3033,
      "ĠSyria": 3034,
      "Ġupdate": 3035,
      "ĠFox": 3036,
      "Ġmanager": 3037,
      "Ġcirc": 3038,
      "ogn": 3039,
      "che": 3040,
      "Ġneg": 3041,
      "ny": 3042,
      "anta": 3043,
      "Ġclimate": 3044,
      "Ġnewslet": 3045,
      "Ġhands": 3046,
      "Ġtrade": 3047,
      "Ġeconomic": 3048,
      "vin": 3049,
      "Ġannual": 3050,
      "ĠSecret": 3051,
      "ĠAP": 3052,
      "ĠMil": 3053,
      "duced": 3054,
      "Ġlog": 3055,
      "istic": 3056,
      "ĠArt": 3057,
      "Ġrelig": 3058,
      "Ġcharged": 3059,
      "Ġengine": 3060,
      "ires": 3061,
      "Ġinfl": 3062,
      "Ġworks": 3063,
      "onse": 3064,
      "iction": 3065,
      "Ġleave": 3066,
      "Ġbox": 3067,
      "Ġtour": 3068,
      "Ġrather": 3069,
      "Ġspeech": 3070,
      "Ġpassed": 3071,
      "ĠLou": 3072,
      "emy": 3073,
      "ĠSubscribe": 3074,
      "erm": 3075,
      "In": 3076,
      "ĠBel": 3077,
      "unch": 3078,
      "Ġinsp": 3079,
      "arents": 3080,
      "ĠAngeles": 3081,
      "ĠGre": 3082,
      "OU": 3083,
      "Ġbuilt": 3084,
      "Ġgroups": 3085,
      "inally": 3086,
      "Ġcivil": 3087,
      "ĠRob": 3088,
      "wh": 3089,
      "alled": 3090,
      "Ġsignific": 3091,
      "Ġcritic": 3092,
      "ibr": 3093,
      "Ġrelations": 3094,
      "ateg": 3095,
      "ecially": 3096,
      "Ġcharges": 3097,
      "ien": 3098,
      "Ġagency": 3099,
      "Ġhear": 3100,
      "ĠFollowing": 3101,
      "Ġpotential": 3102,
      "==": 3103,
      "Ġchance": 3104,
      "Ġproduct": 3105,
      "Ġsexual": 3106,
      "Ġloss": 3107,
      "ĠNov": 3108,
      "Ġitself": 3109,
      "Ġupcoming": 3110,
      "rown": 3111,
      "ĠStep": 3112,
      "Ġmedical": 3113,
      "ĠSanders": 3114,
      "Ġalbum": 3115,
      "ĠInc": 3116,
      "ĠServ": 3117,
      "Ġexact": 3118,
      "Ġwonder": 3119,
      "Ġperformance": 3120,
      "Ġattention": 3121,
      "ASHINGTON": 3122,
      "Ġspok": 3123,
      "Ġminutes": 3124,
      "Ġbrought": 3125,
      "Ġevidence": 3126,
      "aughter": 3127,
      "oring": 3128,
      "Ġwhole": 3129,
      "ĠÂ£": 3130,
      "ĠES": 3131,
      "Ġsched": 3132,
      "Ġphys": 3133,
      "RE": 3134,
      "uments": 3135,
      "Ġmis": 3136,
      "Ġwhose": 3137,
      "rel": 3138,
      "Ġhundred": 3139,
      "ĠOp": 3140,
      "ruction": 3141,
      "ees": 3142,
      "Ġfather": 3143,
      "17": 3144,
      "Ġground": 3145,
      "Ġ196": 3146,
      "iple": 3147,
      "ara": 3148,
      "ube": 3149,
      "Ġstay": 3150,
      "Ġanyone": 3151,
      "Ġlives": 3152,
      "Ġmeet": 3153,
      "Ġworkers": 3154,
      "fact": 3155,
      "ample": 3156,
      "oid": 3157,
      "Ġesp": 3158,
      "Ġtool": 3159,
      "ado": 3160,
      "venue": 3161,
      "Ġeduc": 3162,
      "BI": 3163,
      "Ġtou": 3164,
      "Ġgave": 3165,
      "Ġtotal": 3166,
      "aging": 3167,
      "Ġforeign": 3168,
      "Ġreb": 3169,
      "ĠWASHINGTON": 3170,
      "Ġabove": 3171,
      "ris": 3172,
      "berg": 3173,
      "ĠLet": 3174,
      "Ġevents": 3175,
      "Ġresults": 3176,
      "Ġhtt": 3177,
      "Ġcollect": 3178,
      "icted": 3179,
      "Ġassault": 3180,
      "ĠMag": 3181,
      "Ġready": 3182,
      "Ġaim": 3183,
      "ĠGold": 3184,
      "field": 3185,
      "Ġtyp": 3186,
      "elligence": 3187,
      "Ġhy": 3188,
      "cle": 3189,
      "Ġwife": 3190,
      "though": 3191,
      "Ġ2008": 3192,
      "Ġrap": 3193,
      "ĠII": 3194,
      "resh": 3195,
      "ressed": 3196,
      "Ġmill": 3197,
      "ĠAM": 3198,
      "Ġeconomy": 3199,
      "ĠGermany": 3200,
      "Ġsoftware": 3201,
      "LE": 3202,
      "Ġbattle": 3203,
      "Ġbo": 3204,
      "Ġimmigr": 3205,
      "Ġcrow": 3206,
      "Ġneeds": 3207,
      "Getty": 3208,
      "ishing": 3209,
      "atural": 3210,
      "zz": 3211,
      "ĠPlease": 3212,
      "Ġrock": 3213,
      "DA": 3214,
      "Ġcode": 3215,
      "Ġprovide": 3216,
      "ĠHall": 3217,
      "Ġsong": 3218,
      "ĠNEW": 3219,
      "Ġadm": 3220,
      "Ġplatform": 3221,
      "Ġregular": 3222,
      "Ġattacks": 3223,
      "Ġdespite": 3224,
      "omen": 3225,
      "Ġgas": 3226,
      "Ġroll": 3227,
      "ĠFormer": 3228,
      "ĠInter": 3229,
      "Ġ2018": 3230,
      "Ġbank": 3231,
      "Ġdoll": 3232,
      "IA": 3233,
      "Ġresponse": 3234,
      "ĠKorea": 3235,
      "Ġ2009": 3236,
      "Ġshop": 3237,
      "ĠAbout": 3238,
      "izing": 3239,
      "ĠBitcoin": 3240,
      "oul": 3241,
      "Ġtelevision": 3242,
      "ĠCouncil": 3243,
      "ampionship": 3244,
      "Ġcamer": 3245,
      "FP": 3246,
      "ĠStory": 3247,
      "\".": 3248,
      "ients": 3249,
      "ividual": 3250,
      "orthern": 3251,
      "ĠEarth": 3252,
      "ĠPM": 3253,
      "Ġcomputer": 3254,
      "ĠYour": 3255,
      "Ġperiod": 3256,
      "14": 3257,
      "ĠNet": 3258,
      "Ġinternet": 3259,
      "ĠSim": 3260,
      "âĢĿ.": 3261,
      "ĠIslamic": 3262,
      "rupt": 3263,
      "tr": 3264,
      "ĠItal": 3265,
      "OM": 3266,
      "ĠDes": 3267,
      "ĠThom": 3268,
      "Ġenvironment": 3269,
      "medi": 3270,
      "Ġdate": 3271,
      "Ġil": 3272,
      "ĠMod": 3273,
      "Ġcell": 3274,
      "âĢĵ": 3275,
      "elcome": 3276,
      "riving": 3277,
      "ĠAtt": 3278,
      "ĠReg": 3279,
      "atory": 3280,
      "ĠBer": 3281,
      "Ġdecl": 3282,
      "ground": 3283,
      "Ġsignificant": 3284,
      "Ġhack": 3285,
      "ĠHam": 3286,
      "illed": 3287,
      "Ġminister": 3288,
      "ĠMac": 3289,
      "ĠAtl": 3290,
      "Ġlink": 3291,
      "Ġforce": 3292,
      "Ġposition": 3293,
      "round": 3294,
      "ĠBig": 3295,
      "Ġrequest": 3296,
      "Ġsound": 3297,
      "ĠRobert": 3298,
      "Ġcompl": 3299,
      "Ġscience": 3300,
      "ĠRead": 3301,
      "Ġdecades": 3302,
      "ager": 3303,
      "rian": 3304,
      "Ġforces": 3305,
      "Ġprevious": 3306,
      "ĠMost": 3307,
      "ĠCarol": 3308,
      "orney": 3309,
      "Ġdesigned": 3310,
      "ĠDef": 3311,
      "Ġband": 3312,
      "Ġreading": 3313,
      "ficult": 3314,
      "isis": 3315,
      "Ġuns": 3316,
      "Ġhol": 3317,
      "ĠEnglish": 3318,
      "ĠTer": 3319,
      "ibility": 3320,
      "tar": 3321,
      "osition": 3322,
      "ĠVir": 3323,
      "Ġteen": 3324,
      "Ġleague": 3325,
      "enge": 3326,
      "Ġtraining": 3327,
      "ĠCommission": 3328,
      "ĠTim": 3329,
      "Ġappears": 3330,
      "ĠTHE": 3331,
      "Ġmarijuana": 3332,
      "Ġcalling": 3333,
      "Ġopport": 3334,
      "sy": 3335,
      "ĠWhy": 3336,
      "Ġthemselves": 3337,
      "Ġcard": 3338,
      "aud": 3339,
      "ĠCap": 3340,
      "Ġsimilar": 3341,
      "ĠUpdated": 3342,
      "face": 3343,
      "Ġfavorite": 3344,
      "ĠCould": 3345,
      "anche": 3346,
      "Ġinteresting": 3347,
      "ĠWall": 3348,
      "ander": 3349,
      "Ġweap": 3350,
      "Ġindividual": 3351,
      "Ġpan": 3352,
      "Ġevening": 3353,
      "Ġdocument": 3354,
      "Ġpiece": 3355,
      "ews": 3356,
      "Ġmassive": 3357,
      "ĠGOP": 3358,
      "Ġdiscovered": 3359,
      "Ġcomments": 3360,
      "hi": 3361,
      "Ġadded": 3362,
      "aby": 3363,
      "Ġreality": 3364,
      "ety": 3365,
      "Ġvol": 3366,
      "ĠSince": 3367,
      "ĠKn": 3368,
      "Ġhistor": 3369,
      "mas": 3370,
      "ĠDemocrats": 3371,
      "PD": 3372,
      "hest": 3373,
      "Ġbenef": 3374,
      "Ġcenter": 3375,
      "Ġbooks": 3376,
      "ĠLaw": 3377,
      "iny": 3378,
      "Ġsubscrib": 3379,
      "13": 3380,
      "Ġtable": 3381,
      "Ġmodel": 3382,
      "Ġword": 3383,
      "Ġparents": 3384,
      "ĠInst": 3385,
      "Ġtalking": 3386,
      "Ġmodern": 3387,
      "Ġfirm": 3388,
      "Ġespecially": 3389,
      "aked": 3390,
      "Ġdifficult": 3391,
      "ĠFC": 3392,
      "ĠLeg": 3393,
      "ma": 3394,
      "Ġdraw": 3395,
      "Ġbeg": 3396,
      "Ġincrease": 3397,
      "asc": 3398,
      "ĠMal": 3399,
      "Ġrespons": 3400,
      "Ġdraft": 3401,
      "ĠCommittee": 3402,
      "oe": 3403,
      "Ġhospital": 3404,
      "Ġtried": 3405,
      "Ġproblems": 3406,
      "Ġprem": 3407,
      "Ġfurther": 3408,
      "town": 3409,
      "Ġcross": 3410,
      "Ġscreen": 3411,
      "ĠSupreme": 3412,
      "uing": 3413,
      "earing": 3414,
      "Ġaccept": 3415,
      "18": 3416,
      "ĠOffice": 3417,
      "vernor": 3418,
      "ĠJeff": 3419,
      "Ġappeared": 3420,
      "ĠLiber": 3421,
      "Ġbrand": 3422,
      "Ġmach": 3423,
      "ĠAmaz": 3424,
      "Ġcarry": 3425,
      "25": 3426,
      "CNN": 3427,
      "Ġclos": 3428,
      "ĠBrown": 3429,
      "Ġnewsletters": 3430,
      "Ġproducts": 3431,
      "force": 3432,
      "Ġeither": 3433,
      "Ġexecutive": 3434,
      "ĠFrance": 3435,
      "Ġtext": 3436,
      "Ġauthorities": 3437,
      "Ġilleg": 3438,
      "Ġnuclear": 3439,
      "ĠPre": 3440,
      "Ġepisode": 3441,
      "ĠBack": 3442,
      "Ġsources": 3443,
      "Ġrepe": 3444,
      "ĠSam": 3445,
      "ĠJav": 3446,
      "40": 3447,
      "band": 3448,
      "nd": 3449,
      "ĠJim": 3450,
      "outhern": 3451,
      "Ġtre": 3452,
      "Ġinclude": 3453,
      "Ġgoes": 3454,
      "ills": 3455,
      "nes": 3456,
      "ĠLouis": 3457,
      "ĠCEO": 3458,
      "ĠGod": 3459,
      "Ġregard": 3460,
      "Ġrespond": 3461,
      "Ġpur": 3462,
      "Ġcomment": 3463,
      "Ġspecific": 3464,
      "Ġreceive": 3465,
      "haps": 3466,
      "Ġarch": 3467,
      "Ġbeginning": 3468,
      "Ġran": 3469,
      "wide": 3470,
      "Ġwriting": 3471,
      "riff": 3472,
      "OL": 3473,
      "Ġcheck": 3474,
      "Ġviolence": 3475,
      "uty": 3476,
      "riage": 3477,
      "Ġscene": 3478,
      "Ġbirth": 3479,
      "ĠQue": 3480,
      "Ġdemand": 3481,
      "ĠMont": 3482,
      "Ġrestaur": 3483,
      "ĠSecurity": 3484,
      "aves": 3485,
      "Ġvictory": 3486,
      "Ġvarious": 3487,
      "ĠPeople": 3488,
      "Ġtarget": 3489,
      "Ġsle": 3490,
      "Ġcitiz": 3491,
      "omm": 3492,
      "ĠJon": 3493,
      "Ġscientists": 3494,
      "Ġmat": 3495,
      "Ġimprove": 3496,
      "Ġsenior": 3497,
      "umn": 3498,
      "Ġeffort": 3499,
      "Ġanswer": 3500,
      "Ġvoters": 3501,
      "Ġlearn": 3502,
      "Ġpromot": 3503,
      "ya": 3504,
      "Ġallegedly": 3505,
      "Ġlanguage": 3506,
      "Ġcrisis": 3507,
      "Ġdebut": 3508,
      "Ġjobs": 3509,
      "ĠFrancisco": 3510,
      "Ġcalls": 3511,
      "Ġdigital": 3512,
      "Ġcast": 3513,
      "Ġregion": 3514,
      "ha": 3515,
      "Ġbudget": 3516,
      "ĠGetty": 3517,
      "Ġsett": 3518,
      "ID": 3519,
      "ĠMany": 3520,
      ".)": 3521,
      "tain": 3522,
      "Ġbi": 3523,
      "aterial": 3524,
      "ĠSpe": 3525,
      "ĠMiss": 3526,
      "Ġgone": 3527,
      "Ġ31": 3528,
      "Ġapparent": 3529,
      "ibly": 3530,
      "adium": 3531,
      "Ġsales": 3532,
      "igan": 3533,
      "ĠJustice": 3534,
      "ume": 3535,
      "Ġdisp": 3536,
      "Ġpurch": 3537,
      "Ġpaper": 3538,
      "Ġforced": 3539,
      "ĠLa": 3540,
      "Ġpen": 3541,
      "Ġrate": 3542,
      "ĠWeek": 3543,
      "Ġstation": 3544,
      "Ġabs": 3545,
      "Ġgay": 3546,
      "ĠGreat": 3547,
      "Ġopened": 3548,
      "ension": 3549,
      "mp": 3550,
      "Ġfre": 3551,
      "ĠMot": 3552,
      "ĠUs": 3553,
      "Ġmiddle": 3554,
      "Ġshut": 3555,
      "ĠRyan": 3556,
      "ĠFederal": 3557,
      "ari": 3558,
      "Ġaverage": 3559,
      "icon": 3560,
      "Ġborn": 3561,
      "Ġhous": 3562,
      "Ġpractice": 3563,
      "cel": 3564,
      "inter": 3565,
      "ĠAustralian": 3566,
      "rypt": 3567,
      "Ġbeaut": 3568,
      "ĠPC": 3569,
      "Ġfair": 3570,
      "ĠMer": 3571,
      "Ġopening": 3572,
      "Ġ...": 3573,
      "eration": 3574,
      "ĠSl": 3575,
      "ĠFin": 3576,
      "ilities": 3577,
      "Ġperfect": 3578,
      "ĠUSA": 3579,
      "Ġinvolved": 3580,
      "Ġmobile": 3581,
      "ĠAre": 3582,
      "Ġproduction": 3583,
      "azine": 3584,
      "Ġinstead": 3585,
      "agon": 3586,
      "Ġconduct": 3587,
      "Ġnorth": 3588,
      "Ġgiant": 3589,
      "Ġagre": 3590,
      "lying": 3591,
      "ĠWil": 3592,
      "Ġspot": 3593,
      "ĠHealth": 3594,
      "ĠOhio": 3595,
      "Ġ@": 3596,
      "Ġstream": 3597,
      "rows": 3598,
      "Ġsubscribe": 3599,
      "Ġincreasing": 3600,
      "Ġnumbers": 3601,
      "mar": 3602,
      "ĠGov": 3603,
      "rief": 3604,
      "Ġcat": 3605,
      "ĠOur": 3606,
      "aches": 3607,
      "Ġcars": 3608,
      "inary": 3609,
      "ĠFire": 3610,
      "Ġsimply": 3611,
      "ki": 3612,
      "Ġsil": 3613,
      "iced": 3614,
      "ĠIsland": 3615,
      "ĠJoe": 3616,
      "enty": 3617,
      "Ġstre": 3618,
      "Ġserious": 3619,
      "ĠVirgin": 3620,
      "olf": 3621,
      "change": 3622,
      "iff": 3623,
      "Ġresearchers": 3624,
      "Ġexactly": 3625,
      "ÂŃ": 3626,
      "Ġfiled": 3627,
      "ĠSil": 3628,
      "ĠLab": 3629,
      "oston": 3630,
      "Ġcal": 3631,
      "ĠBritain": 3632,
      "iminal": 3633,
      "Ġimmedi": 3634,
      "itz": 3635,
      "emb": 3636,
      "ĠAmazon": 3637,
      "la": 3638,
      "Ġamount": 3639,
      "stitution": 3640,
      "ica": 3641,
      "Ġrecogn": 3642,
      "liam": 3643,
      "Ġupon": 3644,
      "Ġreportedly": 3645,
      "ĠGal": 3646,
      "ĠCarolina": 3647,
      "Ġgiving": 3648,
      "Ġprotect": 3649,
      "rior": 3650,
      "aching": 3651,
      "Ġindepend": 3652,
      "Ġowner": 3653,
      "ĠMass": 3654,
      "ĠSteve": 3655,
      "ĠEU": 3656,
      "Ġhowever": 3657,
      "ological": 3658,
      "ental": 3659,
      "mark": 3660,
      "Ġbeat": 3661,
      "ufact": 3662,
      "Ġdriver": 3663,
      "ented": 3664,
      "Ġtalks": 3665,
      "Ġcaught": 3666,
      "Ġlab": 3667,
      "Ġmessage": 3668,
      "han": 3669,
      "Ġdi": 3670,
      "Ġrules": 3671,
      "asy": 3672,
      "ustr": 3673,
      "ously": 3674,
      "Ġgets": 3675,
      "liament": 3676,
      "astic": 3677,
      "ĠSur": 3678,
      "ĠDirect": 3679,
      "Ġterms": 3680,
      "ĠiPh": 3681,
      "Ġgrowth": 3682,
      "Ġdemon": 3683,
      "ĠRock": 3684,
      "Ġprogress": 3685,
      "ĠDuring": 3686,
      "ĠSecretary": 3687,
      "Ġimag": 3688,
      "ĠSn": 3689,
      "Ġtraff": 3690,
      "Ġcharge": 3691,
      "Ġcontinues": 3692,
      "Ġwat": 3693,
      "Ġliber": 3694,
      "Ġcho": 3695,
      "Ġclaimed": 3696,
      "van": 3697,
      "itness": 3698,
      "bert": 3699,
      "ĠSports": 3700,
      "Ġjudge": 3701,
      "Ġpolitics": 3702,
      "Ġmovement": 3703,
      "Ġcool": 3704,
      "Ġcentury": 3705,
      "Ġcities": 3706,
      "ĠSign": 3707,
      "Ġstage": 3708,
      "Ġworked": 3709,
      "Ġcorn": 3710,
      "ĠSmith": 3711,
      "ecess": 3712,
      "Ġextra": 3713,
      "phone": 3714,
      "Ġnom": 3715,
      "Ġask": 3716,
      "action": 3717,
      "ĠChristian": 3718,
      "za": 3719,
      "aries": 3720,
      "Ġremember": 3721,
      "clusive": 3722,
      "gen": 3723,
      "Ġchair": 3724,
      "Ġparts": 3725,
      "erve": 3726,
      "Ġswe": 3727,
      "ĠBec": 3728,
      "ĠChristmas": 3729,
      "ems": 3730,
      "aint": 3731,
      "ĠSeattle": 3732,
      "eed": 3733,
      "ĠSum": 3734,
      "ĠBank": 3735,
      "Ġissued": 3736,
      "ĠBoston": 3737,
      "Ġwrite": 3738,
      "Ġborder": 3739,
      "Ġcrowd": 3740,
      "Ġobs": 3741,
      "ĠAN": 3742,
      "urt": 3743,
      "Ġregul": 3744,
      "Ġslow": 3745,
      "Ġestab": 3746,
      "Ġparticip": 3747,
      "EC": 3748,
      "ĠPak": 3749,
      "ĠRichard": 3750,
      "Ġrelationship": 3751,
      "Ġspending": 3752,
      "ĠPrem": 3753,
      "iverse": 3754,
      "oes": 3755,
      "Ġdark": 3756,
      "Ġcustomers": 3757,
      "Ġresidents": 3758,
      "Ġsurv": 3759,
      "Ġrare": 3760,
      "ags": 3761,
      "Ġneeded": 3762,
      "Ġdevices": 3763,
      "men": 3764,
      "rick": 3765,
      "AD": 3766,
      "Ġmultiple": 3767,
      "GB": 3768,
      "ĠDen": 3769,
      "Ġdeveloped": 3770,
      "Ġneighbor": 3771,
      "ken": 3772,
      "ĠTO": 3773,
      "Ġknew": 3774,
      "oom": 3775,
      "Ġended": 3776,
      "Ġbott": 3777,
      "que": 3778,
      "Ġpros": 3779,
      "ailed": 3780,
      "Ġfat": 3781,
      "Ġterm": 3782,
      "Ġlearned": 3783,
      "ga": 3784,
      "Ġstreet": 3785,
      "Ġprimary": 3786,
      "Ġexample": 3787,
      "Ġplant": 3788,
      "ĠMexico": 3789,
      "estival": 3790,
      "Ġbrain": 3791,
      "Ġsupp": 3792,
      "Ġdream": 3793,
      "Ġdoct": 3794,
      "Ġspeed": 3795,
      "reedom": 3796,
      "Ġradio": 3797,
      "TA": 3798,
      "ounts": 3799,
      "Ġtro": 3800,
      "Ġmaterial": 3801,
      "Ġelse": 3802,
      "HL": 3803,
      "Ġimpact": 3804,
      "going": 3805,
      "Ġsubscribing": 3806,
      "Ġten": 3807,
      "ĠTre": 3808,
      "ĠGM": 3809,
      "Ġcrime": 3810,
      "ĠMel": 3811,
      "ĠRoad": 3812,
      "Ġmeth": 3813,
      "Ġquickly": 3814,
      "ĠArab": 3815,
      "Ġpowerful": 3816,
      "ĠEven": 3817,
      "iful": 3818,
      "ĠKen": 3819,
      "valid": 3820,
      "Ġtraffic": 3821,
      "iles": 3822,
      "Ġemb": 3823,
      "Ġdrive": 3824,
      "ĠIsraeli": 3825,
      "ĠDistrict": 3826,
      "ĠUk": 3827,
      "Ġhar": 3828,
      "Ġshowing": 3829,
      "Ġremains": 3830,
      "Ġpaid": 3831,
      "Ġdecade": 3832,
      "ĠJapanese": 3833,
      "TV": 3834,
      "ĠSyrian": 3835,
      "yond": 3836,
      "ghan": 3837,
      "Ġclean": 3838,
      "60": 3839,
      "ocks": 3840,
      "Ġsell": 3841,
      "Ġproposed": 3842,
      "'d": 3843,
      "ĠBBC": 3844,
      "ĠInvalid": 3845,
      "ĠOffic": 3846,
      "Ġofficially": 3847,
      "Ġsometimes": 3848,
      "ĠNAS": 3849,
      "etroit": 3850,
      "ĠPakistan": 3851,
      "Ġfix": 3852,
      "Ġlack": 3853,
      "ĠCollege": 3854,
      "Ġinflu": 3855,
      "Ġcontroversial": 3856,
      "ĠAc": 3857,
      "Ġfailed": 3858,
      "chie": 3859,
      "dom": 3860,
      "Ġdoub": 3861,
      "zen": 3862,
      "ĠWho": 3863,
      "Ġletter": 3864,
      "ĠAuthor": 3865,
      "ĠFound": 3866,
      "ĠCle": 3867,
      "ysis": 3868,
      "Ġpropos": 3869,
      "vest": 3870,
      "ooking": 3871,
      "Ġbur": 3872,
      "ĠHum": 3873,
      "Ġleaving": 3874,
      "ported": 3875,
      "roy": 3876,
      "Ġowners": 3877,
      "ĠGood": 3878,
      "Ġacqu": 3879,
      "ĠMartin": 3880,
      "Ġaren": 3881,
      "Ġtrain": 3882,
      "vertis": 3883,
      "Ġfemale": 3884,
      "Ġkids": 3885,
      "Ġmissing": 3886,
      "Ġhighlights": 3887,
      "Ġfile": 3888,
      "ĠCNN": 3889,
      "Ġsports": 3890,
      "stitute": 3891,
      "Ġrisk": 3892,
      "Ġess": 3893,
      "ĠEnter": 3894,
      "Ġimages": 3895,
      "Ġfocus": 3896,
      "Ġbomb": 3897,
      "ashed": 3898,
      "ression": 3899,
      "Ġcentral": 3900,
      "Ġsouth": 3901,
      "ĠTime": 3902,
      "Ġefforts": 3903,
      "ĠPosted": 3904,
      "ĠMur": 3905,
      "ĠDetroit": 3906,
      "hol": 3907,
      "Ġchanged": 3908,
      "ram": 3909,
      "Ġcases": 3910,
      "Ġdom": 3911,
      "ĠTy": 3912,
      "ĠFBI": 3913,
      "Ġblood": 3914,
      "ĠSpr": 3915,
      "anced": 3916,
      "ĠTeam": 3917,
      "ource": 3918,
      "Ġhundreds": 3919,
      "ges": 3920,
      "udd": 3921,
      "Ġassoci": 3922,
      "ĠOut": 3923,
      "Ġsubject": 3924,
      "Ġorganization": 3925,
      "Ġrise": 3926,
      "Ġuses": 3927,
      "Ġnomine": 3928,
      "Ġwild": 3929,
      "Ġdefin": 3930,
      "Ġmarriage": 3931,
      "ĠColor": 3932,
      "Ġdaughter": 3933,
      "ze": 3934,
      "Ġcause": 3935,
      "ĠDown": 3936,
      "erved": 3937,
      "ĠParis": 3938,
      "Ġschools": 3939,
      "friend": 3940,
      "Ġlif": 3941,
      "orial": 3942,
      "ĠRoy": 3943,
      "Ġdanger": 3944,
      "ĠStephen": 3945,
      "ĠOk": 3946,
      "azing": 3947,
      "Ġconsidered": 3948,
      "eless": 3949,
      "ĠAnn": 3950,
      "Ġgold": 3951,
      "Ġusually": 3952,
      "ĠCharl": 3953,
      "sych": 3954,
      "Ġesc": 3955,
      "Ġveter": 3956,
      "ola": 3957,
      "Ġpreviously": 3958,
      "rol": 3959,
      "IV": 3960,
      "ĠVirginia": 3961,
      "____": 3962,
      "Ġhigher": 3963,
      "Ġmillions": 3964,
      "ĠWal": 3965,
      "Ġfacing": 3966,
      "Ġmanufact": 3967,
      "ĠPeter": 3968,
      "SA": 3969,
      "ios": 3970,
      "Ġnine": 3971,
      "Ġnorm": 3972,
      "Ġhappy": 3973,
      "Ġtype": 3974,
      "ĠChief": 3975,
      "Ġopin": 3976,
      "ĠTra": 3977,
      "ĠJohnson": 3978,
      "ĠCentral": 3979,
      "Ġmoving": 3980,
      "Ġjoined": 3981,
      "anchester": 3982,
      "ĠRad": 3983,
      "Ġwindow": 3984,
      "ĠiPhone": 3985,
      "raight": 3986,
      "Ġ60": 3987,
      "Ġintroduced": 3988,
      "inger": 3989,
      "Ġdescribed": 3990,
      "Ġdisplay": 3991,
      "set": 3992,
      "Ġvoted": 3993,
      "ĠFore": 3994,
      "Ġmiles": 3995,
      "ĠST": 3996,
      "Ġrout": 3997,
      "Ġprices": 3998,
      "Ġannouncement": 3999,
      "ĠGames": 4000,
      "Ġnovel": 4001,
      "ĠSpace": 4002,
      "block": 4003,
      "Ġcharacters": 4004,
      "Ġsense": 4005,
      "Ġshowed": 4006,
      "Ġdefe": 4007,
      "Ġtrial": 4008,
      "Ġautom": 4009,
      "orks": 4010,
      "ĠManchester": 4011,
      "iring": 4012,
      "Ġunique": 4013,
      "ĠAfghan": 4014,
      "Ġpicture": 4015,
      "Ġvirt": 4016,
      "Ġsens": 4017,
      "Ġteac": 4018,
      "Ġcorpor": 4019,
      "Ġincludes": 4020,
      "ĠFrank": 4021,
      "iliar": 4022,
      "bre": 4023,
      "ĠGovernment": 4024,
      "ĠNBA": 4025,
      "Ġinjured": 4026,
      "Ġbecoming": 4027,
      "Ġeffect": 4028,
      "ĠGroup": 4029,
      "Ġsal": 4030,
      "iller": 4031,
      "icide": 4032,
      "ĠGrand": 4033,
      "ĠLike": 4034,
      "Ġkick": 4035,
      "ease": 4036,
      "pts": 4037,
      "ĠAndrew": 4038,
      "Ġful": 4039,
      "ĠWestern": 4040,
      "ĠMichigan": 4041,
      "Ġlic": 4042,
      "Ġinstall": 4043,
      "hat": 4044,
      "Ġthinking": 4045,
      "Ġsystems": 4046,
      "rim": 4047,
      "arily": 4048,
      "ocking": 4049,
      "Ġpark": 4050,
      "rend": 4051,
      "asts": 4052,
      "ayer": 4053,
      "UT": 4054,
      "ĠĊ": 4055,
      "Ġfresh": 4056,
      "Ġeducation": 4057,
      "Ġinn": 4058,
      "Ġmix": 4059,
      "Ġworst": 4060,
      "Ġuser": 4061,
      "Ġtweet": 4062,
      "ipe": 4063,
      "Ġ:": 4064,
      "Ġtick": 4065,
      "Ġgreen": 4066,
      "ĠRE": 4067,
      "rency": 4068,
      "Ġphotos": 4069,
      "UR": 4070,
      "ĠProf": 4071,
      "Ġconvers": 4072,
      "Ġpus": 4073,
      "iest": 4074,
      "iders": 4075,
      "lyn": 4076,
      "lywood": 4077,
      "ructure": 4078,
      "Ġculture": 4079,
      "ĠPublic": 4080,
      "het": 4081,
      "Ġvac": 4082,
      "hib": 4083,
      "ader": 4084,
      "Ġreached": 4085,
      "Ġfamous": 4086,
      "Ġoccur": 4087,
      "Ġagreement": 4088,
      "istry": 4089,
      "Ġplanning": 4090,
      "Ġwall": 4091,
      "Ġ*": 4092,
      "ĠAriz": 4093,
      "illa": 4094,
      "Ġselect": 4095,
      "Ġund": 4096,
      "Ġbeer": 4097,
      "ĠJones": 4098,
      "Ġjump": 4099,
      "Ġkilling": 4100,
      "sen": 4101,
      "ceed": 4102,
      "Ġenter": 4103,
      "ĠFoot": 4104,
      "Ġasking": 4105,
      "Ġsepar": 4106,
      "esy": 4107,
      "annel": 4108,
      "Ġraised": 4109,
      "ĠBernie": 4110,
      "lymp": 4111,
      "Ġhaven": 4112,
      "Ġrange": 4113,
      "Ġthanks": 4114,
      "ĠMary": 4115,
      "Ġtrip": 4116,
      "Ġdriving": 4117,
      "Ġpopulation": 4118,
      "ĠAssociation": 4119,
      "ĠUkr": 4120,
      "Ġbrief": 4121,
      "ĠMem": 4122,
      "Ġchallenge": 4123,
      "Ġremain": 4124,
      "Ġfourth": 4125,
      "Ġcomplex": 4126,
      "Ġactions": 4127,
      "ĠChurch": 4128,
      "Ġprofessional": 4129,
      "entially": 4130,
      "ĠMos": 4131,
      "aling": 4132,
      "Ġoffers": 4133,
      "owl": 4134,
      "Ġagreed": 4135,
      "Ġthroughout": 4136,
      "99": 4137,
      "ĠTake": 4138,
      "antic": 4139,
      "Ġvs": 4140,
      "Ġmoved": 4141,
      "Ġgrand": 4142,
      "Ġsurvey": 4143,
      "ucky": 4144,
      "Ġmajority": 4145,
      "Ġareas": 4146,
      "Ġvill": 4147,
      "Ġguest": 4148,
      "Ġfunction": 4149,
      "Ġopportunity": 4150,
      "arr": 4151,
      "Ġsurprise": 4152,
      "Ġsym": 4153,
      "ada": 4154,
      "ĠWars": 4155,
      "Ġ+": 4156,
      "Ġver": 4157,
      "house": 4158,
      "Ġice": 4159,
      "ĠOlymp": 4160,
      "ipl": 4161,
      "Ġwarning": 4162,
      "known": 4163,
      "ĠOpen": 4164,
      "Ġstuff": 4165,
      "ucks": 4166,
      "ĠSpec": 4167,
      "makers": 4168,
      "Ġhour": 4169,
      "Ġcaused": 4170,
      "large": 4171,
      "Ġmount": 4172,
      "Ġaccident": 4173,
      "Ġelectric": 4174,
      "Ġvalue": 4175,
      "Ġindic": 4176,
      "Ġpolitic": 4177,
      "night": 4178,
      "ersey": 4179,
      "Ġillegal": 4180,
      "ĠYear": 4181,
      "Ġwinning": 4182,
      "Ġvehicle": 4183,
      "season": 4184,
      "ĠTop": 4185,
      "andon": 4186,
      "ĠUN": 4187,
      "ification": 4188,
      "ĠCamp": 4189,
      "ĠThomas": 4190,
      "Ġult": 4191,
      "Ġlower": 4192,
      "Ġextreme": 4193,
      "ĠTen": 4194,
      "Ġaward": 4195,
      "ockey": 4196,
      "ography": 4197,
      "ĠHou": 4198,
      "Ġlooked": 4199,
      "ĠMP": 4200,
      "Ġunve": 4201,
      "Ġtrou": 4202,
      "light": 4203,
      "acing": 4204,
      "otten": 4205,
      "Ġprojects": 4206,
      "Ġsafety": 4207,
      "EM": 4208,
      "airs": 4209,
      "Ġsun": 4210,
      "uries": 4211,
      "illing": 4212,
      "Ġarrived": 4213,
      "ĠWeb": 4214,
      "Ġhappen": 4215,
      "Ġsize": 4216,
      "Ġcancer": 4217,
      "Ġcitizens": 4218,
      "run": 4219,
      "ERS": 4220,
      "eal": 4221,
      "hold": 4222,
      "ero": 4223,
      "Ġsupporters": 4224,
      "Ġfigure": 4225,
      "Ġvide": 4226,
      "Ġnote": 4227,
      "Ġdoor": 4228,
      "ĠArmy": 4229,
      "erc": 4230,
      "ĠThree": 4231,
      "Ġassist": 4232,
      "ĠJul": 4233,
      "Ġcompletely": 4234,
      "Ġproperty": 4235,
      "Ġhero": 4236,
      "Ġinjury": 4237,
      "PR": 4238,
      "born": 4239,
      "Ġincluded": 4240,
      "Ġfighting": 4241,
      "Ġachie": 4242,
      "arian": 4243,
      "ĠSH": 4244,
      "ĠRiver": 4245,
      "Ġreasons": 4246,
      "ĠSqu": 4247,
      "80": 4248,
      "eter": 4249,
      "Ġtrust": 4250,
      "Ġvir": 4251,
      "Ġlegislation": 4252,
      "Ġartist": 4253,
      "Ġdefense": 4254,
      "Ġdin": 4255,
      "uled": 4256,
      "ĠUnder": 4257,
      "ibrary": 4258,
      "Ġbroke": 4259,
      "Ġexpand": 4260,
      "Ġpoor": 4261,
      "--------": 4262,
      "Ġsafe": 4263,
      "ĠSal": 4264,
      "add": 4265,
      "Ġhearing": 4266,
      "ĠPalest": 4267,
      "Ġlevels": 4268,
      "Ġnames": 4269,
      "Ġnatural": 4270,
      "ĠLin": 4271,
      "Ġcredit": 4272,
      "Ġintelligence": 4273,
      "Ġgrad": 4274,
      "Ġallowed": 4275,
      "ĠResearch": 4276,
      "ss": 4277,
      "rive": 4278,
      "ker": 4279,
      "Ġclosed": 4280,
      "ula": 4281,
      "Ġhighly": 4282,
      "ĠBush": 4283,
      "ords": 4284,
      "dit": 4285,
      "ĠSol": 4286,
      "Ġperhaps": 4287,
      "Ġfranch": 4288,
      "Ġtreatment": 4289,
      "ĠHouston": 4290,
      "iation": 4291,
      "rect": 4292,
      "Ġability": 4293,
      "Ġtraditional": 4294,
      "Ġstraight": 4295,
      "Ġorganiz": 4296,
      "Ġnominee": 4297,
      "ĠIll": 4298,
      "ansas": 4299,
      "Ġsigning": 4300,
      "Ch": 4301,
      "gency": 4302,
      "ront": 4303,
      "ledge": 4304,
      "Ġhelped": 4305,
      "24": 4306,
      "Ġriv": 4307,
      "Ġrally": 4308,
      "Ġsave": 4309,
      "ĠNor": 4310,
      "ĠJr": 4311,
      "vention": 4312,
      "iling": 4313,
      "Ġton": 4314,
      "ĠRod": 4315,
      "Ġrefuge": 4316,
      "rig": 4317,
      "ancy": 4318,
      "ATE": 4319,
      "Ġoriginally": 4320,
      "Ġquarterback": 4321,
      "win": 4322,
      "ĠDaily": 4323,
      "bon": 4324,
      "pool": 4325,
      "owers": 4326,
      "ĠVideo": 4327,
      "PN": 4328,
      "ĠPenn": 4329,
      "ĠBob": 4330,
      "Ġexclusive": 4331,
      "ĠColorado": 4332,
      "ables": 4333,
      "Ġcannot": 4334,
      "gers": 4335,
      "ĠScot": 4336,
      "Ġfired": 4337,
      "ĠBur": 4338,
      "ĠBlocked": 4339,
      "ĠUpdate": 4340,
      "Ġstreets": 4341,
      "unities": 4342,
      "Ġprovided": 4343,
      "orrow": 4344,
      "ĠBraz": 4345,
      "ĠStr": 4346,
      "ĠUnblock": 4347,
      "Ġsurround": 4348,
      "bour": 4349,
      "amin": 4350,
      "Ġquality": 4351,
      "Ġwriter": 4352,
      "ector": 4353,
      "Ġbrother": 4354,
      "ste": 4355,
      "Ġdownload": 4356,
      "Ġtoward": 4357,
      "ocal": 4358,
      "allas": 4359,
      "Ġsituation": 4360,
      "Ġhighest": 4361,
      "ĠAfrica": 4362,
      "OW": 4363,
      "ĠÃ": 4364,
      "elly": 4365,
      "Ġcamera": 4366,
      "Ġet": 4367,
      "Ġcontr": 4368,
      "Ġchalleng": 4369,
      "Ġamazing": 4370,
      "!!": 4371,
      "body": 4372,
      "Ġspend": 4373,
      "Ġeye": 4374,
      "ih": 4375,
      "Ġtowards": 4376,
      "estic": 4377,
      "merc": 4378,
      "ĠWik": 4379,
      "ampion": 4380,
      "Ġcriminal": 4381,
      "Ġfelt": 4382,
      "ements": 4383,
      "ĠDevelop": 4384,
      "Ġputting": 4385,
      "ĠUFC": 4386,
      "Ġcomed": 4387,
      "Ġspread": 4388,
      "onym": 4389,
      "ENT": 4390,
      "Ġoccas": 4391,
      "Ġemployees": 4392,
      "Ġeyes": 4393,
      "ĠProt": 4394,
      "Ġisland": 4395,
      "Ġtouch": 4396,
      "Ġplanet": 4397,
      "ae": 4398,
      "gia": 4399,
      "Ġsale": 4400,
      "ilty": 4401,
      "igned": 4402,
      "Ġdisapp": 4403,
      "Ġbaby": 4404,
      "ĠBet": 4405,
      "ĠPlan": 4406,
      "PA": 4407,
      "Ġreform": 4408,
      "Ġones": 4409,
      "urance": 4410,
      "Ġreligious": 4411,
      "Ġdistrict": 4412,
      "acts": 4413,
      "Ġsyn": 4414,
      "ĠEric": 4415,
      "Ġfamiliar": 4416,
      "axy": 4417,
      "ION": 4418,
      "Ġhus": 4419,
      "ĠIN": 4420,
      "Ġeditor": 4421,
      "ĠAgency": 4422,
      "AND": 4423,
      "Ġrum": 4424,
      "500": 4425,
      "where": 4426,
      "Ġoffered": 4427,
      "Ġconcept": 4428,
      "Ġbeyond": 4429,
      "ĠDie": 4430,
      "ĠCru": 4431,
      "Ġmyster": 4432,
      "Ġmethod": 4433,
      "45": 4434,
      "Ġdrop": 4435,
      "Ġspokes": 4436,
      "Ġstrugg": 4437,
      "Ġcounter": 4438,
      "craft": 4439,
      "Ġconservative": 4440,
      "ĠEv": 4441,
      "Ġcoal": 4442,
      "porter": 4443,
      "ĠHollywood": 4444,
      "enced": 4445,
      "Ġfeed": 4446,
      "Ġnewsp": 4447,
      "Ġretail": 4448,
      "apped": 4449,
      "Ġhomes": 4450,
      "ading": 4451,
      "Ġfunding": 4452,
      "ĠDaniel": 4453,
      "Ġminor": 4454,
      "imately": 4455,
      "ĠHaw": 4456,
      "Ġplanned": 4457,
      "ĠExp": 4458,
      "ĠSky": 4459,
      "ĠFe": 4460,
      "ĠFree": 4461,
      "Ġheavy": 4462,
      "Ġpolic": 4463,
      "Ġlawy": 4464,
      "Ġrequire": 4465,
      "forcement": 4466,
      "Ġcolumn": 4467,
      "ĠGar": 4468,
      "ĠChampionship": 4469,
      "Ġcommunic": 4470,
      "Ġsuccessful": 4471,
      "Ġmic": 4472,
      "ĠMet": 4473,
      "ĠService": 4474,
      "part": 4475,
      "Ġshown": 4476,
      "iami": 4477,
      "ĠEver": 4478,
      "ĠLee": 4479,
      "200": 4480,
      "hem": 4481,
      "reland": 4482,
      "oman": 4483,
      "ĠDallas": 4484,
      "real": 4485,
      "ĠCL": 4486,
      "Ġguy": 4487,
      "Ġens": 4488,
      "ĠRem": 4489,
      "ĠâĢ¢": 4490,
      "ikes": 4491,
      "ĠML": 4492,
      "Ġcash": 4493,
      "ĠTechn": 4494,
      "ighter": 4495,
      "well": 4496,
      "Ġtrail": 4497,
      "ronic": 4498,
      "Ġbeautiful": 4499,
      "elect": 4500,
      "onn": 4501,
      "ĠClick": 4502,
      "ivity": 4503,
      "Ġreach": 4504,
      "Ġdebt": 4505,
      "Ġdemonstr": 4506,
      "Ġshared": 4507,
      "awa": 4508,
      "antasy": 4509,
      "ket": 4510,
      "Ġdomin": 4511,
      "Ġstars": 4512,
      "Ġdollars": 4513,
      "ĠDC": 4514,
      "iance": 4515,
      "Ġbehav": 4516,
      "Ġpush": 4517,
      "Ġmission": 4518,
      "ĠKim": 4519,
      "ĠAfrican": 4520,
      "iser": 4521,
      "pping": 4522,
      "Ġsolar": 4523,
      "Ġwalk": 4524,
      "Ġmention": 4525,
      "Ġ2007": 4526,
      "Ġprograms": 4527,
      "ĠBrazil": 4528,
      "ĠIreland": 4529,
      "pm": 4530,
      "ĠJew": 4531,
      "ĠReal": 4532,
      "Ġflight": 4533,
      "rec": 4534,
      "Ġalone": 4535,
      "Ġprosp": 4536,
      "ĠInstitute": 4537,
      "Ġchoice": 4538,
      "Ġrestaurant": 4539,
      "cing": 4540,
      "ĠPac": 4541,
      "Ġfeet": 4542,
      "ĠFour": 4543,
      "This": 4544,
      "ĠDirector": 4545,
      "Ġcompetition": 4546,
      "Ġweapons": 4547,
      "Tube": 4548,
      "Ġdevelopers": 4549,
      "Ġeffective": 4550,
      "ĠNASA": 4551,
      "?âĢĿ": 4552,
      "urd": 4553,
      "Ġmyself": 4554,
      "ĠForce": 4555,
      "ipped": 4556,
      "iversary": 4557,
      "Ġrelated": 4558,
      "ĠKevin": 4559,
      "Ġapparently": 4560,
      "esters": 4561,
      "Ġcorner": 4562,
      "ĠSing": 4563,
      "Ġexcept": 4564,
      "Ġproduced": 4565,
      "ĠPremier": 4566,
      "mercial": 4567,
      "\",": 4568,
      "ĠLong": 4569,
      "gypt": 4570,
      "ĠFootball": 4571,
      "Ġhasn": 4572,
      "ĠAvenue": 4573,
      "weight": 4574,
      "Ġupdated": 4575,
      "ĠPS": 4576,
      "Ġactor": 4577,
      "Ġsupposed": 4578,
      "Ġguilty": 4579,
      "ĠElect": 4580,
      "Ġspring": 4581,
      "Ġpartner": 4582,
      "Ġlocated": 4583,
      "ĠVict": 4584,
      "ĠArizona": 4585,
      "west": 4586,
      "ĠAT": 4587,
      "ĠHell": 4588,
      "Ġmagazine": 4589,
      "andal": 4590,
      "ĠJournal": 4591,
      "cient": 4592,
      "arks": 4593,
      "ĠPut": 4594,
      "Ġspoke": 4595,
      "Ġwaiting": 4596,
      "Ġnomin": 4597,
      "ĠYes": 4598,
      "100": 4599,
      "bur": 4600,
      "iences": 4601,
      "Ġdocuments": 4602,
      "Ġvictims": 4603,
      "rd": 4604,
      "Ġprior": 4605,
      "Ġsleep": 4606,
      "Ġrecomm": 4607,
      "Ġwait": 4608,
      "rial": 4609,
      "ĠClub": 4610,
      "Ġcolor": 4611,
      "leted": 4612,
      "ĠRel": 4613,
      "Ġgraph": 4614,
      "NA": 4615,
      "icking": 4616,
      "ĠLake": 4617,
      "Ġideas": 4618,
      "Ġcouldn": 4619,
      "arch": 4620,
      "Ġfol": 4621,
      "abb": 4622,
      "athan": 4623,
      "35": 4624,
      "Ġplaces": 4625,
      "ka": 4626,
      "ĠCur": 4627,
      "Ġabuse": 4628,
      "Ġanalysis": 4629,
      "IM": 4630,
      "kin": 4631,
      "Ġmist": 4632,
      "ĠScience": 4633,
      "Ġprevent": 4634,
      "Ġexcited": 4635,
      "ĠLife": 4636,
      "ĠHome": 4637,
      "ategy": 4638,
      "ĠProject": 4639,
      "ĠBus": 4640,
      "more": 4641,
      "Ġsend": 4642,
      "ĠMiami": 4643,
      "Ġvoice": 4644,
      "adel": 4645,
      "Ġbelieved": 4646,
      "ĠDisney": 4647,
      "Ġdelivered": 4648,
      "Ġhusband": 4649,
      "Ġimmediately": 4650,
      "ev": 4651,
      "eline": 4652,
      "ĠEgypt": 4653,
      "intend": 4654,
      "Ġlawsuit": 4655,
      "ĠVer": 4656,
      "utions": 4657,
      "enger": 4658,
      "Ġbelieves": 4659,
      "IR": 4660,
      "Ġrecords": 4661,
      "net": 4662,
      "Ġ35": 4663,
      "Ġneighborhood": 4664,
      "ources": 4665,
      "espite": 4666,
      "rey": 4667,
      "ĠFer": 4668,
      "ait": 4669,
      "Ġbul": 4670,
      "Ġoffering": 4671,
      "rep": 4672,
      "ĠView": 4673,
      "ĠColumb": 4674,
      "ĠSwed": 4675,
      "lines": 4676,
      "Ġtech": 4677,
      "ĠPower": 4678,
      "ĠFil": 4679,
      "Ġattract": 4680,
      "Ġcollection": 4681,
      "Ġexperim": 4682,
      "ilies": 4683,
      "ĠThen": 4684,
      "Ġcandidates": 4685,
      "Ġchurch": 4686,
      "Ġgoals": 4687,
      "anging": 4688,
      "vertisement": 4689,
      "Ġut": 4690,
      "Ġdeveloper": 4691,
      "Ġpath": 4692,
      "IG": 4693,
      "Ġonto": 4694,
      "Ġcoast": 4695,
      "Ġdropped": 4696,
      "anda": 4697,
      "Ġtesting": 4698,
      "ĠMajor": 4699,
      "olic": 4700,
      "ĠMount": 4701,
      "Ġincred": 4702,
      "Ġpartners": 4703,
      "Ġwatching": 4704,
      "Ġbed": 4705,
      "cean": 4706,
      "oses": 4707,
      "Ġcreating": 4708,
      "ĠWatch": 4709,
      "ĠNBC": 4710,
      "ĠArch": 4711,
      "Ġbringing": 4712,
      "ĠRo": 4713,
      "ĠHist": 4714,
      "istics": 4715,
      "obe": 4716,
      "Ġchem": 4717,
      "Ġship": 4718,
      "Ġwarned": 4719,
      "isions": 4720,
      "Ġbid": 4721,
      "oti": 4722,
      "ĠDou": 4723,
      "Ġaltern": 4724,
      "ĠXbox": 4725,
      "miss": 4726,
      "Ġjail": 4727,
      "Ġcontribut": 4728,
      "Ġapproved": 4729,
      "Ġsport": 4730,
      "ĠValley": 4731,
      "Ġdrugs": 4732,
      "ĠPalestin": 4733,
      "22": 4734,
      "imum": 4735,
      "usion": 4736,
      "Ġstock": 4737,
      "Ġattend": 4738,
      "Ġseemed": 4739,
      "aded": 4740,
      "Ġstyle": 4741,
      "ĠYouTube": 4742,
      "ĠMinnes": 4743,
      "isher": 4744,
      "Ġopposition": 4745,
      "Ġfear": 4746,
      "ĠJersey": 4747,
      "Ġmovies": 4748,
      "Ġfarm": 4749,
      "een": 4750,
      "Ġsem": 4751,
      "ĠSar": 4752,
      "Ġexchange": 4753,
      "Ġpeace": 4754,
      "Ġcommittee": 4755,
      "Ġfellow": 4756,
      "ano": 4757,
      "ĠBefore": 4758,
      "Ġsort": 4759,
      "ĠMiddle": 4760,
      "elled": 4761,
      "ĠTurkey": 4762,
      "oly": 4763,
      "ĠNote": 4764,
      "Ġfranchise": 4765,
      "Ġobject": 4766,
      "Ġimplement": 4767,
      "Ġcontest": 4768,
      "Ġmale": 4769,
      "Ġliter": 4770,
      "ooks": 4771,
      "Ġord": 4772,
      "Ġqual": 4773,
      "ĠMinnesota": 4774,
      "ding": 4775,
      "Ġyourself": 4776,
      "Ġregister": 4777,
      "Ġclassic": 4778,
      "Ġconstruction": 4779,
      "Ġvideos": 4780,
      "uke": 4781,
      "ĠAut": 4782,
      "ĠCapt": 4783,
      "ĠLiver": 4784,
      "ortion": 4785,
      "Ġcertainly": 4786,
      "Ġmigr": 4787,
      "ĠAction": 4788,
      "prof": 4789,
      "Ġfigures": 4790,
      "ĠVeg": 4791,
      "VER": 4792,
      "lor": 4793,
      "Ġpun": 4794,
      "Ġkid": 4795,
      "ournament": 4796,
      "Ġsom": 4797,
      "Ġder": 4798,
      "ĠNY": 4799,
      "ORK": 4800,
      "Ġrestr": 4801,
      "ĠFoundation": 4802,
      "resp": 4803,
      "Ġscheduled": 4804,
      "Ġamb": 4805,
      "Ġearth": 4806,
      "TC": 4807,
      "You": 4808,
      "kins": 4809,
      "oma": 4810,
      "useum": 4811,
      "Ġ80": 4812,
      "ita": 4813,
      "Ġmachine": 4814,
      "imb": 4815,
      "Ġallows": 4816,
      "Ġsites": 4817,
      "Ġstandard": 4818,
      "Ġhttp": 4819,
      "ĠPR": 4820,
      "Ġblue": 4821,
      "Ġactive": 4822,
      "Ġdeter": 4823,
      "Ġbal": 4824,
      "Ġdisease": 4825,
      "ĠAlab": 4826,
      "Ġknows": 4827,
      "Ġseeking": 4828,
      "Ġguard": 4829,
      "Ġavoid": 4830,
      "Ġbenefits": 4831,
      "ĠDespite": 4832,
      "Ġfully": 4833,
      "Ġconflic": 4834,
      "ĠFar": 4835,
      "Ġrule": 4836,
      "odes": 4837,
      "phia": 4838,
      "Ġpressure": 4839,
      "ĠMayor": 4840,
      "Ġparticularly": 4841,
      "Ġelections": 4842,
      "Ġraise": 4843,
      "ĠNHL": 4844,
      "sex": 4845,
      "Ġprec": 4846,
      "Ġestim": 4847,
      "Ġconcerns": 4848,
      "Ġâ": 4849,
      "oper": 4850,
      "ĠEnlarge": 4851,
      "Ġexperts": 4852,
      "Ġdouble": 4853,
      "Ġpurp": 4854,
      "Ġnecess": 4855,
      "Ġunc": 4856,
      "encies": 4857,
      "Ġspecies": 4858,
      "Ġcoverage": 4859,
      "Ġcosts": 4860,
      "ĠWay": 4861,
      "ĠGuard": 4862,
      "ighters": 4863,
      "Ġadvoc": 4864,
      "fin": 4865,
      "Ġbrows": 4866,
      "ĠStadium": 4867,
      "Ġdowntown": 4868,
      "ius": 4869,
      "lo": 4870,
      "ĠCard": 4871,
      "Ġholding": 4872,
      "ĠGeorgia": 4873,
      "ĠJackson": 4874,
      "adelphia": 4875,
      "wing": 4876,
      "Ġpair": 4877,
      "ĠAv": 4878,
      "ups": 4879,
      "Ġ90": 4880,
      "ĠWomen": 4881,
      "eman": 4882,
      "aints": 4883,
      "Ġarm": 4884,
      "Ġsuffered": 4885,
      "Ġstorm": 4886,
      "ĠDar": 4887,
      "Ġedit": 4888,
      "ĠOrig": 4889,
      "ĠLabour": 4890,
      "Ġhate": 4891,
      "ĠNick": 4892,
      "Ġguys": 4893,
      "ĠAlabama": 4894,
      "boy": 4895,
      "ĠCy": 4896,
      "hered": 4897,
      "Ġapplication": 4898,
      "Ġpsych": 4899,
      "Ġapproach": 4900,
      "astern": 4901,
      "ĠAff": 4902,
      "ĠFort": 4903,
      "Ġspir": 4904,
      "Ġruns": 4905,
      "Ġtransfer": 4906,
      "ĠBlue": 4907,
      "ĠEditor": 4908,
      "gender": 4909,
      "antly": 4910,
      "Ġunp": 4911,
      "ĠOl": 4912,
      "Ġadop": 4913,
      "ĠESPN": 4914,
      "Ġnice": 4915,
      "ublished": 4916,
      "ĠPhiladelphia": 4917,
      "Ġnorthern": 4918,
      "ĠLiverpool": 4919,
      ".[": 4920,
      "ctions": 4921,
      "org": 4922,
      "ĠConference": 4923,
      "Le": 4924,
      "Ġstrike": 4925,
      "Ġtemper": 4926,
      "ĠNight": 4927,
      "ĠOak": 4928,
      "anted": 4929,
      "Ġstatus": 4930,
      "Ġlay": 4931,
      "Ġsea": 4932,
      "Ġmostly": 4933,
      "Ġprime": 4934,
      "edic": 4935,
      "ĠKorean": 4936,
      "Ġlimited": 4937,
      "AFP": 4938,
      "ran": 4939,
      "Ġtog": 4940,
      "ĠThanks": 4941,
      "Ġfollowed": 4942,
      "Ġimmigration": 4943,
      "Ġbreaking": 4944,
      "ĠConn": 4945,
      "Ġdamage": 4946,
      "IP": 4947,
      "Ġicon": 4948,
      "ouver": 4949,
      "Ġmeant": 4950,
      "Ġincreased": 4951,
      "ipping": 4952,
      "Ġbasket": 4953,
      "ORE": 4954,
      "Ġdiscussion": 4955,
      "term": 4956,
      "ansion": 4957,
      "Ġapps": 4958,
      "Ġfounder": 4959,
      "Ġcampus": 4960,
      "ĠHy": 4961,
      "sea": 4962,
      "ĠRomney": 4963,
      "MA": 4964,
      "ĠSaud": 4965,
      "Ġjud": 4966,
      "Ġruled": 4967,
      "Ġpulled": 4968,
      "itation": 4969,
      "Ġongoing": 4970,
      "Ġidentified": 4971,
      "Ġmeasure": 4972,
      "Ġregarding": 4973,
      "Ġfine": 4974,
      "Ġcommercial": 4975,
      "life": 4976,
      "rid": 4977,
      "Ġcontact": 4978,
      "olute": 4979,
      "ancouver": 4980,
      "Americ": 4981,
      "Ġeffects": 4982,
      "aith": 4983,
      "onents": 4984,
      "Ġmap": 4985,
      "no": 4986,
      "Ġlines": 4987,
      "Ġfaces": 4988,
      "ĠJava": 4989,
      "Ġtoggle": 4990,
      "ban": 4991,
      "Ġfle": 4992,
      "Ġfif": 4993,
      "ĠRog": 4994,
      "Ġrelative": 4995,
      "Ġsociety": 4996,
      "ĠHuman": 4997,
      "AA": 4998,
      "lets": 4999,
      "Ġthrow": 5000,
      "ĠWelcome": 5001,
      "ĠJosh": 5002,
      "ĠDead": 5003,
      "Ġboss": 5004,
      "Ġobv": 5005,
      "Ġod": 5006,
      "ĠLinux": 5007,
      "imin": 5008,
      "aza": 5009,
      "Ġanimal": 5010,
      "ĠAfghanistan": 5011,
      "ĠIntro": 5012,
      "ĠUt": 5013,
      "ĠStan": 5014,
      "ĠVancouver": 5015,
      "Ġoperating": 5016,
      "pir": 5017,
      "ĠWilliams": 5018,
      "Ġindependent": 5019,
      "Ġreject": 5020,
      "owa": 5021,
      "ĠRand": 5022,
      "TS": 5023,
      "âĢĿ,": 5024,
      "Ġanniversary": 5025,
      "Ġremoved": 5026,
      "ĠScient": 5027,
      "Ġbusinesses": 5028,
      "Ġpil": 5029,
      "Ġthr": 5030,
      "Ġ32": 5031,
      "GBT": 5032,
      "ĠPhot": 5033,
      "Ġactivists": 5034,
      "Ġsouthern": 5035,
      "alo": 5036,
      "Ġmer": 5037,
      "ĠFed": 5038,
      "ĠLive": 5039,
      "Ġemergency": 5040,
      "intendo": 5041,
      "icious": 5042,
      "Ġign": 5043,
      "ĠReview": 5044,
      "Ġanimals": 5045,
      "gn": 5046,
      "ĠLat": 5047,
      "Ġemot": 5048,
      "Ġstopped": 5049,
      "regon": 5050,
      "ĠCruz": 5051,
      "Ġselling": 5052,
      "Ġstudio": 5053,
      "Ġfamilies": 5054,
      "Ġvehicles": 5055,
      "Ġ>": 5056,
      "Ġtruth": 5057,
      "Ġlegend": 5058,
      "long": 5059,
      "Ġsitting": 5060,
      "ĠBat": 5061,
      "uster": 5062,
      "Ġexplos": 5063,
      "Ġur": 5064,
      "Ġdeg": 5065,
      "Ġtells": 5066,
      "work": 5067,
      "Ġagent": 5068,
      "Ġcompared": 5069,
      "Ġspeak": 5070,
      "Ġguns": 5071,
      "Ġstruck": 5072,
      "Ġaddition": 5073,
      "Ġserved": 5074,
      "Ġdepartment": 5075,
      "Ġwake": 5076,
      "Ġstrategy": 5077,
      "Ġholiday": 5078,
      "Sh": 5079,
      "ĠSony": 5080,
      "Ġposts": 5081,
      "Ġturns": 5082,
      "Ġpet": 5083,
      "Ġgovernor": 5084,
      "ĠReport": 5085,
      "Ġlearning": 5086,
      "hew": 5087,
      "ican": 5088,
      "ĠBoard": 5089,
      "Ġ70": 5090,
      "ĠGMT": 5091,
      "do": 5092,
      "ĠAnt": 5093,
      "Ġbike": 5094,
      "ĠTony": 5095,
      "ffee": 5096,
      "Ġsuspect": 5097,
      "enture": 5098,
      "ĠCath": 5099,
      "Ġchampion": 5100,
      "Ġcentre": 5101,
      "ĠKar": 5102,
      "Ġscen": 5103,
      "Ġseeing": 5104,
      "Ġfinding": 5105,
      "kes": 5106,
      "ĠCH": 5107,
      "ĠAlthough": 5108,
      "ĠAtlanta": 5109,
      "Ġplayback": 5110,
      "Ġbroadcast": 5111,
      "ĠFam": 5112,
      "Ġcomic": 5113,
      "Ġeat": 5114,
      "ĠNintendo": 5115,
      "Ġgeneration": 5116,
      "ĠSeries": 5117,
      "ĠRick": 5118,
      "Ġproposal": 5119,
      "Ġdomestic": 5120,
      "put": 5121,
      "Ġfloor": 5122,
      "Ġconditions": 5123,
      "bec": 5124,
      "Ġoverall": 5125,
      "ĠJewish": 5126,
      "Ġcards": 5127,
      "cher": 5128,
      "ĠFall": 5129,
      "rier": 5130,
      "Ġadding": 5131,
      "ĠBrian": 5132,
      "Ġgives": 5133,
      "Ġweather": 5134,
      "Ġcontain": 5135,
      "Ġviews": 5136,
      "ĠSocial": 5137,
      "ĠDelhi": 5138,
      "Ġveteran": 5139,
      "ador": 5140,
      "reng": 5141,
      "Ġdefensive": 5142,
      "Ġcrew": 5143,
      "Ġmotor": 5144,
      "ĠAttorney": 5145,
      "Ġbasic": 5146,
      "Ġoptions": 5147,
      "ĠDiego": 5148,
      "omp": 5149,
      "ĠSu": 5150,
      "Ġspeaking": 5151,
      "Ġruling": 5152,
      "Ġunf": 5153,
      "Ġcritical": 5154,
      "Ġnegoti": 5155,
      "ocol": 5156,
      "ĠRev": 5157,
      "Ġcontinued": 5158,
      "www": 5159,
      "just": 5160,
      "exp": 5161,
      "Ġsky": 5162,
      "OSE": 5163,
      "Ġsequ": 5164,
      "apter": 5165,
      "Ġcrack": 5166,
      "Ġoperations": 5167,
      "iger": 5168,
      "Ġincome": 5169,
      "Ġreturned": 5170,
      "Ġterrorist": 5171,
      "Ġbaseball": 5172,
      "arters": 5173,
      "ĠWild": 5174,
      "Ġquiet": 5175,
      "hy": 5176,
      "ati": 5177,
      "Ġcold": 5178,
      "Ġmaybe": 5179,
      "mond": 5180,
      "rav": 5181,
      "Ġoffensive": 5182,
      "Ġscr": 5183,
      "Ġmeaning": 5184,
      "emic": 5185,
      "ĠVol": 5186,
      "Ġgreatest": 5187,
      "ĠReuters": 5188,
      "Ġseasons": 5189,
      "ĠGalaxy": 5190,
      "Ġtom": 5191,
      "Ġcommission": 5192,
      "ĠPolit": 5193,
      "70": 5194,
      "ĠTed": 5195,
      "Ġele": 5196,
      "ĠOregon": 5197,
      "Ġinte": 5198,
      "ĠSenator": 5199,
      "ength": 5200,
      "Ġpositive": 5201,
      "Ġnewspaper": 5202,
      "Ġast": 5203,
      "ĠSams": 5204,
      "ĠUkraine": 5205,
      "aug": 5206,
      "mission": 5207,
      "oms": 5208,
      "omes": 5209,
      "Ġdirectly": 5210,
      "outs": 5211,
      "âĢĺ": 5212,
      "Ġordered": 5213,
      "Ġdeclared": 5214,
      "Ġtack": 5215,
      "ĠWood": 5216,
      "ĠFord": 5217,
      "ingly": 5218,
      "ĠMen": 5219,
      "Ġlocation": 5220,
      "Ġprotests": 5221,
      "ĠUPD": 5222,
      "sequ": 5223,
      "Ġkept": 5224,
      "Ġfeeling": 5225,
      "ĠSaudi": 5226,
      "Ġgaming": 5227,
      "ĠDig": 5228,
      "Ġcrash": 5229,
      "Ġcuts": 5230,
      "ĠRos": 5231,
      "ĠNetwork": 5232,
      "Ġgirls": 5233,
      "Ġapplications": 5234,
      "gg": 5235,
      "Ġreaders": 5236,
      "iscons": 5237,
      "ĠJos": 5238,
      "Ġfrequ": 5239,
      "isconsin": 5240,
      "Ġgar": 5241,
      "ĠYORK": 5242,
      "21": 5243,
      "ĠMa": 5244,
      "ĠRub": 5245,
      "Ġwinter": 5246,
      "Ġsnow": 5247,
      "Ġbitcoin": 5248,
      "olis": 5249,
      "ĠâĢ¦": 5250,
      "Ġdangerous": 5251,
      "Ġcop": 5252,
      "under": 5253,
      "ĠJason": 5254,
      "Ġcatch": 5255,
      "angers": 5256,
      "Ġreporting": 5257,
      "ielder": 5258,
      "Ġappearance": 5259,
      "Ġhousing": 5260,
      "Ġrates": 5261,
      "Ġsuggests": 5262,
      "portation": 5263,
      "kings": 5264,
      "awn": 5265,
      "ĠIowa": 5266,
      "usal": 5267,
      "agn": 5268,
      "ashion": 5269,
      "ĠSamsung": 5270,
      "CH": 5271,
      "Ġge": 5272,
      "Ġcloser": 5273,
      "top": 5274,
      "Ġfeat": 5275,
      "Ġmemory": 5276,
      "Ġbatter": 5277,
      "Ġnature": 5278,
      "IF": 5279,
      "Ġitems": 5280,
      "Ġhair": 5281,
      "Ġresc": 5282,
      "Ġprosecut": 5283,
      "ĠMu": 5284,
      "ĠAdam": 5285,
      "ĠEconom": 5286,
      "Ġprovince": 5287,
      "Ġvotes": 5288,
      "Ġtools": 5289,
      "Ġdram": 5290,
      "Ġinterested": 5291,
      "Ġbasketball": 5292,
      "ĠGreg": 5293,
      "Ġinstit": 5294,
      "Ġhopes": 5295,
      "fortun": 5296,
      "state": 5297,
      "Ġstands": 5298,
      "ĠInvest": 5299,
      "Ġfilms": 5300,
      "udden": 5301,
      "Ġ45": 5302,
      "ĠAdvertisement": 5303,
      "Ġpanel": 5304,
      "ĠWisconsin": 5305,
      "ĠGall": 5306,
      "Ġimpress": 5307,
      "ĠReddit": 5308,
      "Ġboost": 5309,
      "Ġadmitted": 5310,
      "ĠAC": 5311,
      "ĠBoy": 5312,
      "ĠLA": 5313,
      "veland": 5314,
      "Ġfinished": 5315,
      "ĠSeason": 5316,
      "ĠZeal": 5317,
      "war": 5318,
      "Ġwitness": 5319,
      "ĠPy": 5320,
      "Ġnewly": 5321,
      "Ġsigns": 5322,
      "Ġsteps": 5323,
      "23": 5324,
      "Ġsurprising": 5325,
      "Ġdestroy": 5326,
      "Ġencour": 5327,
      "ĠScotland": 5328,
      "ĠAny": 5329,
      "Ġprofessor": 5330,
      "ĠCharles": 5331,
      "Ġsurve": 5332,
      "Ġphysical": 5333,
      "Ġrenew": 5334,
      "ĠDefense": 5335,
      "Ġspl": 5336,
      "Ġknowledge": 5337,
      "Ġeasily": 5338,
      "Ġpatients": 5339,
      "Ġunveiled": 5340,
      "da": 5341,
      "Ġtough": 5342,
      "ato": 5343,
      "Ġuniversity": 5344,
      "raud": 5345,
      "ĠEnergy": 5346,
      "ĠPhilipp": 5347,
      "RA": 5348,
      "ua": 5349,
      "Ġbought": 5350,
      "ĠSpan": 5351,
      "uct": 5352,
      "Ġdie": 5353,
      "====": 5354,
      "stein": 5355,
      "ĠVegas": 5356,
      "Ġintegr": 5357,
      "Ġwound": 5358,
      "arden": 5359,
      "Ġworse": 5360,
      "Ġtast": 5361,
      "Station": 5362,
      "Ġparties": 5363,
      "ĠCarl": 5364,
      "ĠSomet": 5365,
      "ĠHot": 5366,
      "Ġserve": 5367,
      "Ġwid": 5368,
      "Ġfuel": 5369,
      "ĠiOS": 5370,
      "Ġreporters": 5371,
      "ĠCub": 5372,
      "ĠHel": 5373,
      "Ġweight": 5374,
      "itely": 5375,
      "Ġprovides": 5376,
      "Ġoperation": 5377,
      "ĠIrish": 5378,
      "ĠMusic": 5379,
      "GO": 5380,
      "Ġsust": 5381,
      "met": 5382,
      "esome": 5383,
      "Ġdedic": 5384,
      "ĠBalt": 5385,
      "ĠNations": 5386,
      "Ġmodels": 5387,
      "Ġsecretary": 5388,
      "ini": 5389,
      "Ġwidely": 5390,
      "alse": 5391,
      "icip": 5392,
      "Ġath": 5393,
      "ĠBrad": 5394,
      "Ġspeaks": 5395,
      "Ġexplain": 5396,
      "Ġvirtual": 5397,
      "cul": 5398,
      "Ġinform": 5399,
      "ĠLGBT": 5400,
      "ĠOld": 5401,
      "Ġarticles": 5402,
      "Ġattacked": 5403,
      "Ġcondition": 5404,
      "Ġpackage": 5405,
      "unning": 5406,
      "Ġvan": 5407,
      "ĠAdd": 5408,
      "Ġinvestment": 5409,
      "idden": 5410,
      "echan": 5411,
      "Ġresponsible": 5412,
      "Ġsomew": 5413,
      "erry": 5414,
      "Ġsan": 5415,
      "Ġang": 5416,
      "ette": 5417,
      "Ġride": 5418,
      "Ġseat": 5419,
      "Ġenforcement": 5420,
      "ribution": 5421,
      "reens": 5422,
      "ĠTay": 5423,
      "Ġconnect": 5424,
      "ĠWhe": 5425,
      "Ġrough": 5426,
      "ifying": 5427,
      "Ġbroken": 5428,
      "ĠPlayStation": 5429,
      "Ġera": 5430,
      "nab": 5431,
      "ala": 5432,
      "Ġlived": 5433,
      "ĠCall": 5434,
      "ĠBru": 5435,
      "DAY": 5436,
      "LA": 5437,
      "PS": 5438,
      "upported": 5439,
      "ĠZealand": 5440,
      "Ġwearing": 5441,
      "ĠLas": 5442,
      "ĠStat": 5443,
      "Ġconnection": 5444,
      "Ġincreasingly": 5445,
      "90": 5446,
      "Ã¡": 5447,
      "Ġcer": 5448,
      "aled": 5449,
      "ĠCBS": 5450,
      "ĠMS": 5451,
      "ĠChild": 5452,
      "Ġvariety": 5453,
      "Ġopinion": 5454,
      "vis": 5455,
      "ĠIts": 5456,
      "ĠEll": 5457,
      "ads": 5458,
      "Ġagree": 5459,
      "Ġprint": 5460,
      "Ġpolicies": 5461,
      "ĠTit": 5462,
      "Ġlosing": 5463,
      "ĠBest": 5464,
      "Ġpictures": 5465,
      "oral": 5466,
      "Ġhun": 5467,
      "ĠSystem": 5468,
      "OD": 5469,
      "Ġplease": 5470,
      "ictions": 5471,
      "Ġactivity": 5472,
      "Ġhttps": 5473,
      "lad": 5474,
      "Ġ=": 5475,
      "stream": 5476,
      "owing": 5477,
      "ĠBowl": 5478,
      "ĠHave": 5479,
      "wan": 5480,
      "Ġgather": 5481,
      "Ġarmed": 5482,
      "Ġprotesters": 5483,
      "Ġorganizations": 5484,
      "burg": 5485,
      "oil": 5486,
      "Ġ)": 5487,
      "Ġgam": 5488,
      "ĠRam": 5489,
      "place": 5490,
      "ĠVictor": 5491,
      "NC": 5492,
      "maker": 5493,
      "ĠLib": 5494,
      "ounter": 5495,
      "emon": 5496,
      "Ġoption": 5497,
      "rize": 5498,
      "isted": 5499,
      "ĠMarvel": 5500,
      "flix": 5501,
      "Ġspokesman": 5502,
      "star": 5503,
      "ĠBeach": 5504,
      "ĠSquare": 5505,
      "tw": 5506,
      "mitted": 5507,
      "Ġrat": 5508,
      "Ġexam": 5509,
      "active": 5510,
      "Ġbusy": 5511,
      "ena": 5512,
      "ĠCredit": 5513,
      "ĠFre": 5514,
      "Ġamid": 5515,
      "Ġedition": 5516,
      "ĠTown": 5517,
      "otic": 5518,
      "ĠLink": 5519,
      "ĠEp": 5520,
      "ĠKelly": 5521,
      "ĠClass": 5522,
      "Ġdrivers": 5523,
      "ĠCleveland": 5524,
      "Ġlose": 5525,
      "Ġrain": 5526,
      "Ġadditional": 5527,
      "Ġrequired": 5528,
      "Ġallegations": 5529,
      "zens": 5530,
      "Ġunion": 5531,
      "ĠKent": 5532,
      "ĠMarc": 5533,
      "Ġemails": 5534,
      "power": 5535,
      "Ġir": 5536,
      "izz": 5537,
      "Ġfeatured": 5538,
      "ĠJun": 5539,
      "acks": 5540,
      "Ġbanks": 5541,
      "........": 5542,
      "Ġmanaged": 5543,
      "cont": 5544,
      "idel": 5545,
      "ĠPortland": 5546,
      "ĠHen": 5547,
      "Ġnoticed": 5548,
      "Ġ33": 5549,
      "Ġhumans": 5550,
      "Ġconsidering": 5551,
      "Ġconvention": 5552,
      "ĠPutin": 5553,
      "Ġvoting": 5554,
      "Ġmissed": 5555,
      "Ġsoldiers": 5556,
      "ĠTurk": 5557,
      "26": 5558,
      "ns": 5559,
      "Ġasp": 5560,
      "Ġviolent": 5561,
      "ĠSanta": 5562,
      "Ġ]": 5563,
      "Ġprinc": 5564,
      "ĠRadio": 5565,
      "ĠTal": 5566,
      "Ġhappens": 5567,
      "Ġclaiming": 5568,
      "Ġestablish": 5569,
      "Ġcouncil": 5570,
      "Ġnet": 5571,
      "Ġnative": 5572,
      "aped": 5573,
      "Ġhistoric": 5574,
      "Ġstores": 5575,
      "Ġtwice": 5576,
      "ologies": 5577,
      "Ġcoin": 5578,
      "ooth": 5579,
      "ĠSheriff": 5580,
      "itect": 5581,
      "Ġfreedom": 5582,
      "Ġrape": 5583,
      "ca": 5584,
      "Ġcompleted": 5585,
      "Ġlawmakers": 5586,
      "ext": 5587,
      "host": 5588,
      "ties": 5589,
      "ĠTurn": 5590,
      "Ġstreng": 5591,
      "hens": 5592,
      "Ġaudience": 5593,
      "Ġcrypt": 5594,
      "Ġwealth": 5595,
      "Ġplenty": 5596,
      "Ġjustice": 5597,
      "Ġ500": 5598,
      "ship": 5599,
      "tained": 5600,
      "ĠSk": 5601,
      "ĠCare": 5602,
      "Ġhelping": 5603,
      "aire": 5604,
      "Ġmaster": 5605,
      "racy": 5606,
      "Ġcart": 5607,
      "ĠAustin": 5608,
      "ĠBusiness": 5609,
      "burgh": 5610,
      "ĠYoung": 5611,
      "Ġattorney": 5612,
      "Ġleadership": 5613,
      "Ġinnov": 5614,
      "Ġemerged": 5615,
      "ĠISIS": 5616,
      "ĠSpecial": 5617,
      "eph": 5618,
      "ĠNetflix": 5619,
      "ĠItalian": 5620,
      "ĠDark": 5621,
      "Ġ49": 5622,
      "ĠNation": 5623,
      "illance": 5624,
      "Ġshel": 5625,
      "Ġsetting": 5626,
      "ĠJustin": 5627,
      "nel": 5628,
      "Ġtrib": 5629,
      "ora": 5630,
      "ĠAD": 5631,
      "ĠEr": 5632,
      "ĠUl": 5633,
      "Ġwouldn": 5634,
      "Ġinjuries": 5635,
      "uan": 5636,
      "Ġseek": 5637,
      "Ġtruck": 5638,
      "Ġcommit": 5639,
      "Ġoccup": 5640,
      "wise": 5641,
      "Ġload": 5642,
      "Ġdrama": 5643,
      "Ġcriticism": 5644,
      "27": 5645,
      "Ġtiny": 5646,
      "olit": 5647,
      "Ġslight": 5648,
      "Ġsmartphone": 5649,
      "Ġhall": 5650,
      "ĠKansas": 5651,
      "ĠAnton": 5652,
      "Ġ195": 5653,
      "itude": 5654,
      "ĠCamer": 5655,
      "ĠLabor": 5656,
      "Ġyouth": 5657,
      "foot": 5658,
      "orage": 5659,
      "eck": 5660,
      "Ġ2006": 5661,
      "Ġtaxes": 5662,
      "Ġcovered": 5663,
      "rif": 5664,
      "apers": 5665,
      "Ġrow": 5666,
      "Ġacad": 5667,
      "ĠGlobal": 5668,
      "gl": 5669,
      "Ġancient": 5670,
      "Ġlinks": 5671,
      "Ġ36": 5672,
      "Ġdeveloping": 5673,
      "Ġiniti": 5674,
      "Ġsession": 5675,
      "Ġbug": 5676,
      "Ġflood": 5677,
      "Ġconducted": 5678,
      "Ġconversation": 5679,
      "Ġturning": 5680,
      "Ġpaying": 5681,
      "Ġnormal": 5682,
      "ĠTheir": 5683,
      "Ġroster": 5684,
      "Ġparking": 5685,
      "Ġoccurred": 5686,
      "oking": 5687,
      "Ġplayoff": 5688,
      "Ġkeeping": 5689,
      "Ġchairman": 5690,
      "Ġtournament": 5691,
      "imore": 5692,
      "Ġcolle": 5693,
      "Ġcontroll": 5694,
      "Ġx": 5695,
      "Ġsudden": 5696,
      "ĠKr": 5697,
      "Ġstrange": 5698,
      "Ġinsurance": 5699,
      "Ġcorrect": 5700,
      "Ġmicro": 5701,
      "erous": 5702,
      "Ġspect": 5703,
      "Ġtransl": 5704,
      "Ġunsupported": 5705,
      "oty": 5706,
      "Ġsolution": 5707,
      "Ġexerc": 5708,
      "iants": 5709,
      "lay": 5710,
      "inent": 5711,
      "Ġinbox": 5712,
      "ĠWin": 5713,
      "ĠPan": 5714,
      "Ġeasier": 5715,
      "Ġmanagement": 5716,
      "UL": 5717,
      "ĠChel": 5718,
      "ĠDi": 5719,
      "cohol": 5720,
      "fielder": 5721,
      "Ġpod": 5722,
      "utch": 5723,
      "ĠDiv": 5724,
      "Ġheav": 5725,
      "illy": 5726,
      "ĠSpring": 5727,
      "iplom": 5728,
      "Ġsection": 5729,
      "ĠSC": 5730,
      "ĠCoast": 5731,
      "Ġapartment": 5732,
      "care": 5733,
      "ĠFood": 5734,
      "Ġcommitted": 5735,
      "Ġplane": 5736,
      "ST": 5737,
      "ĠOntar": 5738,
      "Ġtransgender": 5739,
      "Ġinvestigating": 5740,
      "Ġreplace": 5741,
      "urban": 5742,
      "Ġdoubt": 5743,
      "fe": 5744,
      "ĠTele": 5745,
      "ĠAL": 5746,
      "Ġflag": 5747,
      "ĠHor": 5748,
      "grade": 5749,
      "Ġtopic": 5750,
      "endment": 5751,
      "ĠAlbert": 5752,
      "Ġphil": 5753,
      "Ġchanging": 5754,
      "Ġcombat": 5755,
      "28": 5756,
      "Ġlabor": 5757,
      "Ġwalking": 5758,
      "ils": 5759,
      "etts": 5760,
      "ĠFull": 5761,
      "Ġplays": 5762,
      "Ġlarger": 5763,
      "vania": 5764,
      "Ġbottom": 5765,
      "point": 5766,
      "orld": 5767,
      "icient": 5768,
      "oted": 5769,
      "oles": 5770,
      "ĠBrew": 5771,
      "Ġwinner": 5772,
      "embly": 5773,
      "mail": 5774,
      "onent": 5775,
      "ĠHear": 5776,
      "Ġplaced": 5777,
      "Ġaccounts": 5778,
      "onymous": 5779,
      "29": 5780,
      "urric": 5781,
      "Ġstret": 5782,
      "ancing": 5783,
      "ĠEntertain": 5784,
      "Ġrival": 5785,
      "Ġgender": 5786,
      "ĠSyd": 5787,
      "Ġworldwide": 5788,
      "Ġsuicide": 5789,
      "uate": 5790,
      "Ġreact": 5791,
      "ĠAnth": 5792,
      "enses": 5793,
      "Ġbrew": 5794,
      "Ġallowing": 5795,
      "free": 5796,
      "ĠCopyright": 5797,
      "atever": 5798,
      "Ġchec": 5799,
      "Ġinspired": 5800,
      "Ġabsolute": 5801,
      "He": 5802,
      "ĠIns": 5803,
      "ourney": 5804,
      "Ġpicked": 5805,
      "Ġcarrying": 5806,
      "ĠCLOSE": 5807,
      "Ġwest": 5808,
      "adow": 5809,
      "ĠHun": 5810,
      "Ġtruly": 5811,
      "Ġproud": 5812,
      "Ġtelling": 5813,
      "ĠRon": 5814,
      "ĠJose": 5815,
      "Ġappl": 5816,
      "emen": 5817,
      "ĠJudge": 5818,
      "ĠOS": 5819,
      "Ġcontains": 5820,
      "Ġfavour": 5821,
      "ĠCapit": 5822,
      "Ġpurs": 5823,
      "Ġrecorded": 5824,
      "ĠConservative": 5825,
      "ĠAcad": 5826,
      "called": 5827,
      "Ġrich": 5828,
      "abin": 5829,
      "Ġunit": 5830,
      "Ġentered": 5831,
      "ĠDavis": 5832,
      "Ġsolid": 5833,
      "ĠItaly": 5834,
      "ĠRight": 5835,
      "apping": 5836,
      "Ġstanding": 5837,
      "Ġstarts": 5838,
      "Ġfocused": 5839,
      "Ġwear": 5840,
      "Ġfly": 5841,
      "Ġnetw": 5842,
      "Ġtele": 5843,
      "otted": 5844,
      "Ġelected": 5845,
      "ruption": 5846,
      "syl": 5847,
      "ĠBry": 5848,
      "ĠPay": 5849,
      "ĠNext": 5850,
      "ĠRoman": 5851,
      "rip": 5852,
      "Ġbegins": 5853,
      "Ġvillage": 5854,
      "ĠBaltimore": 5855,
      "ĠOntario": 5856,
      "ĠLove": 5857,
      "ĠOther": 5858,
      "Ġstrateg": 5859,
      "lined": 5860,
      "Ġexciting": 5861,
      "ĠSHAR": 5862,
      "ĠWat": 5863,
      "ordin": 5864,
      "Ġrecru": 5865,
      "nabis": 5866,
      "Ġgat": 5867,
      "Ġproduce": 5868,
      "Ġcelebrate": 5869,
      "Ġindividuals": 5870,
      "hell": 5871,
      "era": 5872,
      "Ġcraft": 5873,
      "Ġeth": 5874,
      "phy": 5875,
      "Ġtroops": 5876,
      "edia": 5877,
      "ĠCre": 5878,
      "Ġrail": 5879,
      "Ġdesk": 5880,
      "Ġtight": 5881,
      "lands": 5882,
      "ployment": 5883,
      "ĠAh": 5884,
      "imal": 5885,
      "Ġcomfort": 5886,
      "Ġunus": 5887,
      "Ġ2005": 5888,
      "Ġcurrency": 5889,
      "ĠEarlier": 5890,
      "Ġlinked": 5891,
      "Ġimagine": 5892,
      "Ġextremely": 5893,
      "ĠEntertainment": 5894,
      "Ġinitial": 5895,
      "ĠSydney": 5896,
      "Ġtrend": 5897,
      "Ġfit": 5898,
      "uts": 5899,
      "ĠBoth": 5900,
      "Ġcongress": 5901,
      "Ġsubst": 5902,
      "ĠPennsyl": 5903,
      "Ġcateg": 5904,
      "ĠOs": 5905,
      "Ġusual": 5906,
      "Is": 5907,
      "gu": 5908,
      "Ġalthough": 5909,
      "Ġsquad": 5910,
      "ĠBecause": 5911,
      "ĠPalestinian": 5912,
      "Ġparliament": 5913,
      "senal": 5914,
      "ĠOakland": 5915,
      "ĠJoin": 5916,
      "Ġaircraft": 5917,
      "ĠPatrick": 5918,
      "Ġrepeated": 5919,
      "Ġfifth": 5920,
      "cos": 5921,
      "aron": 5922,
      "ĠGra": 5923,
      "ĠLo": 5924,
      "Ġserver": 5925,
      "Ġfacility": 5926,
      "ĠBroad": 5927,
      "Ġteacher": 5928,
      "Ġpoliticians": 5929,
      "ĠHistory": 5930,
      "ĠUPDATE": 5931,
      "ĠTurkish": 5932,
      "quality": 5933,
      "Ġbackground": 5934,
      "Ġsurface": 5935,
      "ĠABC": 5936,
      "ĠCommunity": 5937,
      "Ġlargely": 5938,
      "Ġburn": 5939,
      "Ġmarkets": 5940,
      "Ġtonight": 5941,
      "ĠSpanish": 5942,
      "quarters": 5943,
      "rible": 5944,
      "Ġsuit": 5945,
      "ducing": 5946,
      "Ġproducer": 5947,
      "Ġpolls": 5948,
      "Ġwatched": 5949,
      "Ġchemical": 5950,
      "agues": 5951,
      "achus": 5952,
      "Ġcarried": 5953,
      "ĠBrook": 5954,
      "Ġhotel": 5955,
      "ĠPennsylvania": 5956,
      "Tr": 5957,
      "Ġlob": 5958,
      "Ġtalked": 5959,
      "gery": 5960,
      "Ġenvironmental": 5961,
      "Ġnar": 5962,
      "ĠMax": 5963,
      "ĠBell": 5964,
      "ĠMcD": 5965,
      "Ġsentenced": 5966,
      "heast": 5967,
      "ĠWater": 5968,
      "ĠGun": 5969,
      "Ġfiles": 5970,
      "Ġchoose": 5971,
      "Ġcraz": 5972,
      "ĠTest": 5973,
      "ĠNorthern": 5974,
      "izes": 5975,
      "Ġpresented": 5976,
      "ĠChelsea": 5977,
      "Ġcore": 5978,
      "Ġfilled": 5979,
      "Ġbatt": 5980,
      "Ġproviding": 5981,
      "BO": 5982,
      "ĠDet": 5983,
      "weet": 5984,
      "Ġconsist": 5985,
      "Ġfraud": 5986,
      "Ġreporter": 5987,
      "ĠBull": 5988,
      "Ġexpensive": 5989,
      "Ġexpansion": 5990,
      "ĠSea": 5991,
      "ĠParliament": 5992,
      "Ġactivist": 5993,
      "Ġfeaturing": 5994,
      "anes": 5995,
      "isation": 5996,
      "Ġeast": 5997,
      "odies": 5998,
      "covery": 5999,
      "Ġsuggested": 6000,
      "Ġlawyer": 6001,
      "Ġconflict": 6002,
      "arant": 6003,
      "aska": 6004,
      "ĠInstead": 6005,
      "ĠDenver": 6006,
      "agement": 6007,
      "Ġunlike": 6008,
      "iana": 6009,
      "Ġdetermin": 6010,
      "atically": 6011,
      "ĠNever": 6012,
      "ĠJord": 6013,
      "Ġcoffee": 6014,
      "Ġupdates": 6015,
      "Ġfolks": 6016,
      "ĠUtah": 6017,
      "achusetts": 6018,
      "hus": 6019,
      "iable": 6020,
      "erate": 6021,
      "Ġpled": 6022,
      "Ġhoping": 6023,
      "Ġapart": 6024,
      "game": 6025,
      "ĠDun": 6026,
      "Ġscandal": 6027,
      "Ġpossibly": 6028,
      "ĠBuy": 6029,
      "Ġrecover": 6030,
      "Ġenable": 6031,
      "Ġmedic": 6032,
      "Ġguide": 6033,
      "Ġeventually": 6034,
      "Ġrising": 6035,
      "ellow": 6036,
      "odd": 6037,
      "Ġ300": 6038,
      "Ġglass": 6039,
      "Ġrevolution": 6040,
      "Ġetc": 6041,
      "ĠBattle": 6042,
      "ĠWalk": 6043,
      "ĠFestival": 6044,
      "Ġentirely": 6045,
      "Ġcas": 6046,
      "ĠBuff": 6047,
      "ĠNavy": 6048,
      "Ġheads": 6049,
      "ĠTok": 6050,
      "Ġactual": 6051,
      "Ġmetal": 6052,
      "Ġaimed": 6053,
      "Ġtheory": 6054,
      "ĠFive": 6055,
      "Ġchain": 6056,
      "ĠYet": 6057,
      "Ġsurrounding": 6058,
      "pet": 6059,
      "acle": 6060,
      "ĠMat": 6061,
      "ĠWW": 6062,
      "ĠDear": 6063,
      "ulated": 6064,
      "Ġanticip": 6065,
      "Ġwelcome": 6066,
      "ĠBook": 6067,
      "Ġintended": 6068,
      "Ġscored": 6069,
      "Ġthoughts": 6070,
      "ĠWilson": 6071,
      "Ġmechan": 6072,
      "ĠLight": 6073,
      "Ġgenerally": 6074,
      "ho": 6075,
      "hand": 6076,
      "ĠPack": 6077,
      "osure": 6078,
      "apolis": 6079,
      "Ġ2000": 6080,
      "ointed": 6081,
      "Ġachieve": 6082,
      "mates": 6083,
      "Ġbreat": 6084,
      "Ġmal": 6085,
      "Ġdiplom": 6086,
      "Ġexecut": 6087,
      "ensions": 6088,
      "Ġdiscl": 6089,
      "Ġcaptured": 6090,
      "ĠPacific": 6091,
      "ĠSix": 6092,
      "Ġlibrary": 6093,
      "ĠCam": 6094,
      "ĠCast": 6095,
      "Ġclot": 6096,
      "ĠMassachusetts": 6097,
      "ĠWork": 6098,
      "sole": 6099,
      "Ġprompt": 6100,
      "Ġawesome": 6101,
      "Ġbrowser": 6102,
      "cow": 6103,
      "Ġcou": 6104,
      "Ġfaith": 6105,
      "irty": 6106,
      "ption": 6107,
      "eds": 6108,
      "ĠDate": 6109,
      "Ġrank": 6110,
      "Ġarmy": 6111,
      "Ġdeaths": 6112,
      "ĠCompany": 6113,
      "Ġheat": 6114,
      "ĠStart": 6115,
      "Ġsounds": 6116,
      "Ġolder": 6117,
      "Ġseparate": 6118,
      "Ġ34": 6119,
      "oving": 6120,
      "ĠAsia": 6121,
      "gressive": 6122,
      "Ġanalyst": 6123,
      "rast": 6124,
      "Ġurg": 6125,
      "ĠPolicy": 6126,
      "Ġsuspected": 6127,
      "Ġdefeat": 6128,
      "Ġfalse": 6129,
      "sey": 6130,
      "Ġunivers": 6131,
      "Ġ194": 6132,
      "Ġpurchase": 6133,
      "ĠIT": 6134,
      "essions": 6135,
      "ĠThose": 6136,
      "Ġnotes": 6137,
      "izon": 6138,
      "Ġreserved": 6139,
      "ĠPit": 6140,
      "ĠStaff": 6141,
      "Ġafford": 6142,
      "Ġcorporate": 6143,
      "Ġpages": 6144,
      "ĠForm": 6145,
      "Ġconvicted": 6146,
      "Ġschedule": 6147,
      "rome": 6148,
      "Ġexpressed": 6149,
      "ĠOrgan": 6150,
      "Ġreflect": 6151,
      "Ġinvolving": 6152,
      "Ġtend": 6153,
      "Ġsupply": 6154,
      "Ġfinds": 6155,
      "uzz": 6156,
      "Ġcook": 6157,
      "Ġtests": 6158,
      "ĠGovernor": 6159,
      "ef": 6160,
      "yo": 6161,
      "ĠCat": 6162,
      "ĠCome": 6163,
      "Ġbehavior": 6164,
      "ĠCatholic": 6165,
      "II": 6166,
      "oen": 6167,
      "Ġtim": 6168,
      "Ġreduce": 6169,
      "ilding": 6170,
      "Ġinfluence": 6171,
      "inder": 6172,
      "Ġcred": 6173,
      "Ġbigger": 6174,
      "Ġshar": 6175,
      "Ġconfirm": 6176,
      "standing": 6177,
      "Ġwhom": 6178,
      "Ġprefer": 6179,
      "Ġstudies": 6180,
      "Ġdefend": 6181,
      "Ġholds": 6182,
      "Ġcollabor": 6183,
      "orry": 6184,
      "ĠAR": 6185,
      "ĠOF": 6186,
      "ials": 6187,
      "ĠProgram": 6188,
      "ĠBo": 6189,
      "chain": 6190,
      "Ġdrink": 6191,
      "ĠAdministration": 6192,
      "Ġdelay": 6193,
      "ĠJoseph": 6194,
      "can": 6195,
      "ĠFair": 6196,
      "Ġadvert": 6197,
      "ĠPH": 6198,
      "ĠLand": 6199,
      "irds": 6200,
      "ani": 6201,
      "ĠDam": 6202,
      "ĠHom": 6203,
      "Ġvul": 6204,
      "aval": 6205,
      "ulture": 6206,
      "Ġentry": 6207,
      "fortunately": 6208,
      "ici": 6209,
      "Ġgrew": 6210,
      "ĠUr": 6211,
      "Ġrequires": 6212,
      "Ġdeadly": 6213,
      "****": 6214,
      "Ġwood": 6215,
      "ĠHi": 6216,
      "Ġ2019": 6217,
      "Ġjoint": 6218,
      "Ġwarm": 6219,
      "Ġterrit": 6220,
      "Ġpromised": 6221,
      "ĠSecond": 6222,
      "afe": 6223,
      "ĠMid": 6224,
      "acking": 6225,
      "azi": 6226,
      "UM": 6227,
      "acked": 6228,
      "Ġclick": 6229,
      "Ġadvant": 6230,
      "ulf": 6231,
      "ĠKh": 6232,
      "icken": 6233,
      "Ġbrings": 6234,
      "Ġbelief": 6235,
      "Ġattempted": 6236,
      "Ġtypes": 6237,
      "ritten": 6238,
      "roc": 6239,
      "ĠOnly": 6240,
      "Ġhappening": 6241,
      "ription": 6242,
      "Ġwrap": 6243,
      "Ġharm": 6244,
      "ĠSteven": 6245,
      "Ġsinger": 6246,
      "Ġresponded": 6247,
      "fire": 6248,
      "ining": 6249,
      "Ġdire": 6250,
      "Ġla": 6251,
      "ĠJam": 6252,
      "Ġmayor": 6253,
      "Ġrecommend": 6254,
      "Ġgift": 6255,
      "ĠForeign": 6256,
      "American": 6257,
      "33": 6258,
      "55": 6259,
      "ĠEach": 6260,
      "Ġdiscussed": 6261,
      "ĠMoore": 6262,
      "ĠPict": 6263,
      "ĠEduc": 6264,
      "Ġdetail": 6265,
      "ĠFla": 6266,
      "Ġairport": 6267,
      "Ġhealthy": 6268,
      "Ġpotentially": 6269,
      "Ġmeasures": 6270,
      "Ġsurveillance": 6271,
      "dra": 6272,
      "Ġexpert": 6273,
      "oves": 6274,
      "aze": 6275,
      "Ġrefused": 6276,
      "TH": 6277,
      "urer": 6278,
      "ĠLuc": 6279,
      "ĠOnline": 6280,
      "ĠTes": 6281,
      "ĠMiller": 6282,
      "how": 6283,
      "Ġfish": 6284,
      "ĠMitt": 6285,
      "ĠBang": 6286,
      "Ġminute": 6287,
      "Ġbegun": 6288,
      "ĠSnow": 6289,
      "lah": 6290,
      "Ġsurprised": 6291,
      "Ġcomedy": 6292,
      "opher": 6293,
      "ĠVan": 6294,
      "Ġsecure": 6295,
      "porary": 6296,
      "ĠSpain": 6297,
      "Ġconcerned": 6298,
      "emony": 6299,
      "ĠVR": 6300,
      "Ġphones": 6301,
      "emocracy": 6302,
      "Ġeastern": 6303,
      "Ġscientific": 6304,
      "month": 6305,
      "ĠMuslims": 6306,
      "ĠMatthew": 6307,
      "Ġspirit": 6308,
      "Bl": 6309,
      "isters": 6310,
      "Ġmental": 6311,
      "ĠField": 6312,
      "Ġvisual": 6313,
      "Ġcontroversy": 6314,
      "ĠJordan": 6315,
      "ias": 6316,
      "Ġaware": 6317,
      "Ġgang": 6318,
      "ĠLeader": 6319,
      "Ġfunds": 6320,
      "Ġdedicated": 6321,
      "):": 6322,
      "Ġsides": 6323,
      "ilton": 6324,
      "ĠFR": 6325,
      "rant": 6326,
      "Ġlength": 6327,
      "Ġcommand": 6328,
      "found": 6329,
      "Ġmoments": 6330,
      "ĠSociety": 6331,
      "Ġabortion": 6332,
      "graph": 6333,
      "ĠMedic": 6334,
      "inct": 6335,
      "Ġdat": 6336,
      "ĠJay": 6337,
      "Ġconce": 6338,
      "ossible": 6339,
      "Ġretire": 6340,
      "Ġsevere": 6341,
      "Ġmulti": 6342,
      "ITY": 6343,
      "related": 6344,
      "ĠHello": 6345,
      "bu": 6346,
      "Ġpra": 6347,
      "Ġrid": 6348,
      "Ġvast": 6349,
      "Ġsuspended": 6350,
      "Ġrefugees": 6351,
      "usalem": 6352,
      "ĠAnthony": 6353,
      "Ġfestival": 6354,
      "Ġbrut": 6355,
      "Ġprogramming": 6356,
      "Ġsuffering": 6357,
      "ald": 6358,
      "ĠVlad": 6359,
      "col": 6360,
      "tic": 6361,
      "ĠRay": 6362,
      "ĠVi": 6363,
      "Ġskin": 6364,
      "ĠKingdom": 6365,
      "Ġdogs": 6366,
      "Ġdozen": 6367,
      "Ġchallenges": 6368,
      "acity": 6369,
      "lando": 6370,
      "Ġfinish": 6371,
      "Ġbanned": 6372,
      "Ġsharing": 6373,
      "Ġdismiss": 6374,
      "Ġremark": 6375,
      "Ġsupported": 6376,
      "Ġfaced": 6377,
      "ributed": 6378,
      "Ġimpressive": 6379,
      "UN": 6380,
      "hab": 6381,
      "Ġfashion": 6382,
      "ĠColl": 6383,
      "ĠStand": 6384,
      "Ġuniverse": 6385,
      "ĠHey": 6386,
      "Ġalternative": 6387,
      "ĠIntroduction": 6388,
      "lished": 6389,
      "ĠWi": 6390,
      "Ġbright": 6391,
      "Ġhighlight": 6392,
      "ĠDevelopment": 6393,
      "ima": 6394,
      "ums": 6395,
      "Ġpregn": 6396,
      "Ġreturning": 6397,
      "phones": 6398,
      "Ġgreater": 6399,
      "Ġdifference": 6400,
      "Ġanaly": 6401,
      "Ġathlet": 6402,
      "Ġcopy": 6403,
      "Ġrapid": 6404,
      "Ġcells": 6405,
      "Ġgathered": 6406,
      "ĠLooking": 6407,
      "Ġabandon": 6408,
      "ervation": 6409,
      "Ġrespect": 6410,
      "Ġhardware": 6411,
      "ĠJerusalem": 6412,
      "Ġstreaming": 6413,
      "Ġtrouble": 6414,
      "law": 6415,
      "Ġtow": 6416,
      "ĠSouthern": 6417,
      "Ġalcohol": 6418,
      "essed": 6419,
      "amples": 6420,
      "Ġseriously": 6421,
      "Ġpattern": 6422,
      "Ġjournalist": 6423,
      "whel": 6424,
      "imir": 6425,
      "ipal": 6426,
      "Ġmarried": 6427,
      "ĠHarry": 6428,
      "Ġaid": 6429,
      "ĠID": 6430,
      "dis": 6431,
      "Ġboys": 6432,
      "ĠMoscow": 6433,
      "olved": 6434,
      "ĠBase": 6435,
      "Ġ48": 6436,
      "Ġdepart": 6437,
      "Ġwrites": 6438,
      "Ġlimit": 6439,
      "ĠMcCain": 6440,
      "ĠPriv": 6441,
      "Ġstick": 6442,
      "Ġcommunities": 6443,
      "Ġhonor": 6444,
      "Ġhorror": 6445,
      "ĠTODAY": 6446,
      "Ġassociated": 6447,
      "ĠTenness": 6448,
      "xit": 6449,
      "ĠRights": 6450,
      "Ġarms": 6451,
      "Ġprepared": 6452,
      "Ġwire": 6453,
      "ĠRa": 6454,
      "Ġtheme": 6455,
      "Ġthreats": 6456,
      "Ġpieces": 6457,
      "ĠProfess": 6458,
      "Ġending": 6459,
      "Ġbare": 6460,
      "Ġapolog": 6461,
      "ienced": 6462,
      "SS": 6463,
      "ĠAp": 6464,
      "ĠBas": 6465,
      "ĠFinal": 6466,
      "ĠOtt": 6467,
      "eping": 6468,
      "iate": 6469,
      "Ġdozens": 6470,
      "uggle": 6471,
      "Ġfollows": 6472,
      "Ġfootage": 6473,
      "ĠGolden": 6474,
      "75": 6475,
      "bn": 6476,
      "Ġlots": 6477,
      "Ġidentity": 6478,
      "ĠSarah": 6479,
      "mad": 6480,
      "ece": 6481,
      "Ġchampionship": 6482,
      "ĠDoct": 6483,
      "Ġdoctors": 6484,
      "Ġpurpose": 6485,
      "Ġphilos": 6486,
      "OC": 6487,
      "Ġwave": 6488,
      "Ġbag": 6489,
      "ĠCivil": 6490,
      "Ġaccur": 6491,
      "ervatives": 6492,
      "Ġuseful": 6493,
      "ĠSir": 6494,
      "Ġspons": 6495,
      "Ġadmin": 6496,
      "ĠOnce": 6497,
      "Ġreveals": 6498,
      "Ġphotograph": 6499,
      "Ġconsumers": 6500,
      "News": 6501,
      "Ġcru": 6502,
      "Ġhockey": 6503,
      "ĠEnd": 6504,
      "Ġbelong": 6505,
      "erts": 6506,
      "ĠOrlando": 6507,
      "Ġsummit": 6508,
      "inois": 6509,
      "Ġtweeted": 6510,
      "iat": 6511,
      "Ġflying": 6512,
      "Ġloved": 6513,
      "ĠJes": 6514,
      "Script": 6515,
      "acter": 6516,
      "ĠAsian": 6517,
      "ĠMars": 6518,
      "Ġ2004": 6519,
      "PG": 6520,
      "ench": 6521,
      "rying": 6522,
      "Ġhonest": 6523,
      "ĠServices": 6524,
      "Ġfaster": 6525,
      "rog": 6526,
      "Ġagents": 6527,
      "Ġcrimes": 6528,
      "Ġtransform": 6529,
      "Ġversions": 6530,
      "Ġaffect": 6531,
      "ĠIndiana": 6532,
      "Ġhat": 6533,
      "ĠLew": 6534,
      "ĠChair": 6535,
      "Ġbasis": 6536,
      "ĠMexican": 6537,
      "idency": 6538,
      "igger": 6539,
      "ĠRet": 6540,
      "ĠAcademy": 6541,
      "bol": 6542,
      "ĠLt": 6543,
      "ĠLyn": 6544,
      "Ġnumerous": 6545,
      "va": 6546,
      "ĠBlog": 6547,
      "Ġheaded": 6548,
      "ĠConf": 6549,
      "Ġadvance": 6550,
      "Ġlisten": 6551,
      "Ġreligion": 6552,
      "ĠOklah": 6553,
      "ĠKl": 6554,
      "ĠAnother": 6555,
      "Ġpreparing": 6556,
      "Ã¶": 6557,
      "sters": 6558,
      "Ġagencies": 6559,
      "ĠCheck": 6560,
      "ĠCapitol": 6561,
      "Ġped": 6562,
      "Ġpitch": 6563,
      "agram": 6564,
      "owned": 6565,
      "Ġadults": 6566,
      "Ġexpress": 6567,
      "ĠHead": 6568,
      "Ġ2001": 6569,
      "Ġentertain": 6570,
      "Ġactivities": 6571,
      "ĠIllinois": 6572,
      "Ġrelatively": 6573,
      "ĠTaylor": 6574,
      "ye": 6575,
      "Ġhell": 6576,
      "ĠUb": 6577,
      "Ġvision": 6578,
      "eller": 6579,
      "ĠArk": 6580,
      "Ġarchitect": 6581,
      "!âĢĿ": 6582,
      "DS": 6583,
      "Ġwish": 6584,
      "ĠLittle": 6585,
      "Ġdecide": 6586,
      "ĠArsenal": 6587,
      "Ġsupporting": 6588,
      "EST": 6589,
      "Ġcreative": 6590,
      "Ġfailure": 6591,
      "Ġemployee": 6592,
      "Ġsatell": 6593,
      "ĠOlympic": 6594,
      "Ġsch": 6595,
      "alty": 6596,
      "ĠBall": 6597,
      "ĠPop": 6598,
      "andom": 6599,
      "ureau": 6600,
      "Ġherself": 6601,
      "Ġartists": 6602,
      "Ġbirthday": 6603,
      "heme": 6604,
      "onom": 6605,
      "owed": 6606,
      "Ġremove": 6607,
      "Ġadvice": 6608,
      "Ã¤": 6609,
      "Ĥ¬": 6610,
      "Ġmine": 6611,
      "ĠAud": 6612,
      "ĠAsh": 6613,
      "ĠDeb": 6614,
      "Ġbuildings": 6615,
      "Ġhanded": 6616,
      "Ġtradition": 6617,
      "Ġwed": 6618,
      "Ġfeels": 6619,
      "Ġsurgery": 6620,
      "Ġestimated": 6621,
      "ĠHospital": 6622,
      "Ġresources": 6623,
      "Ġloan": 6624,
      "Ġceremony": 6625,
      "pass": 6626,
      "Ġring": 6627,
      "endum": 6628,
      "Ġchannel": 6629,
      "Ġjourney": 6630,
      "ogan": 6631,
      "ĠEdward": 6632,
      "ynam": 6633,
      "Ġliberal": 6634,
      "Ġunusual": 6635,
      "Ġthinks": 6636,
      "ĠLu": 6637,
      "Ġmarketing": 6638,
      "Ġreturns": 6639,
      "Ġphotograp": 6640,
      "ĠPatri": 6641,
      "Ġshopping": 6642,
      "Ġstorage": 6643,
      "ĠDid": 6644,
      "ĠJud": 6645,
      "ĠShares": 6646,
      "Ġreceiving": 6647,
      "Ġwalked": 6648,
      "aser": 6649,
      "rene": 6650,
      "Ġmonitor": 6651,
      "Ġremote": 6652,
      "Ġvulner": 6653,
      "49": 6654,
      "ĠSource": 6655,
      "ĠNC": 6656,
      "Ġfrustr": 6657,
      "Ġpromise": 6658,
      "ĠOklahoma": 6659,
      "imp": 6660,
      "Ġclin": 6661,
      "Ġheading": 6662,
      "Ġmarks": 6663,
      "Ġsweet": 6664,
      "utter": 6665,
      "oked": 6666,
      "Ġcausing": 6667,
      "ĠAirport": 6668,
      "There": 6669,
      "Ġcarbon": 6670,
      "ĠCentre": 6671,
      "rich": 6672,
      "Ġdiss": 6673,
      "Ġplants": 6674,
      "Ġshortly": 6675,
      "Ġcondem": 6676,
      "Ġexisting": 6677,
      "Ġiconic": 6678,
      "An": 6679,
      "vy": 6680,
      "inem": 6681,
      "ĠON": 6682,
      "riter": 6683,
      "ĠRoyal": 6684,
      "ĠPok": 6685,
      "ĠEastern": 6686,
      "ĠVice": 6687,
      "Ġoverse": 6688,
      "?\"": 6689,
      "water": 6690,
      "Ġsand": 6691,
      "ĠSom": 6692,
      "ĠET": 6693,
      "ĠKick": 6694,
      "Ġharass": 6695,
      "piracy": 6696,
      "ĠTour": 6697,
      "ĠSAN": 6698,
      "abled": 6699,
      "Ġappeal": 6700,
      "know": 6701,
      "Ġfasc": 6702,
      "ĠMir": 6703,
      "Ġyoun": 6704,
      "Ġgrab": 6705,
      "Ġtomorrow": 6706,
      "ko": 6707,
      "orter": 6708,
      "Ġbom": 6709,
      "ĠSat": 6710,
      "ĠAren": 6711,
      "anged": 6712,
      "ologist": 6713,
      "Ġpublicly": 6714,
      "ĠFamily": 6715,
      "DP": 6716,
      "NBC": 6717,
      "âĢľ": 6718,
      "olen": 6719,
      "Ġvice": 6720,
      "ĠArg": 6721,
      "ĠGreek": 6722,
      "ĠVladimir": 6723,
      "amac": 6724,
      "Ġmeat": 6725,
      "Ġenthus": 6726,
      "ĠSean": 6727,
      "Ġapprox": 6728,
      "stitutional": 6729,
      "ĠRen": 6730,
      "ĠYesterday": 6731,
      "Ġ37": 6732,
      "Ġcreation": 6733,
      "Ġpassing": 6734,
      "Ġunderstanding": 6735,
      "ĠMuseum": 6736,
      "umber": 6737,
      "Ġconsumer": 6738,
      "ĠAFP": 6739,
      "unte": 6740,
      "ĠHard": 6741,
      "Ġserving": 6742,
      "AY": 6743,
      "ĠEag": 6744,
      "ĠJac": 6745,
      "Ġowned": 6746,
      "AK": 6747,
      "mm": 6748,
      "ĠPublished": 6749,
      "ĠUber": 6750,
      "ĠRepresent": 6751,
      "Ġprotection": 6752,
      "ĠRobin": 6753,
      "ĠBrooklyn": 6754,
      "36": 6755,
      "mate": 6756,
      "ĠSa": 6757,
      "ĠId": 6758,
      "ĠMORE": 6759,
      "Ġsuppl": 6760,
      "Ġheadquarters": 6761,
      "itar": 6762,
      "ouri": 6763,
      "ĠMetro": 6764,
      "Ġeating": 6765,
      "ĠBron": 6766,
      "Ġwebsites": 6767,
      "Ġpartnership": 6768,
      "Ã¼": 6769,
      "ĠCow": 6770,
      "eland": 6771,
      "Ġnoted": 6772,
      "Ġensure": 6773,
      "ĠTennessee": 6774,
      "Ġtun": 6775,
      "Ġlock": 6776,
      "ami": 6777,
      "rave": 6778,
      "Ġweekly": 6779,
      "rett": 6780,
      "ĠMarket": 6781,
      "If": 6782,
      "Ġsector": 6783,
      "Ġearned": 6784,
      "rastructure": 6785,
      "rage": 6786,
      "ĠSE": 6787,
      "Ġinvestors": 6788,
      "Ġtrading": 6789,
      "Ġcable": 6790,
      "Ġresolution": 6791,
      "Ġspecifically": 6792,
      "ĠTechnology": 6793,
      "gar": 6794,
      "ĠDave": 6795,
      "ching": 6796,
      "Ġbuying": 6797,
      "Ġsoccer": 6798,
      "Ġclearly": 6799,
      "expected": 6800,
      "ĠPitts": 6801,
      "fall": 6802,
      "lock": 6803,
      "ĠWhere": 6804,
      "ĠKo": 6805,
      "Ġspark": 6806,
      "Ġcloud": 6807,
      "Ġexperienced": 6808,
      "Ġskills": 6809,
      "Ġobvious": 6810,
      "cons": 6811,
      "Ġbodies": 6812,
      "ĠOper": 6813,
      "Ġinternal": 6814,
      "ĠMoham": 6815,
      "ĠMotor": 6816,
      "][": 6817,
      "Ġtree": 6818,
      "Ġfantasy": 6819,
      "ĠThough": 6820,
      "encing": 6821,
      "Ġargument": 6822,
      "ĠScottish": 6823,
      "road": 6824,
      "Ġstood": 6825,
      "ĠList": 6826,
      "ulate": 6827,
      "Ġtitles": 6828,
      "ĠTesla": 6829,
      "ĠDev": 6830,
      "appy": 6831,
      "ĠAssociated": 6832,
      "ĠMontreal": 6833,
      "amacare": 6834,
      "Ġleaked": 6835,
      "Ġplug": 6836,
      "Ġwilling": 6837,
      "issions": 6838,
      "Ġmessages": 6839,
      "Ġsad": 6840,
      "Ġsick": 6841,
      "enda": 6842,
      "ipment": 6843,
      "ĠEnvironment": 6844,
      "ĠEducation": 6845,
      "enez": 6846,
      "Ġalongside": 6847,
      "Ġweapon": 6848,
      "ĠQueens": 6849,
      "ĠBE": 6850,
      "ĠGirl": 6851,
      "Ġkne": 6852,
      "Ġscore": 6853,
      "ĠAbb": 6854,
      "engers": 6855,
      "Ġpushing": 6856,
      "arry": 6857,
      "asure": 6858,
      "ĠTem": 6859,
      "azz": 6860,
      "Ġdiscrim": 6861,
      "Ġdefinitely": 6862,
      "CO": 6863,
      "Ġforg": 6864,
      "ĠViet": 6865,
      "Star": 6866,
      "Ġ1980": 6867,
      "Ġdoctor": 6868,
      "Ġthank": 6869,
      "anny": 6870,
      "ĠJeremy": 6871,
      "Ġven": 6872,
      "Ġrecall": 6873,
      "ĠArm": 6874,
      "ĠBruce": 6875,
      "LC": 6876,
      "Ġunderst": 6877,
      "Ġnegative": 6878,
      "ĠCirc": 6879,
      "Ġbenefit": 6880,
      "Ġphen": 6881,
      "quir": 6882,
      "Ġresist": 6883,
      "Ġlisted": 6884,
      "Ġapproval": 6885,
      "Ġpossibility": 6886,
      "ĠAgain": 6887,
      "Ġdinner": 6888,
      "Ġpool": 6889,
      "ĠTech": 6890,
      "ĠStore": 6891,
      "ĠVis": 6892,
      "Ġcannabis": 6893,
      "Ġ38": 6894,
      "ĠCross": 6895,
      "ria": 6896,
      "orders": 6897,
      "Ġseconds": 6898,
      "Ġmidfielder": 6899,
      "ĠWales": 6900,
      "Ġshape": 6901,
      "Ġobtained": 6902,
      "shire": 6903,
      "Ġsending": 6904,
      "Ġnone": 6905,
      "ĠCost": 6906,
      "ĠJess": 6907,
      "scape": 6908,
      "Ġprominent": 6909,
      "ĠKentucky": 6910,
      "stone": 6911,
      "uration": 6912,
      "ecution": 6913,
      "Ġestablished": 6914,
      "Ġ........": 6915,
      "isp": 6916,
      "ĠPass": 6917,
      "ellent": 6918,
      "Ġscale": 6919,
      "Ġdenied": 6920,
      "ĠJonathan": 6921,
      "ĠScientists": 6922,
      "ĠUlt": 6923,
      "Ġslightly": 6924,
      "ashes": 6925,
      "gun": 6926,
      "itable": 6927,
      "Ġfake": 6928,
      "ĠTrib": 6929,
      "ĠHas": 6930,
      "Ġ(@": 6931,
      "Ġcomplic": 6932,
      "ologists": 6933,
      "Ġid": 6934,
      "Ġnations": 6935,
      "ĠBad": 6936,
      "verse": 6937,
      "ulous": 6938,
      "ĠInf": 6939,
      "Ġtrick": 6940,
      "elfast": 6941,
      "Ġstandards": 6942,
      "Ġtask": 6943,
      "Ġmainstream": 6944,
      "Ġraising": 6945,
      "ĠColumbia": 6946,
      "32": 6947,
      "ĠCra": 6948,
      "Ġgrown": 6949,
      "Ġotherwise": 6950,
      "ĠMcG": 6951,
      "cription": 6952,
      "bourne": 6953,
      "37": 6954,
      "Ġmand": 6955,
      "ĠAle": 6956,
      "Ġflags": 6957,
      "attan": 6958,
      "34": 6959,
      "ML": 6960,
      "ache": 6961,
      "ĠBul": 6962,
      "Ġcomputers": 6963,
      "nings": 6964,
      "Ġendors": 6965,
      "ĠSever": 6966,
      "Ġdirected": 6967,
      "Ġfears": 6968,
      "ĠAS": 6969,
      "Ġfort": 6970,
      "abeth": 6971,
      "izza": 6972,
      "Ġblow": 6973,
      "Ġheadlines": 6974,
      "ĠVietn": 6975,
      "but": 6976,
      "iot": 6977,
      "Ġtall": 6978,
      "icing": 6979,
      "ĠMail": 6980,
      "ĠPen": 6981,
      "Ġshares": 6982,
      "away": 6983,
      "Ġassum": 6984,
      "Ġjournalists": 6985,
      "ĠCameron": 6986,
      "Ġfighters": 6987,
      "ĠMill": 6988,
      "ĠPot": 6989,
      "ĠDog": 6990,
      "Ġresign": 6991,
      "obs": 6992,
      "Ġblast": 6993,
      "Ġconsult": 6994,
      "ĠSteam": 6995,
      "Ġhomeless": 6996,
      "ĠDesign": 6997,
      "Ġlabel": 6998,
      "Ġhits": 6999,
      "Ġdress": 7000,
      "agan": 7001,
      "Ġfalling": 7002,
      "Ġing": 7003,
      "Ġfill": 7004,
      "ĠMs": 7005,
      "ĠMah": 7006,
      "ĠRoss": 7007,
      "ĠGaza": 7008,
      "Ġsurf": 7009,
      "Ġminimum": 7010,
      "lig": 7011,
      "utation": 7012,
      "ĠWarren": 7013,
      "Ġhosted": 7014,
      "Ġindustrial": 7015,
      "iro": 7016,
      "Ġwel": 7017,
      "Ġstated": 7018,
      "Ġstructure": 7019,
      "Ġadvanced": 7020,
      "urricane": 7021,
      "ht": 7022,
      "Ġlie": 7023,
      "Ġstruggling": 7024,
      "ĠArena": 7025,
      "Ġwestern": 7026,
      "ĠMLS": 7027,
      "Ġcrazy": 7028,
      "Ġinaug": 7029,
      "uls": 7030,
      "Ġflo": 7031,
      "ijing": 7032,
      "Ġticket": 7033,
      "Ġfiction": 7034,
      "kee": 7035,
      "Ġunits": 7036,
      "Ġoverwhel": 7037,
      "ĠMedical": 7038,
      "oration": 7039,
      "Ġpic": 7040,
      "Ġ2020": 7041,
      "ĠProv": 7042,
      "Ġmoves": 7043,
      "Ġcameras": 7044,
      "UP": 7045,
      "What": 7046,
      "gment": 7047,
      "Ġwer": 7048,
      "ĠCIA": 7049,
      "ĠDraft": 7050,
      "Ġwhatever": 7051,
      "Ġspin": 7052,
      "Ġscheme": 7053,
      "Ġpresence": 7054,
      "idelines": 7055,
      "bro": 7056,
      "Ġporn": 7057,
      "ĠDem": 7058,
      "ĠGary": 7059,
      "ĠResearchers": 7060,
      "Ġjoining": 7061,
      "respond": 7062,
      "asp": 7063,
      "ĠDNA": 7064,
      "Ġbills": 7065,
      "Ġcritics": 7066,
      "Ġviewers": 7067,
      "Ġterrorism": 7068,
      "ĠIntelligence": 7069,
      "ĠIII": 7070,
      "________": 7071,
      "Ġpushed": 7072,
      "Ġpilot": 7073,
      "38": 7074,
      "car": 7075,
      "Ġbull": 7076,
      "Ġyes": 7077,
      "Ġaffili": 7078,
      "UTERS": 7079,
      "ĠMaryland": 7080,
      "Ġmentioned": 7081,
      "inating": 7082,
      "ĠSher": 7083,
      "ĠNear": 7084,
      "ework": 7085,
      "ĠBeijing": 7086,
      "Ġedge": 7087,
      "Ġdivision": 7088,
      "Ġdocumentary": 7089,
      "ĠPittsburgh": 7090,
      "Ġbunch": 7091,
      "Ġpip": 7092,
      "otes": 7093,
      "Ġdecisions": 7094,
      "Ġimmigrants": 7095,
      "iere": 7096,
      "Ġforget": 7097,
      "Ġstress": 7098,
      "empts": 7099,
      "Ġworker": 7100,
      "Ġswitch": 7101,
      "ĠSummer": 7102,
      "ivery": 7103,
      "zy": 7104,
      "ĠCook": 7105,
      "amm": 7106,
      "comm": 7107,
      "ĠDeath": 7108,
      "Ġdrinking": 7109,
      "Ġjournalism": 7110,
      "unications": 7111,
      "TO": 7112,
      "acement": 7113,
      "Ġbecomes": 7114,
      "ĠNev": 7115,
      "Ġthreatened": 7116,
      "ĠMagic": 7117,
      "Ġselected": 7118,
      "Ġnomination": 7119,
      "ĠJavaScript": 7120,
      "Ġastron": 7121,
      "ja": 7122,
      "ÃŃ": 7123,
      "ĠAccess": 7124,
      "Ġadult": 7125,
      "reprene": 7126,
      "ĠOttawa": 7127,
      "har": 7128,
      "ĠStation": 7129,
      "Ġdeterm": 7130,
      "Ġsentence": 7131,
      "Ġaudio": 7132,
      "onder": 7133,
      "Ġexhib": 7134,
      "Ġselection": 7135,
      "Ġleaves": 7136,
      "pper": 7137,
      "Ġplastic": 7138,
      "Ġrecipe": 7139,
      "ĠObamacare": 7140,
      "Ġpredict": 7141,
      "Ġreferendum": 7142,
      "hour": 7143,
      "uated": 7144,
      "Ġpowers": 7145,
      "Ġspotted": 7146,
      "Ġsets": 7147,
      "Ġreceiver": 7148,
      "Ġtitled": 7149,
      "ĠBelg": 7150,
      "Ġtrailer": 7151,
      "Ġrejected": 7152,
      "ĠDigital": 7153,
      "Ġlik": 7154,
      "ĠPers": 7155,
      "ĠInformation": 7156,
      "Ġunem": 7157,
      "Ġequipment": 7158,
      "ĠSP": 7159,
      "Ġgain": 7160,
      "etic": 7161,
      "Ġattended": 7162,
      "claim": 7163,
      "ĠWiki": 7164,
      "Ġexperiment": 7165,
      "ĠBatman": 7166,
      "ura": 7167,
      "Ġstolen": 7168,
      "ĠUC": 7169,
      "Ġfounded": 7170,
      "Ġtransition": 7171,
      "ĠJesus": 7172,
      "CBS": 7173,
      "dr": 7174,
      "mary": 7175,
      "vant": 7176,
      "Ġhitting": 7177,
      "Ġwaste": 7178,
      "Ġradical": 7179,
      "ĠSometimes": 7180,
      "mosp": 7181,
      "Ġsight": 7182,
      "ascript": 7183,
      "Ġegg": 7184,
      "Ġdeputy": 7185,
      "Ġvisited": 7186,
      "Ġnecessary": 7187,
      "Ġ..........": 7188,
      "Ar": 7189,
      "bo": 7190,
      "cious": 7191,
      "Ġmail": 7192,
      "thon": 7193,
      "ĠMinistry": 7194,
      "Ġ1990": 7195,
      "ĠAntonio": 7196,
      "39": 7197,
      "bar": 7198,
      "Ġble": 7199,
      "ĠAst": 7200,
      "ĠData": 7201,
      "Ġincredible": 7202,
      "ĠTokyo": 7203,
      "ĠFriend": 7204,
      "bel": 7205,
      "pire": 7206,
      "Ġrook": 7207,
      "Ġactress": 7208,
      "Ġplot": 7209,
      "Ġscreens": 7210,
      "Ġimpossible": 7211,
      "Ġexplained": 7212,
      "Ġcustomer": 7213,
      "ĠIranian": 7214,
      "Ġadvantage": 7215,
      "CE": 7216,
      "pective": 7217,
      "xual": 7218,
      "ĠCA": 7219,
      "ĠHT": 7220,
      "Ġregime": 7221,
      "ĠGreece": 7222,
      "Ġteachers": 7223,
      "ĠSweden": 7224,
      "ennis": 7225,
      "ĠExpl": 7226,
      "ĠIntel": 7227,
      "ĠBrexit": 7228,
      "ĠAtlantic": 7229,
      "ĠRose": 7230,
      "ĠGT": 7231,
      "Ġexplo": 7232,
      "ĠSoccer": 7233,
      "Ġsongs": 7234,
      "Ġtrees": 7235,
      "ĠSHARES": 7236,
      "ĠChannel": 7237,
      "Ġcompar": 7238,
      "Ġdisaster": 7239,
      "ĠWarner": 7240,
      "ĠEliz": 7241,
      "ĠRecently": 7242,
      "look": 7243,
      "ĠLind": 7244,
      "Ġsquare": 7245,
      "ĠPhilippines": 7246,
      "iti": 7247,
      "ali": 7248,
      "ĠPA": 7249,
      "ĠStone": 7250,
      "Ġapprec": 7251,
      "Ġperman": 7252,
      "Ġ2003": 7253,
      "Ġpayment": 7254,
      "Ġmixed": 7255,
      "Ġbattery": 7256,
      "Ġties": 7257,
      "Ġmos": 7258,
      "fast": 7259,
      "ishes": 7260,
      "icial": 7261,
      "ĠAaron": 7262,
      "ecraft": 7263,
      "Ġtechnical": 7264,
      "Ġsexually": 7265,
      "Ġcourtesy": 7266,
      "Ġassistant": 7267,
      "overy": 7268,
      "ĠCore": 7269,
      "Ġgovernments": 7270,
      "ĠEdit": 7271,
      "Ġsustain": 7272,
      "enezuel": 7273,
      "itary": 7274,
      "ounced": 7275,
      "Ġadapt": 7276,
      "avor": 7277,
      "ugby": 7278,
      "Ġentering": 7279,
      "Ġcaptain": 7280,
      "Ġreviews": 7281,
      "ĠMelbourne": 7282,
      "front": 7283,
      "ixt": 7284,
      "Ġunless": 7285,
      "ĠKat": 7286,
      "ĠVill": 7287,
      "Ġhousehold": 7288,
      "Ġvalues": 7289,
      "Ġsenator": 7290,
      "ĠMissouri": 7291,
      "ĠHenry": 7292,
      "aly": 7293,
      "ĠBR": 7294,
      "Ġstadium": 7295,
      "ples": 7296,
      "Ġ400": 7297,
      "Ġaffected": 7298,
      "ĠREUTERS": 7299,
      "with": 7300,
      "woman": 7301,
      "orne": 7302,
      "ĠAz": 7303,
      "stock": 7304,
      "olph": 7305,
      "ĠBureau": 7306,
      "aka": 7307,
      "Ġdoors": 7308,
      "Ġsubs": 7309,
      "Ġhelps": 7310,
      "Ġconfront": 7311,
      "Ġconclud": 7312,
      "Ġcultural": 7313,
      "Ġfemin": 7314,
      "Ġtargeted": 7315,
      "AV": 7316,
      "eries": 7317,
      "Ġsister": 7318,
      "Ġbath": 7319,
      "Ġlikes": 7320,
      "ĠNob": 7321,
      "ĠFilm": 7322,
      "Ġbound": 7323,
      "Ġmort": 7324,
      "ĠCITY": 7325,
      "ĠRac": 7326,
      "opp": 7327,
      "Ġposting": 7328,
      "Ġfacts": 7329,
      "Ġpatient": 7330,
      "Ġmax": 7331,
      "Ġlit": 7332,
      "Ġ39": 7333,
      "ĠIndepend": 7334,
      "ĠModi": 7335,
      "Ġdegree": 7336,
      "Ġnetworks": 7337,
      "rell": 7338,
      "Ġearn": 7339,
      "Ġcheap": 7340,
      "Ġmatches": 7341,
      "Ġvirus": 7342,
      "oenix": 7343,
      "Ġphenomen": 7344,
      "HI": 7345,
      "ĠHay": 7346,
      "Ġconsole": 7347,
      "mann": 7348,
      "Ġexperiences": 7349,
      "cts": 7350,
      "ï¿": 7351,
      "asters": 7352,
      "Ġprove": 7353,
      "abilities": 7354,
      "ĠPrint": 7355,
      "ĠConvention": 7356,
      "Ġexplains": 7357,
      "ĠHarris": 7358,
      "Ġhurt": 7359,
      "ules": 7360,
      "awks": 7361,
      "Ġremind": 7362,
      "Ġvisiting": 7363,
      "Ġracing": 7364,
      "ĠDutch": 7365,
      "Ġprobe": 7366,
      "ogue": 7367,
      "Ġwarming": 7368,
      "ĠEarly": 7369,
      "ĠCorp": 7370,
      "Ġlaunching": 7371,
      "ĠLiberal": 7372,
      "Ġdiagn": 7373,
      "ĠHawai": 7374,
      "GE": 7375,
      "sec": 7376,
      "alid": 7377,
      "unction": 7378,
      "aga": 7379,
      "Ġattempts": 7380,
      "Ġ75": 7381,
      "class": 7382,
      "ĠHamilton": 7383,
      "Ġteenager": 7384,
      "Ġstrength": 7385,
      "dy": 7386,
      "tle": 7387,
      "ĠNOT": 7388,
      "ĠLord": 7389,
      "ĠExt": 7390,
      "Ġcruc": 7391,
      "Ġtroub": 7392,
      "Ġexercise": 7393,
      "Ġbear": 7394,
      "ĠOcean": 7395,
      "apse": 7396,
      "Ġque": 7397,
      "ĠMichel": 7398,
      "Ġdollar": 7399,
      "ĠWalker": 7400,
      "lan": 7401,
      "ta": 7402,
      "uction": 7403,
      "Ġsought": 7404,
      "umer": 7405,
      "Ġunexpected": 7406,
      "Ġjury": 7407,
      "Ġscript": 7408,
      "Ġrose": 7409,
      "Ġtalent": 7410,
      "Ġillustr": 7411,
      "48": 7412,
      "Op": 7413,
      "PM": 7414,
      "Ġlies": 7415,
      "ĠBox": 7416,
      "icket": 7417,
      "Ġencounter": 7418,
      "Ġwins": 7419,
      "oric": 7420,
      "icit": 7421,
      "ĠCreat": 7422,
      "ĠBol": 7423,
      "Ġpreview": 7424,
      "Ġends": 7425,
      "Ġdrag": 7426,
      "Ġwounded": 7427,
      "Ġabsolutely": 7428,
      "Ġcust": 7429,
      "Ġdra": 7430,
      "Ġrevenue": 7431,
      "ĠFight": 7432,
      "Ġtrigger": 7433,
      "ensus": 7434,
      "Ġfundament": 7435,
      "Ġdescribe": 7436,
      "Ġlicense": 7437,
      "Ġprospect": 7438,
      "Ġtackle": 7439,
      "ï¿½": 7440,
      "Ġtort": 7441,
      "riate": 7442,
      "lder": 7443,
      "ocur": 7444,
      "ĠKir": 7445,
      "ĠVenezuel": 7446,
      "ĠMaybe": 7447,
      "Ġdetailed": 7448,
      "Ġinfrastructure": 7449,
      "ORT": 7450,
      "ĠCorn": 7451,
      "ĠLoc": 7452,
      "rence": 7453,
      "Ġleads": 7454,
      "Ġretired": 7455,
      "Ġextension": 7456,
      "Ġforest": 7457,
      "ĠJavascript": 7458,
      "ihad": 7459,
      "ĠElizabeth": 7460,
      "world": 7461,
      "rehens": 7462,
      "ĠSon": 7463,
      "Ġliqu": 7464,
      "Ġtermin": 7465,
      "abinet": 7466,
      "Ġapproximately": 7467,
      "Ġraid": 7468,
      "Ġdiscovery": 7469,
      "Ġblame": 7470,
      "Ġguess": 7471,
      "Ġcontinuing": 7472,
      "ĠÂ©": 7473,
      "Ġmir": 7474,
      "ĠFreedom": 7475,
      "Ġalive": 7476,
      "ĠAndre": 7477,
      "Ġcapacity": 7478,
      "Ġpassion": 7479,
      "Ġmarked": 7480,
      "ĠCorpor": 7481,
      "For": 7482,
      "pton": 7483,
      "ampa": 7484,
      "Ġregional": 7485,
      "Ġracist": 7486,
      "Ġanswers": 7487,
      "Ġbat": 7488,
      "etime": 7489,
      "Ġflat": 7490,
      "Ġstruggle": 7491,
      "Ġoccasion": 7492,
      "ĠManh": 7493,
      "ĠQuest": 7494,
      "Ġidentify": 7495,
      "Ġdatab": 7496,
      "68": 7497,
      "NS": 7498,
      "ao": 7499,
      "Ġtact": 7500,
      "Ġgall": 7501,
      "Ġforms": 7502,
      "Ġreleases": 7503,
      "ĠAllen": 7504,
      "Ġentertainment": 7505,
      "ĠPent": 7506,
      "print": 7507,
      "Ġdevast": 7508,
      "Ġoptim": 7509,
      "Ġepisodes": 7510,
      "ĠInvestig": 7511,
      "Ġlocations": 7512,
      "ĠPhoenix": 7513,
      "PC": 7514,
      "hop": 7515,
      "ĠLine": 7516,
      "ĠBridge": 7517,
      "Ġhandle": 7518,
      "ĠReds": 7519,
      "list": 7520,
      "rum": 7521,
      "Ġtheat": 7522,
      "ĠDer": 7523,
      "anges": 7524,
      "Ġsmaller": 7525,
      "ĠCharlie": 7526,
      "ĠSeveral": 7527,
      "Ġmere": 7528,
      "ĠRap": 7529,
      "Ġwithd": 7530,
      "okes": 7531,
      "Ġacknow": 7532,
      "Ġinstruct": 7533,
      "ĠEngine": 7534,
      "Ġinvolve": 7535,
      "cling": 7536,
      "Ġdeploy": 7537,
      "break": 7538,
      "Ġroughly": 7539,
      "Ġtag": 7540,
      "Ġreaction": 7541,
      "ĠWinter": 7542,
      "resents": 7543,
      "Ġshots": 7544,
      "rowing": 7545,
      "Ġstartup": 7546,
      "ĠAdv": 7547,
      "interest": 7548,
      "aration": 7549,
      "ĠMess": 7550,
      "Ġbeating": 7551,
      "Ġplus": 7552,
      "Ġkil": 7553,
      "Ġnearby": 7554,
      "itchen": 7555,
      "Ġexcellent": 7556,
      "Ġestate": 7557,
      "ĠQueen": 7558,
      "Ġtickets": 7559,
      "ocolate": 7560,
      "igare": 7561,
      "uted": 7562,
      "uties": 7563,
      "ĠHockey": 7564,
      "Ġcanc": 7565,
      "Ġdirection": 7566,
      "Ġweren": 7567,
      "ĠAge": 7568,
      "ela": 7569,
      "ĠLear": 7570,
      "Ġweak": 7571,
      "ĠLeon": 7572,
      "Ġreleasing": 7573,
      "Ġ150": 7574,
      "ĠPage": 7575,
      "osite": 7576,
      "Ġshift": 7577,
      "Ġmyth": 7578,
      "Ġbeta": 7579,
      "ĠAndy": 7580,
      "Ġguarant": 7581,
      "Ġcircum": 7582,
      "Ġmachines": 7583,
      "Ġtreated": 7584,
      "47": 7585,
      "ĠFund": 7586,
      "ĠHu": 7587,
      "Ġchat": 7588,
      "Ġremaining": 7589,
      "Ġintroduce": 7590,
      "Ġreferred": 7591,
      "ĠCraig": 7592,
      "No": 7593,
      "Ġtut": 7594,
      "acon": 7595,
      "Ġshock": 7596,
      "ĠThings": 7597,
      "Ġphr": 7598,
      "Ġpassengers": 7599,
      "ĠExper": 7600,
      "Ġfriendly": 7601,
      "Ġelectronic": 7602,
      "winning": 7603,
      "300": 7604,
      "pson": 7605,
      "isan": 7606,
      "Ġpatch": 7607,
      "irts": 7608,
      "ĠReserve": 7609,
      "ĠIraqi": 7610,
      "Ġgotten": 7611,
      "utral": 7612,
      "ĠPros": 7613,
      "Ġnewest": 7614,
      "aven": 7615,
      "inch": 7616,
      "itled": 7617,
      "Ġdub": 7618,
      "ryst": 7619,
      "ĠTrade": 7620,
      "Ġ1970": 7621,
      "ĠAlexander": 7622,
      "IVE": 7623,
      "Ġsuddenly": 7624,
      "Ġdetermine": 7625,
      "Ġbars": 7626,
      "ione": 7627,
      "OND": 7628,
      "Ġinitially": 7629,
      "ĠWhether": 7630,
      "Un": 7631,
      "Ġtank": 7632,
      "reced": 7633,
      "ĠMarsh": 7634,
      "Ġadventure": 7635,
      "ographic": 7636,
      "ĠBerlin": 7637,
      "ĠSpeaker": 7638,
      "ĠDivision": 7639,
      "level": 7640,
      "ĠTro": 7641,
      "Ġdeals": 7642,
      "Ġcapable": 7643,
      "Ġtracks": 7644,
      "ĠiPad": 7645,
      "leans": 7646,
      "Ġsav": 7647,
      "Ġinvited": 7648,
      "Ġfinance": 7649,
      "ĠArabia": 7650,
      "Ġmystery": 7651,
      "Ġbalance": 7652,
      "Ġhidden": 7653,
      "âĢĻ.": 7654,
      "Ġrandom": 7655,
      "actions": 7656,
      "pty": 7657,
      "Ġextended": 7658,
      "Ġepic": 7659,
      "Ġvolunte": 7660,
      "Ġheavily": 7661,
      "recedented": 7662,
      "uting": 7663,
      "keep": 7664,
      "ella": 7665,
      "Ġmusical": 7666,
      "Ġmissile": 7667,
      "ĠInstagram": 7668,
      "ĠNevada": 7669,
      "lers": 7670,
      "rees": 7671,
      "Ġfighter": 7672,
      "ĠAwards": 7673,
      "rix": 7674,
      "Ġpositions": 7675,
      "ĠManhattan": 7676,
      "01": 7677,
      "Ġboot": 7678,
      "ĠAk": 7679,
      "Ġking": 7680,
      "ordon": 7681,
      "Ġ43": 7682,
      "Ġmini": 7683,
      "ĠIndust": 7684,
      "ĠEveryone": 7685,
      "Ġcyber": 7686,
      "----------------": 7687,
      "Ġdetermined": 7688,
      "MS": 7689,
      "Ġfru": 7690,
      "Ġdump": 7691,
      "assador": 7692,
      "Ġevolution": 7693,
      "ĠOrleans": 7694,
      "untu": 7695,
      "Ġwrest": 7696,
      "ĠElection": 7697,
      "Ġclasses": 7698,
      "ĠBrother": 7699,
      "ĠMadrid": 7700,
      "Ġenjoyed": 7701,
      "ĠSport": 7702,
      "Ġforth": 7703,
      "ĠProp": 7704,
      "Ġprepare": 7705,
      "Ġpleased": 7706,
      "Ġnegotiations": 7707,
      "ĠBan": 7708,
      "ĠNSA": 7709,
      "Ġvo": 7710,
      "prise": 7711,
      "ĠWhats": 7712,
      "Ġfactory": 7713,
      "Ġrobot": 7714,
      "door": 7715,
      "mers": 7716,
      "ĠNic": 7717,
      "ĠED": 7718,
      "ĠLeft": 7719,
      "Ġlineup": 7720,
      "Ġexistence": 7721,
      "Ġroutine": 7722,
      "ĠLewis": 7723,
      "PU": 7724,
      "ba": 7725,
      "inated": 7726,
      "unes": 7727,
      "Ġconven": 7728,
      "ika": 7729,
      "Ġfairly": 7730,
      "Ġcoalition": 7731,
      "Ġlapt": 7732,
      "Ġjun": 7733,
      "Ġprin": 7734,
      "ĠBloom": 7735,
      "Ġpresidency": 7736,
      "Ġintroduction": 7737,
      "ĠTrek": 7738,
      "bury": 7739,
      "asion": 7740,
      "ompl": 7741,
      "ĠSant": 7742,
      "ĠSound": 7743,
      "Ġrub": 7744,
      "Ġweird": 7745,
      "Ġunknown": 7746,
      "Ġagenda": 7747,
      "Ġcorruption": 7748,
      "Ġpaint": 7749,
      "Ġregulations": 7750,
      "profit": 7751,
      "Ġelements": 7752,
      "turn": 7753,
      "heim": 7754,
      "Ġparent": 7755,
      "ĠWH": 7756,
      "Ġspr": 7757,
      "Ġworry": 7758,
      "Ġroute": 7759,
      "ĠChildren": 7760,
      "Ġcert": 7761,
      "Ġpounds": 7762,
      "ĠAward": 7763,
      "ĠNAT": 7764,
      "Ġoffense": 7765,
      "ĠAnderson": 7766,
      "Ġmotiv": 7767,
      "Ġhouses": 7768,
      "itzer": 7769,
      "yr": 7770,
      "Ġnor": 7771,
      "Ġstab": 7772,
      "Ġcoordin": 7773,
      "Ġextrem": 7774,
      "Ġlanded": 7775,
      "Con": 7776,
      "KE": 7777,
      "Man": 7778,
      "ille": 7779,
      "Ġformed": 7780,
      "ĠBoe": 7781,
      "ĠWolf": 7782,
      "ĠOsc": 7783,
      "Ġsees": 7784,
      "ĠChampions": 7785,
      "izar": 7786,
      "Ġdrone": 7787,
      "Ġclubs": 7788,
      "Ġzone": 7789,
      "Ġtypical": 7790,
      "Ġangry": 7791,
      "orious": 7792,
      "Ġelement": 7793,
      "Ġstuck": 7794,
      "Ġproced": 7795,
      "Ġquant": 7796,
      "Ġ46": 7797,
      "Ġpromote": 7798,
      "Ġdesigner": 7799,
      "08": 7800,
      "ãĥ": 7801,
      "Ġbon": 7802,
      "ĠCopy": 7803,
      "ĠMain": 7804,
      "ĠMoon": 7805,
      "enders": 7806,
      "ĠAlan": 7807,
      "Ġassess": 7808,
      "adesh": 7809,
      "Ġcustody": 7810,
      "04": 7811,
      "uous": 7812,
      "Ġcup": 7813,
      "ĠHa": 7814,
      "Ġconsequ": 7815,
      "erves": 7816,
      "ĠDrive": 7817,
      "ĠJenn": 7818,
      "ĠKong": 7819,
      "Ġoffseason": 7820,
      "week": 7821,
      "Ġcelebrated": 7822,
      "Ġsearching": 7823,
      "ĠBreaking": 7824,
      "Ġdrawing": 7825,
      "Ġsymbol": 7826,
      "Leaks": 7827,
      "Ġclosing": 7828,
      "ĠAlso": 7829,
      "ĠPrince": 7830,
      "Ġpractices": 7831,
      "Ġbond": 7832,
      "ouch": 7833,
      "ushed": 7834,
      "ĠKey": 7835,
      "Ġrecip": 7836,
      "avell": 7837,
      "Ġcovering": 7838,
      "ĠSpeaking": 7839,
      "Ġrein": 7840,
      "avig": 7841,
      "ĠAli": 7842,
      "Ġannouncing": 7843,
      "Ġcreator": 7844,
      "Ġattempting": 7845,
      "iner": 7846,
      "style": 7847,
      "ĠHong": 7848,
      "ĠHoward": 7849,
      "Ġtested": 7850,
      "ĠChristopher": 7851,
      "Ġsuccessfully": 7852,
      "boys": 7853,
      "Ġrookie": 7854,
      "31": 7855,
      "uy": 7856,
      "Ġbench": 7857,
      "Ġdating": 7858,
      "ĠWas": 7859,
      "ĠLam": 7860,
      "Ġelimin": 7861,
      "Ġsplit": 7862,
      "Ġmouth": 7863,
      "ĠMap": 7864,
      "Ġwriters": 7865,
      "Ġlogo": 7866,
      "Ġ44": 7867,
      "Ġanywhere": 7868,
      "Ġcos": 7869,
      "ĠTampa": 7870,
      "Ġlights": 7871,
      "ĠFind": 7872,
      "agers": 7873,
      "geon": 7874,
      "ĠYemen": 7875,
      "Ġgranted": 7876,
      "Ġswim": 7877,
      "ĠDoes": 7878,
      "Ġtypically": 7879,
      "Ġaccepted": 7880,
      "Ġodd": 7881,
      "ez": 7882,
      "ĠLions": 7883,
      "ĠEb": 7884,
      "ctic": 7885,
      "Ġclient": 7886,
      "Ġdecline": 7887,
      "rators": 7888,
      "ĠPosts": 7889,
      "Ġformat": 7890,
      "iscal": 7891,
      "celona": 7892,
      "Ġcolleagues": 7893,
      "ĠBuffalo": 7894,
      "ifer": 7895,
      "ĠStudios": 7896,
      "Ġkicked": 7897,
      "Ã³": 7898,
      "Ġsuc": 7899,
      "Ġitem": 7900,
      "Ġseemingly": 7901,
      "ĠAbd": 7902,
      "which": 7903,
      "ĠSilver": 7904,
      "ĠAuthority": 7905,
      "onnell": 7906,
      "Ġenthusi": 7907,
      "sm": 7908,
      "xic": 7909,
      "ĠGiants": 7910,
      "Ġaggressive": 7911,
      "Ġ42": 7912,
      "Ġinstalled": 7913,
      "ĠEdition": 7914,
      "Ġmilitants": 7915,
      "Ġcutting": 7916,
      "Ġmotion": 7917,
      "dog": 7918,
      "word": 7919,
      "ĠPa": 7920,
      "ĠHal": 7921,
      "iform": 7922,
      "Ġunable": 7923,
      "Ġoldest": 7924,
      "ĠSteel": 7925,
      "Ġcauses": 7926,
      "Ġrent": 7927,
      "Ġdramatic": 7928,
      "Ġfant": 7929,
      "otal": 7930,
      "Ġbeloved": 7931,
      "Ġstatistics": 7932,
      "Ġcryptocur": 7933,
      "dro": 7934,
      "pot": 7935,
      "ĠSet": 7936,
      "ĠMake": 7937,
      "Ġtravell": 7938,
      "Ġ47": 7939,
      "Ġentreprene": 7940,
      "Ġballot": 7941,
      "CS": 7942,
      "hr": 7943,
      "watch": 7944,
      "Ġpal": 7945,
      "Ġdu": 7946,
      "starter": 7947,
      "oster": 7948,
      "Ġremarks": 7949,
      "Ġrobber": 7950,
      "Ġske": 7951,
      "Ġment": 7952,
      "amous": 7953,
      "Ġbutton": 7954,
      "Ġaccompl": 7955,
      "ĠAssembly": 7956,
      "Ġcomplaint": 7957,
      "Ġrestaurants": 7958,
      "Ġmysterious": 7959,
      "Ġorders": 7960,
      "ĠPatriots": 7961,
      "rac": 7962,
      "ĠSus": 7963,
      "ĠSaf": 7964,
      "Ġbeach": 7965,
      "ĠFal": 7966,
      "ĠLy": 7967,
      "Ġdefender": 7968,
      "Ġdelivery": 7969,
      "fund": 7970,
      "gus": 7971,
      "Ġwage": 7972,
      "Ġpump": 7973,
      "stract": 7974,
      "ĠPres": 7975,
      "ĠPope": 7976,
      "ĠDream": 7977,
      "ĠFuture": 7978,
      "ulations": 7979,
      "usted": 7980,
      "nedy": 7981,
      "ĠBarcelona": 7982,
      "ĠCourtesy": 7983,
      "Ġdeadline": 7984,
      "Ġreplaced": 7985,
      "ĠWikiLeaks": 7986,
      "bell": 7987,
      "ĠTel": 7988,
      "Ġshr": 7989,
      "Ġcounty": 7990,
      "Ġstatements": 7991,
      "ĠCohen": 7992,
      "ĠJerry": 7993,
      "Ġterritory": 7994,
      "itors": 7995,
      "Ġgap": 7996,
      "ĠMach": 7997,
      "osen": 7998,
      "Ġeverywhere": 7999,
      "Ġopinions": 8000,
      "Ġsatellite": 8001,
      "ĠTri": 8002,
      "riors": 8003,
      "ifts": 8004,
      "espread": 8005,
      "Ġstriker": 8006,
      "Ġcompetitive": 8007,
      "ĠOfficer": 8008,
      "Ġacquired": 8009,
      "As": 8010,
      "Ġlaugh": 8011,
      "Ġrevel": 8012,
      "ĠGulf": 8013,
      "erald": 8014,
      "Ġcapture": 8015,
      "iques": 8016,
      "ĠNeil": 8017,
      "pay": 8018,
      "Ġmoon": 8019,
      "Ġrot": 8020,
      "ĠFront": 8021,
      "anna": 8022,
      "Ġcompete": 8023,
      "Ġwedding": 8024,
      "Sc": 8025,
      "eda": 8026,
      "ĠThrough": 8027,
      "angel": 8028,
      "ĠRoberts": 8029,
      "ĠGraham": 8030,
      "Ġbail": 8031,
      "ĠBa": 8032,
      "Ġdesper": 8033,
      "Ġconspiracy": 8034,
      "Ġpacked": 8035,
      "Ġwaters": 8036,
      "Ġlegendary": 8037,
      "ĠWWE": 8038,
      "Ġadvertising": 8039,
      "Ġlaid": 8040,
      "ĠPast": 8041,
      "minute": 8042,
      "Ġmagic": 8043,
      "Ġliterally": 8044,
      "Ġinitiative": 8045,
      "vision": 8046,
      "Ġanime": 8047,
      "ĠCustom": 8048,
      "ĠBir": 8049,
      "ĠOil": 8050,
      "ĠAlaska": 8051,
      "Ġprofession": 8052,
      "RO": 8053,
      "rad": 8054,
      "held": 8055,
      "Ġdiet": 8056,
      "Ġstruct": 8057,
      "Ġ($": 8058,
      "ĠStill": 8059,
      "ĠKurd": 8060,
      "ĠPrice": 8061,
      "Ġpromises": 8062,
      "Ġstrikes": 8063,
      "Ġcombined": 8064,
      "Ġrolling": 8065,
      "ĠAlberta": 8066,
      "Ġcongressional": 8067,
      "oop": 8068,
      "wich": 8069,
      "ĠâĢĻ": 8070,
      "enth": 8071,
      "ĠMobile": 8072,
      "ĠFred": 8073,
      "ĠRangers": 8074,
      "raph": 8075,
      "Ġrif": 8076,
      "Ġvisitors": 8077,
      "Ġaims": 8078,
      "rain": 8079,
      "rozen": 8080,
      "ĠMun": 8081,
      "ĠHit": 8082,
      "ĠEth": 8083,
      "Ġintense": 8084,
      "ĠSoft": 8085,
      "ĠExecutive": 8086,
      "Ġdealing": 8087,
      "Ġprofile": 8088,
      "Ġsixth": 8089,
      "Ġtotally": 8090,
      "Ġpremier": 8091,
      "Ġrescue": 8092,
      "ĠArgent": 8093,
      "ĠSep": 8094,
      "ĠBor": 8095,
      "Ġproceed": 8096,
      "Ġenh": 8097,
      "ĠRelease": 8098,
      "Ġrocket": 8099,
      "Ġdestroyed": 8100,
      "don": 8101,
      "oured": 8102,
      "Ġatmosp": 8103,
      "Ġalter": 8104,
      "ĠCapital": 8105,
      "Ġfatal": 8106,
      "Ġadopt": 8107,
      "HS": 8108,
      "ĠLibrary": 8109,
      "ĠEff": 8110,
      "ĠUnfortunately": 8111,
      "ugs": 8112,
      "Ġacting": 8113,
      "ificial": 8114,
      "Ġrepresents": 8115,
      "Ġslowly": 8116,
      "Ġtaste": 8117,
      "Ġpodcast": 8118,
      "Ass": 8119,
      "million": 8120,
      "page": 8121,
      "rets": 8122,
      "ĠMult": 8123,
      "ĠUnlike": 8124,
      "Ġfees": 8125,
      "ĠAmendment": 8126,
      "Ġdistance": 8127,
      "Ġpurchased": 8128,
      "77": 8129,
      "LAND": 8130,
      "die": 8131,
      "Ġbicy": 8132,
      "ests": 8133,
      "ĠThink": 8134,
      "Ġcommonly": 8135,
      "ĠDownload": 8136,
      "Ġrepeatedly": 8137,
      "05": 8138,
      "arms": 8139,
      "ĠCode": 8140,
      "Ġchances": 8141,
      "Ġscrap": 8142,
      "ĠImm": 8143,
      "Ġinterests": 8144,
      "Ġconnected": 8145,
      "ĠBelow": 8146,
      "Ġwonderful": 8147,
      "ĠKennedy": 8148,
      "ĠConnect": 8149,
      "Ġstretch": 8150,
      "TE": 8151,
      "ĠFantasy": 8152,
      "berry": 8153,
      "Ġrecovery": 8154,
      "Ġcharity": 8155,
      "Ġinvestigate": 8156,
      "Ġmaterials": 8157,
      "Ġelectricity": 8158,
      "Ġsequel": 8159,
      "ĠMcDonald": 8160,
      "IE": 8161,
      "ni": 8162,
      "Ġprize": 8163,
      "ĠRh": 8164,
      "Ġriding": 8165,
      "Ġimproved": 8166,
      "Ġincredibly": 8167,
      "ĠDoctor": 8168,
      "Ġurban": 8169,
      "hero": 8170,
      "ĠCase": 8171,
      "ĠDisc": 8172,
      "Ġinvalid": 8173,
      "Ġsubsc": 8174,
      "Ġadvis": 8175,
      "iece": 8176,
      "Ġocean": 8177,
      "oween": 8178,
      "Ġrating": 8179,
      "Ġdeleg": 8180,
      "Ġ41": 8181,
      "ocket": 8182,
      "Ġauthority": 8183,
      "Ġcycle": 8184,
      "ĠRemember": 8185,
      "Ġregistered": 8186,
      "Ġearthqu": 8187,
      "02": 8188,
      "NT": 8189,
      "ĠSab": 8190,
      "ĠCro": 8191,
      "ĠHD": 8192,
      "!\"": 8193,
      "And": 8194,
      "Ġdemocracy": 8195,
      "ĠPir": 8196,
      "ĠDak": 8197,
      "Ġflights": 8198,
      "rones": 8199,
      "Ġterrorists": 8200,
      "lickr": 8201,
      "Ġmountain": 8202,
      "ĠUbuntu": 8203,
      "07": 8204,
      "Ġmaker": 8205,
      "oto": 8206,
      "igg": 8207,
      "urers": 8208,
      "Ġrush": 8209,
      "Ġremained": 8210,
      "ALL": 8211,
      "clusion": 8212,
      "Ġchallenging": 8213,
      "ĠâĤ¬": 8214,
      "Ġurged": 8215,
      "Ġphilosoph": 8216,
      "ĠChairman": 8217,
      "ĠBros": 8218,
      "ĠOK": 8219,
      "apes": 8220,
      "bridge": 8221,
      "Ġfallen": 8222,
      "Ġcollective": 8223,
      "ĠProtection": 8224,
      "ĠRevolution": 8225,
      "vard": 8226,
      "ĠMI": 8227,
      "Ġyards": 8228,
      "merce": 8229,
      "Ġvacc": 8230,
      "Ġscenes": 8231,
      "Ġsomewhat": 8232,
      "Ġanticipated": 8233,
      "OX": 8234,
      "ĠMaster": 8235,
      "ĠJews": 8236,
      "iano": 8237,
      "ancell": 8238,
      "Ġapprop": 8239,
      "Ġorganized": 8240,
      "Ġequal": 8241,
      "Ġunlikely": 8242,
      "CC": 8243,
      "ĠIR": 8244,
      "eway": 8245,
      "ĠVe": 8246,
      "Ġconfident": 8247,
      "Ġtransport": 8248,
      "Ġfailing": 8249,
      "Ġhistorical": 8250,
      "Ġwidespread": 8251,
      "eason": 8252,
      "isode": 8253,
      "amework": 8254,
      "Ġarr": 8255,
      "Ġexplan": 8256,
      "Ġhandful": 8257,
      "Ġelite": 8258,
      "ĠPlayer": 8259,
      "ĠReading": 8260,
      "Ġranked": 8261,
      "ĠNearly": 8262,
      "izarre": 8263,
      "Ġtips": 8264,
      "ĠToy": 8265,
      "Ġchapter": 8266,
      "Ġads": 8267,
      "Ġshell": 8268,
      "Ġemissions": 8269,
      "ternal": 8270,
      "Ġ2002": 8271,
      "ĠIndones": 8272,
      "Ġmode": 8273,
      "ĠCommon": 8274,
      "Ġtargets": 8275,
      "Cl": 8276,
      "li": 8277,
      "Ġlunch": 8278,
      "Ġaccus": 8279,
      "Ġguitar": 8280,
      "ĠConst": 8281,
      "ĠContin": 8282,
      "Ġunprecedented": 8283,
      "otype": 8284,
      "Ġbarely": 8285,
      "Ġcrucial": 8286,
      "itarian": 8287,
      "alia": 8288,
      "ĠDEL": 8289,
      "ĠGordon": 8290,
      "Ġcontext": 8291,
      "ĠMario": 8292,
      "Ġshouldn": 8293,
      "Ġveget": 8294,
      "Ġracial": 8295,
      "Ġroads": 8296,
      "ĠArticle": 8297,
      "Ġnut": 8298,
      "ĠCD": 8299,
      "ĠOcc": 8300,
      "Ġembr": 8301,
      "Ġobjects": 8302,
      "Ġfunny": 8303,
      "Ġlately": 8304,
      "ĠOlympics": 8305,
      "twitter": 8306,
      "Ġdrawn": 8307,
      "election": 8308,
      "Ġmut": 8309,
      "ĠCa": 8310,
      "ĠPant": 8311,
      "Ġseats": 8312,
      "ordinary": 8313,
      "Ġexposed": 8314,
      "Ġempty": 8315,
      "Ġcelebration": 8316,
      "Ġhole": 8317,
      "olk": 8318,
      "ĠPoll": 8319,
      "iment": 8320,
      "eler": 8321,
      "Ġclar": 8322,
      "Ġclimb": 8323,
      "Ġrecording": 8324,
      "breaking": 8325,
      "Ġawarded": 8326,
      "ĠCaption": 8327,
      "ĠVictoria": 8328,
      "ĠProfessor": 8329,
      "Ġwithdraw": 8330,
      "Ġtur": 8331,
      "ila": 8332,
      "ira": 8333,
      "outing": 8334,
      "ĠComics": 8335,
      "ĠClimate": 8336,
      "ahu": 8337,
      "aukee": 8338,
      "Ġfindings": 8339,
      "Ġconcert": 8340,
      "ĠMississ": 8341,
      "Ġmigrants": 8342,
      "Ġemotional": 8343,
      "ĠLibya": 8344,
      "Ġsharp": 8345,
      "Ġoverwhelming": 8346,
      "',": 8347,
      "ĠTower": 8348,
      "ĠBY": 8349,
      "ĠWord": 8350,
      "ĠHamp": 8351,
      "uma": 8352,
      "Ġupset": 8353,
      "Ġintention": 8354,
      "Ġadjust": 8355,
      "Ġpermission": 8356,
      "Ġdistribution": 8357,
      "covered": 8358,
      "ĠHalloween": 8359,
      "Ġtablet": 8360,
      "Ġsettlement": 8361,
      "Ġviral": 8362,
      "Ġthread": 8363,
      "ĠRaj": 8364,
      "athon": 8365,
      "Ġflu": 8366,
      "rolled": 8367,
      "ĠMorgan": 8368,
      "ĠSwedish": 8369,
      "Ġdatabase": 8370,
      "Ġtutorial": 8371,
      "400": 8372,
      "JP": 8373,
      "oj": 8374,
      "spe": 8375,
      "ĠPu": 8376,
      "ĠNorm": 8377,
      "acre": 8378,
      "igious": 8379,
      "Ġramp": 8380,
      "Ġprohib": 8381,
      "Ġapply": 8382,
      "ANC": 8383,
      "ĠChristians": 8384,
      "Ġthreatening": 8385,
      "Ġimmediate": 8386,
      "Ġsubsid": 8387,
      "Pro": 8388,
      "inf": 8389,
      "ĠIan": 8390,
      "istol": 8391,
      "Ġjoke": 8392,
      "Ġbacked": 8393,
      "Ġevil": 8394,
      "Ġsatis": 8395,
      "ĠUsing": 8396,
      ".-": 8397,
      "My": 8398,
      "eah": 8399,
      "waukee": 8400,
      "aning": 8401,
      "ario": 8402,
      "ĠCop": 8403,
      "agger": 8404,
      "that": 8405,
      "Ġshocking": 8406,
      "Ġacts": 8407,
      "Ġterrible": 8408,
      "ĠBrandon": 8409,
      "ublin": 8410,
      "Ġdepth": 8411,
      "Ġrumors": 8412,
      "06": 8413,
      "MP": 8414,
      "Ġtas": 8415,
      "isa": 8416,
      "Ġaged": 8417,
      "Ġ64": 8418,
      "Ġtechnologies": 8419,
      "Ġhosting": 8420,
      "Ġsuspects": 8421,
      "Ġsanctions": 8422,
      "Ġschol": 8423,
      "uable": 8424,
      "wall": 8425,
      "onna": 8426,
      "iration": 8427,
      "ĠRun": 8428,
      "Ġoffices": 8429,
      "Ġreputation": 8430,
      "Ġperformed": 8431,
      "Ġwheel": 8432,
      "Ġcycl": 8433,
      "ĠGuardian": 8434,
      "Ġrural": 8435,
      "ception": 8436,
      "Ġdiscussing": 8437,
      "ylum": 8438,
      "Ġillness": 8439,
      "Ġpremiere": 8440,
      "Ġcommunications": 8441,
      "Ġprospects": 8442,
      "Ġprosecutors": 8443,
      "cles": 8444,
      "uce": 8445,
      "Ġcro": 8446,
      "Ġpit": 8447,
      "Ġnob": 8448,
      "etary": 8449,
      "ĠNash": 8450,
      "Ġ55": 8451,
      "ribute": 8452,
      "Ġpayments": 8453,
      "Ġcorrespond": 8454,
      "ĠLouisiana": 8455,
      "aver": 8456,
      "Ġwine": 8457,
      "ĠHaving": 8458,
      "ĠWhit": 8459,
      "Ġinvent": 8460,
      "ĠMarine": 8461,
      "iki": 8462,
      "arsh": 8463,
      "Ġsoldier": 8464,
      "Ġtargeting": 8465,
      "Ġmanufacturing": 8466,
      "Ġtor": 8467,
      "orable": 8468,
      "Ġstunning": 8469,
      "ĠFOR": 8470,
      "ĠJets": 8471,
      "Ġworried": 8472,
      "Ġexplore": 8473,
      "Ġmethods": 8474,
      "Ġtemperature": 8475,
      "Ġpetition": 8476,
      "Ġsucceed": 8477,
      "inals": 8478,
      "Ġfel": 8479,
      "ĠSS": 8480,
      "ĠFA": 8481,
      "ĠLocal": 8482,
      "ĠLarry": 8483,
      "ĠBlock": 8484,
      "Ġvoter": 8485,
      "Ġperspective": 8486,
      "Ġopponent": 8487,
      "ĠSimon": 8488,
      "Ġoccasional": 8489,
      "bound": 8490,
      "gary": 8491,
      "Ġgal": 8492,
      "ĠVerm": 8493,
      "ĠUnivers": 8494,
      "Ġdefence": 8495,
      "Ġspeculation": 8496,
      "Ġboat": 8497,
      "Ġcomplaints": 8498,
      "Ġrepeal": 8499,
      "Ġgraphics": 8500,
      "hire": 8501,
      "acc": 8502,
      "âĢĻ,": 8503,
      "ĠOx": 8504,
      "ĠStock": 8505,
      "Ġouts": 8506,
      "ĠChall": 8507,
      "ĠBeing": 8508,
      "Ġdescribes": 8509,
      "Ġcounts": 8510,
      "ĠMountain": 8511,
      "Ġtherap": 8512,
      "Ġstations": 8513,
      "apore": 8514,
      "Ġslam": 8515,
      "Ġkeeps": 8516,
      "Ġpointed": 8517,
      "ĠAffairs": 8518,
      "ĠAnti": 8519,
      "ĠTweet": 8520,
      "ĠPD": 8521,
      "ĠHon": 8522,
      "Ġarrive": 8523,
      "ĠShort": 8524,
      "ĠCarter": 8525,
      "Ġopponents": 8526,
      "Ġdispute": 8527,
      "Ġfrequently": 8528,
      "Opens": 8529,
      "ito": 8530,
      "olves": 8531,
      "ĠGil": 8532,
      "Ġunw": 8533,
      "Ġcontem": 8534,
      "Ġbridge": 8535,
      "Ġrealize": 8536,
      "ĠMagazine": 8537,
      "ĠComey": 8538,
      "Ġunemployment": 8539,
      "Al": 8540,
      "oz": 8541,
      "rist": 8542,
      "ĠDublin": 8543,
      "Ġintent": 8544,
      "Ġ65": 8545,
      "Ġextensive": 8546,
      "Ġsuggesting": 8547,
      "Ġindependence": 8548,
      "Ġgathering": 8549,
      "Ġtied": 8550,
      "esh": 8551,
      "Ġgod": 8552,
      "ĠEX": 8553,
      "ĠKa": 8554,
      "ĠKhan": 8555,
      "ucker": 8556,
      "Ġphysic": 8557,
      "Ġregularly": 8558,
      "Ġrequested": 8559,
      "Ġimprovements": 8560,
      "ĠArea": 8561,
      "Sp": 8562,
      "rated": 8563,
      "Ġpm": 8564,
      "acher": 8565,
      "elson": 8566,
      "agu": 8567,
      "Ġcomics": 8568,
      "Ġje": 8569,
      "ĠCommunications": 8570,
      "ĠJean": 8571,
      "ĠAND": 8572,
      "ĠKickstarter": 8573,
      "95": 8574,
      "hum": 8575,
      "ington": 8576,
      "uten": 8577,
      "ulating": 8578,
      "see": 8579,
      "Ġteach": 8580,
      "Ġanymore": 8581,
      "Ġgirlfriend": 8582,
      "Ġhired": 8583,
      "ĠPin": 8584,
      "ĠRoll": 8585,
      "ĠOR": 8586,
      "Ġsevent": 8587,
      "Ġchart": 8588,
      "Ġadviser": 8589,
      "Ġdepend": 8590,
      "ĠMalays": 8591,
      "Ġacademic": 8592,
      "ĠPrivacy": 8593,
      "ĠPentagon": 8594,
      "FA": 8595,
      "new": 8596,
      "ĠAw": 8597,
      "Ġuniform": 8598,
      "ĠVin": 8599,
      "olds": 8600,
      "Ġdrunk": 8601,
      "Ġkiller": 8602,
      "Ġfiring": 8603,
      "Ġcombination": 8604,
      "Ġknee": 8605,
      "rehensive": 8606,
      "iy": 8607,
      "ĠTai": 8608,
      "Ġles": 8609,
      "ĠHind": 8610,
      "osis": 8611,
      "Ġraw": 8612,
      "endar": 8613,
      "ultural": 8614,
      "ĠRussell": 8615,
      "Ġdisturb": 8616,
      "Ġconstruct": 8617,
      "ĠMilwaukee": 8618,
      "Ġopportunities": 8619,
      "ĠMPs": 8620,
      "Ġnarrow": 8621,
      "pat": 8622,
      "Ġdates": 8623,
      "ĠTR": 8624,
      "ĠTax": 8625,
      "Ġthrown": 8626,
      "ĠBand": 8627,
      "ĠYah": 8628,
      "Ġservers": 8629,
      "Ġindeed": 8630,
      "elfare": 8631,
      "Ġtransit": 8632,
      "Ġpublication": 8633,
      "Ġpassenger": 8634,
      "ĠCalgary": 8635,
      "ĠBuilding": 8636,
      "Ġblockchain": 8637,
      "Ġspoken": 8638,
      "Ġyounger": 8639,
      "greg": 8640,
      "Ġlucky": 8641,
      "igen": 8642,
      "Ġputs": 8643,
      "ĠHarper": 8644,
      "ĠBenj": 8645,
      "Ġmatters": 8646,
      "ancellor": 8647,
      "fi": 8648,
      "Ġster": 8649,
      "ĠRio": 8650,
      "ĠHand": 8651,
      "Ġmonthly": 8652,
      "ronics": 8653,
      "Ġletters": 8654,
      "Ġdriven": 8655,
      "Ġswing": 8656,
      "ĠPerry": 8657,
      "ĠMurray": 8658,
      "Ġmistake": 8659,
      "ĠHotel": 8660,
      "Ġretirement": 8661,
      "ĠAbbott": 8662,
      "Ġwing": 8663,
      "atar": 8664,
      "ĠTodd": 8665,
      "Ġspac": 8666,
      "Ġbrill": 8667,
      "ĠComic": 8668,
      "Ġreader": 8669,
      "Ġlandscape": 8670,
      "Ġexpectations": 8671,
      "Ġcategory": 8672,
      "ĠSnowden": 8673,
      "ĠEagles": 8674,
      "ded": 8675,
      "rance": 8676,
      "yard": 8677,
      "ãģ": 8678,
      "ĠNex": 8679,
      "ĠHurricane": 8680,
      "Ġju": 8681,
      "Ġoutrage": 8682,
      "ĠVen": 8683,
      "Ġpromotional": 8684,
      "ĠBeck": 8685,
      "Ġlobby": 8686,
      "Ġabandoned": 8687,
      "09": 8688,
      "bian": 8689,
      "Ġmob": 8690,
      "ĠRs": 8691,
      "Ġsmoke": 8692,
      "Ġriver": 8693,
      "ĠJimmy": 8694,
      "WA": 8695,
      "rors": 8696,
      "ĠSov": 8697,
      "otte": 8698,
      "Ġconver": 8699,
      "Ġcha": 8700,
      "ĠRef": 8701,
      "Ġfee": 8702,
      "argo": 8703,
      "Ġultimately": 8704,
      "ĠColumbus": 8705,
      "Ġexplosion": 8706,
      "ĠEs": 8707,
      "ĠVa": 8708,
      "assy": 8709,
      "Ġstring": 8710,
      "enny": 8711,
      "Ġpolitician": 8712,
      "ĠSingapore": 8713,
      "Ġwaves": 8714,
      "Ġcrop": 8715,
      "Ġine": 8716,
      "aders": 8717,
      "ĠNik": 8718,
      "abs": 8719,
      "ections": 8720,
      "incinn": 8721,
      "Ġcelebrating": 8722,
      "ĠControl": 8723,
      "GH": 8724,
      "OV": 8725,
      "Ġtip": 8726,
      "Ġmarg": 8727,
      "Ġgear": 8728,
      "Ġgained": 8729,
      "ĠNiger": 8730,
      "Ġourselves": 8731,
      "ĠAmong": 8732,
      "Ġclosely": 8733,
      "Ġsignificantly": 8734,
      "ĠWayne": 8735,
      "Ġanger": 8736,
      "ĠMaine": 8737,
      "ĠPinterest": 8738,
      "ĠDub": 8739,
      "agh": 8740,
      "ĠEt": 8741,
      "Ġsmoking": 8742,
      "ĠPhill": 8743,
      "Ġ1960": 8744,
      "Ġresponsibility": 8745,
      "ĠCurrent": 8746,
      "Ġtemperatures": 8747,
      "ĠRoger": 8748,
      "Ġbizarre": 8749,
      "Ġforum": 8750,
      "ĠBi": 8751,
      "ĠWritten": 8752,
      "ĠDE": 8753,
      "ĠLook": 8754,
      "ĠImp": 8755,
      "Ġfundra": 8756,
      "Ġridic": 8757,
      "On": 8758,
      "worth": 8759,
      "anim": 8760,
      "Ġcoc": 8761,
      "Ġthus": 8762,
      "ounce": 8763,
      "upid": 8764,
      "istle": 8765,
      "Ġinterviews": 8766,
      "Ġrender": 8767,
      "Ġerror": 8768,
      "Ġbeauty": 8769,
      "pes": 8770,
      "Ġlux": 8771,
      "ĠMMA": 8772,
      "ĠLE": 8773,
      "osa": 8774,
      "Ġseized": 8775,
      "ishop": 8776,
      "ĠReady": 8777,
      "ĠImag": 8778,
      "Ġopposed": 8779,
      "Ġlanguages": 8780,
      "Ġwondering": 8781,
      "Ġmeetings": 8782,
      "incinnati": 8783,
      "itage": 8784,
      "ewhere": 8785,
      "Ġathe": 8786,
      "estone": 8787,
      "ighth": 8788,
      "ĠUse": 8789,
      "Ġflash": 8790,
      "Ġfewer": 8791,
      "uthors": 8792,
      "arendra": 8793,
      "ĠMcK": 8794,
      "ĠHarvard": 8795,
      "Ġessential": 8796,
      "Ġessentially": 8797,
      "ĠDoug": 8798,
      "ĠHampshire": 8799,
      "Ġdust": 8800,
      "oting": 8801,
      "Ġrig": 8802,
      "aping": 8803,
      "Ġ52": 8804,
      "Ġcrashed": 8805,
      "ĠManager": 8806,
      "ĠDragon": 8807,
      "Ġnationwide": 8808,
      "ĠCrime": 8809,
      "Ġreplacement": 8810,
      "Ġteenage": 8811,
      "ĠFiref": 8812,
      "ĠTreas": 8813,
      "Ġescape": 8814,
      "ĠOriginally": 8815,
      "ĠEconomic": 8816,
      "Ġratings": 8817,
      "CL": 8818,
      "made": 8819,
      "Ġpace": 8820,
      "Ġdynam": 8821,
      "ĠTam": 8822,
      "ĠMother": 8823,
      "ĠBurn": 8824,
      "ĠLow": 8825,
      "Ġincor": 8826,
      "Ġroc": 8827,
      "Ġcoaches": 8828,
      "Ġairline": 8829,
      "Ġpenalty": 8830,
      "ĠCowboys": 8831,
      "amber": 8832,
      "usive": 8833,
      "ĠGa": 8834,
      "akh": 8835,
      "ĠShould": 8836,
      "Ġsupports": 8837,
      "ĠProduct": 8838,
      "Ġtracking": 8839,
      "Up": 8840,
      "bow": 8841,
      "orking": 8842,
      "Ġinquir": 8843,
      "ĠCanc": 8844,
      "olas": 8845,
      "ether": 8846,
      "ĠBudd": 8847,
      "elle": 8848,
      "ushing": 8849,
      "Ġalert": 8850,
      "Ġconfidence": 8851,
      "Ġopposite": 8852,
      "Ġstepped": 8853,
      "Ġmagn": 8854,
      "Ġprimarily": 8855,
      "Ġpleaded": 8856,
      "ĠNarendra": 8857,
      "Ġposter": 8858,
      "Ġgenre": 8859,
      "ART": 8860,
      "Ġtweets": 8861,
      "Ġdemanding": 8862,
      "Ġpregnant": 8863,
      "ĠBeng": 8864,
      "eld": 8865,
      "Ġdecent": 8866,
      "Ġdefault": 8867,
      "Ġglobe": 8868,
      "Ġ1999": 8869,
      "ĠFinancial": 8870,
      "Ġanx": 8871,
      "Ġdrew": 8872,
      "through": 8873,
      "aki": 8874,
      "ĠKy": 8875,
      "Ġoutlets": 8876,
      "Ġphase": 8877,
      "ĠVerizon": 8878,
      "ĠPhotos": 8879,
      "Ġphenomenon": 8880,
      "Ġphrase": 8881,
      "ĠBenjamin": 8882,
      "ĠCS": 8883,
      "Ġallies": 8884,
      "Ġcancel": 8885,
      "Ġblind": 8886,
      "Ġblocks": 8887,
      "Ġcovers": 8888,
      "ĠDeep": 8889,
      "ippi": 8890,
      "Ġinstitutions": 8891,
      "Ġharassment": 8892,
      "uros": 8893,
      "olve": 8894,
      "ĠRonald": 8895,
      "Ġdispl": 8896,
      "Ġopens": 8897,
      "ĠClark": 8898,
      "ĠClose": 8899,
      "Ġmaintain": 8900,
      "Ġthousand": 8901,
      "rooms": 8902,
      "Ġrarely": 8903,
      "Ġsemi": 8904,
      "ĠOscar": 8905,
      "Ġpup": 8906,
      "ĠSaints": 8907,
      "ĠCincinnati": 8908,
      "umble": 8909,
      "Ġupload": 8910,
      "ĠYan": 8911,
      "Ġmanage": 8912,
      "ĠIss": 8913,
      "Ġgoods": 8914,
      "ĠManagement": 8915,
      "arrass": 8916,
      "Ġbrutal": 8917,
      "Ġsparked": 8918,
      "ĠDELHI": 8919,
      "Ġlists": 8920,
      "ĠGro": 8921,
      "Ġaside": 8922,
      "Ġweigh": 8923,
      "Ġdept": 8924,
      "ova": 8925,
      "Ġattending": 8926,
      "ĠShar": 8927,
      "Ġsubmitted": 8928,
      "Ġmilk": 8929,
      "ĠHarvey": 8930,
      "Ġpercentage": 8931,
      "Ġforever": 8932,
      "Ġminds": 8933,
      "AF": 8934,
      "Ġpicks": 8935,
      "Ġchosen": 8936,
      "ĠJane": 8937,
      "Ġformal": 8938,
      "ĠFormula": 8939,
      "Ġfundamental": 8940,
      "guson": 8941,
      "!)": 8942,
      "44": 8943,
      "SW": 8944,
      "TIS": 8945,
      "Ġsoph": 8946,
      "Ġfiscal": 8947,
      "agen": 8948,
      "abies": 8949,
      "Ġunn": 8950,
      "iley": 8951,
      "Ġaccomp": 8952,
      "onda": 8953,
      "Ġengineering": 8954,
      "Ġfier": 8955,
      "agic": 8956,
      "ĠLim": 8957,
      "Ġhabit": 8958,
      "Ġrecre": 8959,
      "Ġlongtime": 8960,
      "Ġheadline": 8961,
      "Ġbasically": 8962,
      "Ġcouples": 8963,
      "Ġthrew": 8964,
      "ĠHBO": 8965,
      "Ġdisorder": 8966,
      "Ġgrant": 8967,
      "Ġshowc": 8968,
      "Ġflow": 8969,
      "To": 8970,
      "VIL": 8971,
      "ais": 8972,
      "ean": 8973,
      "Ġham": 8974,
      "ĠSex": 8975,
      "Ġnarr": 8976,
      "ĠMand": 8977,
      "ĠBM": 8978,
      "ĠEmer": 8979,
      "ĠYOU": 8980,
      "Ġrelief": 8981,
      "Ġcream": 8982,
      "Ġfields": 8983,
      "ĠBloomberg": 8984,
      "ras": 8985,
      "Ġfoss": 8986,
      "Ġfought": 8987,
      "Ġthin": 8988,
      "Ġgolf": 8989,
      "ĠSenior": 8990,
      "iamond": 8991,
      "Ġproperties": 8992,
      "Ġplatforms": 8993,
      "ĠEgyptian": 8994,
      "Ġcommitment": 8995,
      "Ġremarkable": 8996,
      "post": 8997,
      "Ġgig": 8998,
      "ĠRaid": 8999,
      "ĠGO": 9000,
      "ubble": 9001,
      "Ġovernight": 9002,
      "Ġscoring": 9003,
      "Ġzero": 9004,
      "monton": 9005,
      "Ġdrove": 9006,
      "Ġeffectively": 9007,
      ".'": 9008,
      "Ġaf": 9009,
      "Ġranks": 9010,
      "Ġtopics": 9011,
      "ĠPlus": 9012,
      "Ġrealized": 9013,
      "ĠPhone": 9014,
      "ĠGlenn": 9015,
      "Ġcollapse": 9016,
      "Ġsmartphones": 9017,
      "Ġcollected": 9018,
      "Ġdiscrimination": 9019,
      "Ġingred": 9020,
      ".âĢĻ": 9021,
      "giving": 9022,
      "ĠOw": 9023,
      "Ġproof": 9024,
      "Ġsaved": 9025,
      "They": 9026,
      "BM": 9027,
      "making": 9028,
      "Ġneck": 9029,
      "ĠGab": 9030,
      "onduct": 9031,
      "Ġbuzz": 9032,
      "Ġdetained": 9033,
      "Ġanimated": 9034,
      "Ġraces": 9035,
      "Ġhacking": 9036,
      "ĠPython": 9037,
      "Ġfab": 9038,
      "Ġhang": 9039,
      "ĠFif": 9040,
      "Ġlets": 9041,
      "Ġ51": 9042,
      "Ġbranch": 9043,
      "Ġassets": 9044,
      "ĠConstitution": 9045,
      "Ġarguments": 9046,
      "ĠHighway": 9047,
      "Ġhorse": 9048,
      "ĠDakota": 9049,
      "46": 9050,
      "zing": 9051,
      "ĠIP": 9052,
      "rific": 9053,
      "Ġasks": 9054,
      "ĠOpp": 9055,
      "Ġcompens": 9056,
      "ĠWhich": 9057,
      "Ġproved": 9058,
      "ĠWithout": 9059,
      "tarian": 9060,
      "ĠMemorial": 9061,
      "Ġrefugee": 9062,
      "Ġfavourite": 9063,
      "Ġdesktop": 9064,
      "Ġdismissed": 9065,
      "ĠSoviet": 9066,
      "New": 9067,
      "gt": 9068,
      "ls": 9069,
      "nic": 9070,
      "western": 9071,
      "Ġhur": 9072,
      "aco": 9073,
      "Ġjet": 9074,
      "Ġclim": 9075,
      "Ġsole": 9076,
      "rator": 9077,
      "Ġlimits": 9078,
      "ĠMorning": 9079,
      "Ġsettle": 9080,
      "Ġsomewhere": 9081,
      "des": 9082,
      "mir": 9083,
      "Ġ{": 9084,
      "Ġlying": 9085,
      "ĠBow": 9086,
      "Ġalt": 9087,
      "Ġdifferences": 9088,
      "Ġtestim": 9089,
      "Ġneighb": 9090,
      "ĠModel": 9091,
      "Ġprogressive": 9092,
      "Ġextraordinary": 9093,
      "Ġadvocates": 9094,
      "ĠHawaii": 9095,
      "fit": 9096,
      "Ġpir": 9097,
      "ĠSide": 9098,
      "ĠIce": 9099,
      "ĠIron": 9100,
      "Ġchocolate": 9101,
      "ĠKings": 9102,
      "Ġupgrade": 9103,
      "ĠIndianapolis": 9104,
      "ĠMSNBC": 9105,
      "'.": 9106,
      "pa": 9107,
      "rison": 9108,
      "vens": 9109,
      "Ġpitc": 9110,
      "oln": 9111,
      "ĠBal": 9112,
      "ĠGriff": 9113,
      "ĠThous": 9114,
      "ĠChapter": 9115,
      "ĠHeat": 9116,
      "Ġtransp": 9117,
      "Ġgraphic": 9118,
      "ĠNCAA": 9119,
      "ĠMississippi": 9120,
      "serv": 9121,
      "Ġawards": 9122,
      "Ġfinger": 9123,
      "Ġpin": 9124,
      "ĠSearch": 9125,
      "iden": 9126,
      "Ġexamples": 9127,
      "ĠStew": 9128,
      "Ġintel": 9129,
      "Ġimpl": 9130,
      "Ġ360": 9131,
      "Ġamounts": 9132,
      "teen": 9133,
      "Ġinstr": 9134,
      "irlines": 9135,
      "Ġfastest": 9136,
      "Ġhackers": 9137,
      "ĠBrazilian": 9138,
      "ĠBaseball": 9139,
      "Ġpuzz": 9140,
      "stan": 9141,
      "ĠDV": 9142,
      "Ġtea": 9143,
      "Ġlanding": 9144,
      "Ġbreaks": 9145,
      "Ġultimate": 9146,
      "Ġfeedback": 9147,
      "ĠFerguson": 9148,
      "Ġaspects": 9149,
      "ĠCorporation": 9150,
      "TR": 9151,
      "ration": 9152,
      "Ġbes": 9153,
      "ĠMov": 9154,
      "ĠUniverse": 9155,
      "Ġpreseason": 9156,
      "ĠCoal": 9157,
      "Ġhealthcare": 9158,
      "Ġincidents": 9159,
      "ĠCaptain": 9160,
      "fare": 9161,
      "ãĤ": 9162,
      "ipedia": 9163,
      "Ġextend": 9164,
      "ĠEdmonton": 9165,
      "Ġmembership": 9166,
      "Ġrivals": 9167,
      "Ġlawyers": 9168,
      "Ġpunish": 9169,
      "Ġpermanent": 9170,
      "Ġdance": 9171,
      "ĠChen": 9172,
      "Ġisol": 9173,
      "Ġsty": 9174,
      "emies": 9175,
      "Ġasylum": 9176,
      "Ġrespective": 9177,
      "ĠEmpire": 9178,
      "Ġrequests": 9179,
      "ĠGallery": 9180,
      "VILLE": 9181,
      "gree": 9182,
      "oft": 9183,
      "Ġsoul": 9184,
      "Ġcul": 9185,
      "left": 9186,
      "Ġnin": 9187,
      "Ġreference": 9188,
      "ĠWant": 9189,
      "ĠDomin": 9190,
      "Ġneutral": 9191,
      "Ġadmit": 9192,
      "Ġteaching": 9193,
      "Ġblocked": 9194,
      "ĠCommons": 9195,
      "Ġperforming": 9196,
      "Ġrecognize": 9197,
      "ĠRodrig": 9198,
      "rystal": 9199,
      "Ġbrilliant": 9200,
      "IO": 9201,
      "Ġanonymous": 9202,
      "Ġmaps": 9203,
      "ĠCON": 9204,
      "ĠBra": 9205,
      "Ġtrillion": 9206,
      "Ġflaw": 9207,
      "Ġproducing": 9208,
      "Ġdeeply": 9209,
      "Ġacknowled": 9210,
      "ĠVermont": 9211,
      "Fi": 9212,
      "Ġsits": 9213,
      "Ġbacter": 9214,
      "ĠTa": 9215,
      "adi": 9216,
      "ĠHan": 9217,
      "Ġchicken": 9218,
      "eps": 9219,
      "ollar": 9220,
      "Ġdeck": 9221,
      "Ġfacilities": 9222,
      "Ġimportance": 9223,
      "Ġpopularity": 9224,
      "Ġkeyboard": 9225,
      "Ġkidn": 9226,
      "Ġinformed": 9227,
      "ĠAgainst": 9228,
      "Ġlocked": 9229,
      "Ġreward": 9230,
      "ĠHundred": 9231,
      "Ġconfused": 9232,
      "Ġattacking": 9233,
      "ĠOrange": 9234,
      "ĠCooper": 9235,
      "Ġpossession": 9236,
      "ĠSwiss": 9237,
      "Ġconstantly": 9238,
      "Ġpredicted": 9239,
      "Ġcitizen": 9240,
      "Ġsustainable": 9241,
      "Ġaired": 9242,
      "Ġow": 9243,
      "Ġloud": 9244,
      "verty": 9245,
      "ĠThrones": 9246,
      "Ġwarrant": 9247,
      "ĠBarb": 9248,
      "Ġerup": 9249,
      "ĠLatin": 9250,
      "news": 9251,
      "Ġciting": 9252,
      "Ġdial": 9253,
      "ĠLes": 9254,
      "keley": 9255,
      "ĠJen": 9256,
      "ĠOd": 9257,
      "oded": 9258,
      "areness": 9259,
      "ĠFlash": 9260,
      "Ġpropag": 9261,
      "ĠKeith": 9262,
      "ILL": 9263,
      "uations": 9264,
      "orge": 9265,
      "orough": 9266,
      "Ġduty": 9267,
      "Ġloves": 9268,
      "Ġgro": 9269,
      "ĠProm": 9270,
      "Ġstem": 9271,
      "ĠHart": 9272,
      "luding": 9273,
      "Ġfirms": 9274,
      "Ġparticipate": 9275,
      "ĠForest": 9276,
      "Ġgraduate": 9277,
      "Ġbehavi": 9278,
      "Ġexception": 9279,
      "ĠLinked": 9280,
      "ĠRepresentatives": 9281,
      "ĠAirlines": 9282,
      "rik": 9283,
      "ĠLinc": 9284,
      "oca": 9285,
      "ardo": 9286,
      "ĠMaria": 9287,
      "ĠPlace": 9288,
      "Ġincreases": 9289,
[...]
