{
  "version": "1.0",
  "truncation": null,
  "padding": null,
  "added_tokens": [
    {
      "id": 0,
      "content": "<pad>",
      "single_word": false,
      "lstrip": false,
      "rstrip": false,
      "normalized": false,
      "special": true
    },
    {
      "id": 1,
      "content": "<unk>",
      "single_word": false,
      "lstrip": false,
      "rstrip": false,
      "normalized": false,
      "special": true
    },
    {
      "id": 2,
      "content": "<bos>",
      "single_word": false,
      "lstrip": false,
      "rstrip": false,
      "normalized": false,
      "special": true
    },
    {
      "id": 3,
      "content": "<eos>",
      "single_word": false,
      "lstrip": false,
      "rstrip": false,
      "normalized": false,
      "special": true
    }
  ],
  "normalizer": null,
  "pre_tokenizer": {
    "type": "ByteLevel",
    "add_prefix_space": true,
    "trim_offsets": true,
    "use_regex": true
  },
  "post_processor": null,
  "decoder": {
    "type": "ByteLevel",
    "add_prefix_space": true,
    "trim_offsets": true,
    "use_regex": true
  },
  "model": {
    "type": "BPE",
    "dropout": null,
    "unk_token": "<unk>",
    "continuing_subword_prefix": null,
    "end_of_word_suffix": null,
    "fuse_unk": false,
    "byte_fallback": false,
    "ignore_merges": false,
    "vocab": {
      "<pad>": 0,
      "<unk>": 1,
      "<bos>": 2,
      "<eos>": 3,
      "\"": 4,
      "%": 5,
      "+": 6,
      ",": 7,
      "-": 8,
      ".": 9,
      "0": 10,
      "1": 11,
      "2": 12,
      "3": 13,
      "4": 14,
      "5": 15,
      "6": 16,
      "7": 17,
      "8": 18,
      "9": 19,
      "=": 20,
      "A": 21,
      "B": 22,
      "C": 23,
      "D": 24,
      "E": 25,
      "F": 26,
      "G": 27,
      "H": 28,
      "I": 29,
      "J": 30,
      "K": 31,
      "L": 32,
      "M": 33,
      "N": 34,
      "O": 35,
      "P": 36,
      "Q": 37,
      "R": 38,
      "S": 39,
      "T": 40,
      "U": 41,
      "V": 42,
      "W": 43,
      "X": 44,
      "a": 45,
      "b": 46,
      "c": 47,
      "d": 48,
      "e": 49,
      "f": 50,
      "g": 51,
      "h": 52,
      "i": 53,
      "k": 54,
      "l": 55,
      "m": 56,
      "n": 57,
      "o": 58,
      "p": 59,
      "r": 60,
      "s": 61,
      "t": 62,
      "u": 63,
      "v": 64,
      "x": 65,
      "y": 66,
      "z": 67,
      "¡": 68,
      "¢": 69,
      "£": 70,
      "¤": 71,
      "¥": 72,
      "¦": 73,
      "§": 74,
      "¨": 75,
      "©": 76,
      "ª": 77,
      "«": 78,
      "¬": 79,
      "®": 80,
      "¯": 81,
      "°": 82,
      "±": 83,
      "²": 84,
      "³": 85,
      "´": 86,
      "µ": 87,
      "¶": 88,
      "·": 89,
      "¸": 90,
      "¹": 91,
      "º": 92,
      "»": 93,
      "¼": 94,
      "½": 95,
      "¾": 96,
      "¿": 97,
      "Â": 98,
      "Î": 99,
      "Ï": 100,
      "â": 101,
      "ã": 102,
      "ä": 103,
      "å": 104,
      "æ": 105,
      "ç": 106,
      "è": 107,
      "é": 108,
      "ï": 109,
      "Ċ": 110,
      "č": 111,
      "Ġ": 112,
      "Ģ": 113,
      "ģ": 114,
      "Ĥ": 115,
      "ĥ": 116,
      "Ħ": 117,
      "ħ": 118,
      "Ĩ": 119,
      "ĩ": 120,
      "Ī": 121,
      "ī": 122,
      "Ĭ": 123,
      "ĭ": 124,
      "Į": 125,
      "į": 126,
      "İ": 127,
      "ı": 128,
      "Ĳ": 129,
      "ĳ": 130,
      "Ĵ": 131,
      "ĵ": 132,
      "Ķ": 133,
      "ķ": 134,
      "ĸ": 135,
      "Ĺ": 136,
      "ĺ": 137,
      "Ļ": 138,
      "ļ": 139,
      "Ľ": 140,
      "ľ": 141,
      "Ŀ": 142,
      "ŀ": 143,
      "Ł": 144,
      "ł": 145,
      "Ń": 146,
      "ä¸": 147,
      "ï¼": 148,
      "ï¼Į": 149,
      "çļ": 150,
      "çļĦ": 151,
      "ãĢ": 152,
      "äº": 153,
      "ãĢĤ": 154,
      "å®": 155,
      "åı": 156,
      "è¿": 157,
      "ä»": 158,
      "æľ": 159,
      "åħ": 160,
      "åľ": 161,
      "çĶ": 162,
      "ç»": 163,
      "æĺ": 164,
      "čĊ": 165,
      "ä½": 166,
      "åĪ": 167,
      "åĬ": 168,
      "éĢ": 169,
      "åŃ": 170,
      "ä¸İ": 171,
      "è®": 172,
      "æĹ": 173,
      "æĺ¯": 174,
      "åľ¨": 175,
      "å¤": 176,
      "åĲ": 177,
      "è§": 178,
      "æĪ": 179,
      "æķ": 180,
      "èĥ": 181,
      "ä¸Ģ": 182,
      "ä¼": 183,
      "æĢ": 184,
      "çĶŁ": 185,
      "æĸ": 186,
      "èĢ": 187,
      "å°": 188,
      "ä¹": 189,
      "éĩ": 190,
      "åĮ": 191,
      "çİ": 192,
      "äºº": 193,
      "èĥ½": 194,
      "å¯": 195,
      "å¹": 196,
      "çĲ": 197,
      "å¼": 198,
      "çī": 199,
      "ç§": 200,
      "åº": 201,
      "è¯": 202,
      "åį": 203,
      "è¿ĩ": 204,
      "ä¸Ń": 205,
      "æĬ": 206,
      "å¾": 207,
      "ä¸į": 208,
      "åŃ¦": 209,
      "äºĨ": 210,
      "éĢļ": 211,
      "ãĢģ": 212,
      "å¿": 213,
      "çļĦæ": 214,
      "åĨ": 215,
      "åĩ": 216,
      "ä½ĵ": 217,
      "çĲĨ": 218,
      "èĩ": 219,
      "æŀ": 220,
      "æĿ": 221,
      "åĽ": 222,
      "ä¸º": 223,
      "æµ": 224,
      "è¡": 225,
      "åĮĸ": 226,
      "æİ": 227,
      "åĬ¨": 228,
      "å½": 229,
      "æī": 230,
      "å®ĥ": 231,
      "éĹ": 232,
      "ä¿": 233,
      "çİ°": 234,
      "éĢļè¿ĩ": 235,
      "å±": 236,
      "è¿Ļ": 237,
      "æĮ": 238,
      "æĦ": 239,
      "èĢĮ": 240,
      "æ°": 241,
      "è´": 242,
      "çĽ": 243,
      "çī©": 244,
      "åŁ": 245,
      "æĢ§": 246,
      "éĿ": 247,
      "ä¾": 248,
      "èĩª": 249,
      "å·": 250,
      "å¸": 251,
      "è½": 252,
      "å®ŀ": 253,
      "æ³": 254,
      "æı": 255,
      "è®©": 256,
      "æĹ¶": 257,
      "æĪĲ": 258,
      "æŃ": 259,
      "çĶ¨": 260,
      "åĳ": 261,
      "æľī": 262,
      "çļĦç": 263,
      "èµ": 264,
      "æł": 265,
      "å¦": 266,
      "å¿ĥ": 267,
      "åĬĽ": 268,
      "æ´": 269,
      "éĹ´": 270,
      "åİ": 271,
      "åıĳ": 272,
      "æķ°": 273,
      "éĻ": 274,
      "åĲĮ": 275,
      "æį": 276,
      "åĴ": 277,
      "å¦Ĥ": 278,
      "æĻ": 279,
      "å¯¹": 280,
      "çŃ": 281,
      "æĥ": 282,
      "ç¤": 283,
      "ç©": 284,
      "ç§į": 285,
      "é¢": 286,
      "å¥": 287,
      "æĶ": 288,
      "çķ": 289,
      "åĴĮ": 290,
      "ç³": 291,
      "å¤§": 292,
      "çŁ": 293,
      "æĹł": 294,
      "æ¯": 295,
      "ä»¥": 296,
      "å¹¶": 297,
      "åľ°": 298,
      "è¾": 299,
      "æ¸": 300,
      "æĽ": 301,
      "ç±": 302,
      "çº": 303,
      "ä¸ª": 304,
      "æľ¯": 305,
      "è¡Į": 306,
      "ä½ľ": 307,
      "ä»İ": 308,
      "æľº": 309,
      "ç¨": 310,
      "è°": 311,
      "ç³»": 312,
      "èī": 313,
      "ç²": 314,
      "æĬĢ": 315,
      "éĩį": 316,
      "åĥ": 317,
      "äºİ": 318,
      "æ·": 319,
      "ç±»": 320,
      "æŀĦ": 321,
      "åĥı": 322,
      "å°Ĩ": 323,
      "çł": 324,
      "æ²": 325,
      "ä¼ļ": 326,
      "æĭ": 327,
      "ä»¬": 328,
      "æıĲ": 329,
      "åĵ": 330,
      "ç»Ł": 331,
      "çĦ": 332,
      "åıĬ": 333,
      "æĦŁ": 334,
      "çľ": 335,
      "çĿ": 336,
      "å»": 337,
      "å¢": 338,
      "å®ļ": 339,
      "åĪĨ": 340,
      "åı¯": 341,
      "æķĪ": 342,
      "éĩı": 343,
      "ç§ĳ": 344,
      "æ±": 345,
      "åĩº": 346,
      "æĽ´": 347,
      "æľ¬": 348,
      "ç®": 349,
      "åŃĲ": 350,
      "ä¼ł": 351,
      "éļ": 352,
      "æĸ¹": 353,
      "åħ¨": 354,
      "è¶": 355,
      "çĿĢ": 356,
      "è´¨": 357,
      "è§£": 358,
      "éģ": 359,
      "é£": 360,
      "éľ": 361,
      "æĢģ": 362,
      "ä»ħ": 363,
      "æģ": 364,
      "ä¸Ĭ": 365,
      "éĺ": 366,
      "æº": 367,
      "æĪĳ": 368,
      "åī": 369,
      "äººç±»": 370,
      "åħ³": 371,
      "ç¡": 372,
      "æ´»": 373,
      "ç«": 374,
      "å¹³": 375,
      "çĦ¶": 376,
      "å·¥": 377,
      "ä»£": 378,
      "å¼ı": 379,
      "æµģ": 380,
      "åŁº": 381,
      "åºĶ": 382,
      "çķĮ": 383,
      "åıĺ": 384,
      "å°±": 385,
      "è·": 386,
      "ç¨ĭ": 387,
      "å»º": 388,
      "å±ķ": 389,
      "ç²¾": 390,
      "æ·±": 391,
      "èĪ": 392,
      "ç¼": 393,
      "éķ": 394,
      "æ³ķ": 395,
      "åģ": 396,
      "åĢ": 397,
      "æį®": 398,
      "æºĲ": 399,
      "ä¿Ŀ": 400,
      "åħ¶": 401,
      "è§Ĥ": 402,
      "ç½": 403,
      "åĪ¶": 404,
      "çŁ¥": 405,
      "èĬ": 406,
      "æĿ¥": 407,
      "åĲĪ": 408,
      "çģ": 409,
      "ä¸įä»ħ": 410,
      "ä¿¡": 411,
      "ä¸»": 412,
      "éĥ": 413,
      "åĳ½": 414,
      "æĸ°": 415,
      "é«": 416,
      "ç¤¾": 417,
      "æĬĢæľ¯": 418,
      "ç¾": 419,
      "èĢħ": 420,
      "è½¬": 421,
      "é«ĺ": 422,
      "æĮģ": 423,
      "éĽ": 424,
      "åº¦": 425,
      "åħī": 426,
      "æ¶": 427,
      "åħ±": 428,
      "è±": 429,
      "ä¸ļ": 430,
      "çĸ": 431,
      "çī¹": 432,
      "èº": 433,
      "çĶµ": 434,
      "æŃ£": 435,
      "æĸĩ": 436,
      "å½¢": 437,
      "æ°´": 438,
      "éľĢ": 439,
      "è¿Ľ": 440,
      "ç´": 441,
      "çŃī": 442,
      "èº«": 443,
      "æĦı": 444,
      "èĤ": 445,
      "å¢ĥ": 446,
      "è±¡": 447,
      "äº¤": 448,
      "åĨħ": 449,
      "å¤į": 450,
      "éĿ¢": 451,
      "æľĢ": 452,
      "è§Ħ": 453,
      "ç©º": 454,
      "ç»ı": 455,
      "ä¸ĭ": 456,
      "éĶ": 457,
      "æĮĩ": 458,
      "ä¹ī": 459,
      "æĥħ": 460,
      "åįĩ": 461,
      "éª": 462,
      "ç»ĵ": 463,
      "ç¤¾ä¼ļ": 464,
      "å°±åĥı": 465,
      "äº§": 466,
      "å¯¼": 467,
      "åĿ": 468,
      "çĲĥ": 469,
      "è¦": 470,
      "âĢ": 471,
      "èģ": 472,
      "éķ¿": 473,
      "æķ°æį®": 474,
      "è°ĥ": 475,
      "ä¹ĭ": 476,
      "ä»İèĢĮ": 477,
      "çİ¯": 478,
      "çĶŁåĳ½": 479,
      "ä¸ĸ": 480,
      "åĪ°": 481,
      "åĲĳ": 482,
      "å®¶": 483,
      "è®º": 484,
      "æĢĿ": 485,
      "æīĭ": 486,
      "è®¡": 487,
      "ç¥": 488,
      "æĺ¯ä¸Ģ": 489,
      "æĻº": 490,
      "åŃĺ": 491,
      "æĪĳä»¬": 492,
      "è¦ģ": 493,
      "è¿Ĳ": 494,
      "æİ¨": 495,
      "ä¾¿": 496,
      "æ¯ı": 497,
      "ç»Ī": 498,
      "åĪ»": 499,
      "æķ´": 500,
      "æģ¯": 501,
      "çĤ": 502,
      "ç§ĳåŃ¦": 503,
      "è¯Ĩ": 504,
      "å£": 505,
      "å¾ĭ": 506,
      "è¿Ļç§į": 507,
      "¨¡": 508,
      "èĦ": 509,
      "èį": 510,
      "ç³»ç»Ł": 511,
      "èŀ": 512,
      "èĩªçĦ¶": 513,
      "èŀį": 514,
      "åĽł": 515,
      "æĪĸ": 516,
      "ç»´": 517,
      "å¼ķ": 518,
      "é£İ": 519,
      "çĶŁæ´»": 520,
      "åĪĻ": 521,
      "ç½ĳ": 522,
      "åĪ©": 523,
      "å¤ļ": 524,
      "å¥½": 525,
      "èµĦ": 526,
      "äºĴ": 527,
      "åİŁ": 528,
      "ĭ¬": 529,
      "æ¸ħ": 530,
      "åŀ": 531,
      "è¢": 532,
      "è®¤": 533,
      "èĻ": 534,
      "åħ¥": 535,
      "ä¸ĸçķĮ": 536,
      "è®¾": 537,
      "æ¨¡": 538,
      "å®ī": 539,
      "éªĮ": 540,
      "éĢł": 541,
      "åĽ¾": 542,
      "éĿŀ": 543,
      "å¼º": 544,
      "å½±": 545,
      "åľº": 546,
      "ä½ķ": 547,
      "èī²": 548,
      "æıĲåįĩ": 549,
      "èĬĤ": 550,
      "è§Ĩ": 551,
      "æ¼": 552,
      "çľŁ": 553,
      "æ±Ĥ": 554,
      "çĹ": 555,
      "è¿Ļä¸Ģ": 556,
      "å¯Ĩ": 557,
      "å¸Ĥ": 558,
      "åį´": 559,
      "æ»": 560,
      "æ°Ķ": 561,
      "é¡": 562,
      "å®ŀçİ°": 563,
      "åĲİ": 564,
      "ç¤º": 565,
      "æİ¥": 566,
      "å¾Ĺ": 567,
      "ç¾İ": 568,
      "åħ¬": 569,
      "èīº": 570,
      "ä¾Ľ": 571,
      "æĺİ": 572,
      "åĨ³": 573,
      "éĥ½": 574,
      "å¡": 575,
      "åıª": 576,
      "åıį": 577,
      "æŁ": 578,
      "çĶ±": 579,
      "åĩĨ": 580,
      "æĬ¤": 581,
      "èĢĮæĺ¯": 582,
      "çĽ¸": 583,
      "åŃĹ": 584,
      "å°ı": 585,
      "æİ¢": 586,
      "ç¡®": 587,
      "ç¥ŀ": 588,
      "äºĭ": 589,
      "ç®Ĺ": 590,
      "æµ·": 591,
      "éĤ": 592,
      "ä¹Ł": 593,
      "è¢«": 594,
      "ç¢": 595,
      "çĤ¹": 596,
      "æ¯Ķ": 597,
      "çł´": 598,
      "éģĵ": 599,
      "åĻ": 600,
      "åıĳå±ķ": 601,
      "è¯Ń": 602,
      "åĪĽ": 603,
      "çĥ": 604,
      "é©": 605,
      "ç»Ń": 606,
      "å¦ĤåĲĮ": 607,
      "çĭ¬": 608,
      "ä¹ł": 609,
      "è¿ĩç¨ĭ": 610,
      "åĵģ": 611,
      "éĩĮ": 612,
      "æĿĤ": 613,
      "çİ¯å¢ĥ": 614,
      "¨åľ¨": 615,
      "ç©¶": 616,
      "å½ĵ": 617,
      "ŀ¬": 618,
      "éĻĲ": 619,
      "ä¿¡æģ¯": 620,
      "æĤ": 621,
      "åŁİ": 622,
      "æĥ³": 623,
      "ç«ĭ": 624,
      "æĹ¨åľ¨": 625,
      "åŁŁ": 626,
      "åħ·": 627,
      "çłĶ": 628,
      "åīį": 629,
      "åŀĭ": 630,
      "æĸŃ": 631,
      "çīĩ": 632,
      "æĹ¢": 633,
      "çĶŁçī©": 634,
      "éĵ": 635,
      "æĻºèĥ½": 636,
      "å®Į": 637,
      "ç»ĵæŀĦ": 638,
      "æľª": 639,
      "éħ": 640,
      "æıŃ": 641,
      "èµ·": 642,
      "ŀ¬éĹ´": 643,
      "èĩ´": 644,
      "åĻ¨": 645,
      "åĬł": 646,
      "çİĩ": 647,
      "å¾®": 648,
      "æŀĦå»º": 649,
      "è¡¨": 650,
      "æĶ¾": 651,
      "ä»·": 652,
      "çİ°ä»£": 653,
      "è¡¡": 654,
      "é¢Ħ": 655,
      "¸å¿ĥ": 656,
      "å®īåħ¨": 657,
      "å¤Ħ": 658,
      "çĶŁæĢģ": 659,
      "çĽ´": 660,
      "è·¯": 661,
      "æıŃç¤º": 662,
      "¨Ģ": 663,
      "éŁ": 664,
      "è¨Ģ": 665,
      "ä»ĸ": 666,
      "ä¼łç»Ł": 667,
      "æıĲä¾Ľ": 668,
      "è¶Ĭ": 669,
      "ħ§": 670,
      "åģ¥": 671,
      "ä¸¥": 672,
      "åıĹ": 673,
      "æµĭ": 674,
      "çĹħ": 675,
      "çª": 676,
      "å¡ĳ": 677,
      "çŀ¬éĹ´": 678,
      "èµĦæºĲ": 679,
      "çº¿": 680,
      "éĩĳ": 681,
      "æ¡": 682,
      "ä½¿": 683,
      "å¼Ģ": 684,
      "çłĶç©¶": 685,
      "èīºæľ¯": 686,
      "æ¬": 687,
      "æ°ĳ": 688,
      "æŀģ": 689,
      "å¾Ģ": 690,
      "é»": 691,
      "åĬ¡": 692,
      "ç¦": 693,
      "åįķ": 694,
      "ä¼ĺ": 695,
      "èĭ": 696,
      "èĲ": 697,
      "åĨľ": 698,
      "å¤įæĿĤ": 699,
      "éĢŁ": 700,
      "è®°": 701,
      "çľĭ": 702,
      "ä½į": 703,
      "èĮ": 704,
      "åĢ¼": 705,
      "å¸¸": 706,
      "åºı": 707,
      "éĤ£": 708,
      "éĿĻ": 709,
      "å¥½æ¯Ķ": 710,
      "æĺŁ": 711,
      "æł·": 712,
      "æĮģç»Ń": 713,
      "ä¾Ŀ": 714,
      "æ³¨": 715,
      "èģĶ": 716,
      "ç®¡": 717,
      "åŁİå¸Ĥ": 718,
      "ä»¶": 719,
      "åħ»": 720,
      "æĹ¥": 721,
      "åĨį": 722,
      "ç»Ĩ": 723,
      "ä»»": 724,
      "æľĢç»Ī": 725,
      "å¤©": 726,
      "èĤ²": 727,
      "è£": 728,
      "èĢģ": 729,
      "åĬŁ": 730,
      "æĺ¯ä¸Ģç§į": 731,
      "ä½İ": 732,
      "çģµ": 733,
      "ä¸ªä½ĵ": 734,
      "åĸ": 735,
      "åº·": 736,
      "æķ°åŃĹ": 737,
      "é¢Ĩ": 738,
      "æ¢": 739,
      "æĸĻ": 740,
      "æŃ¥": 741,
      "æļ": 742,
      "æĸĩåĮĸ": 743,
      "çļĦæł": 744,
      "å±Ĥ": 745,
      "ç¡Ģ": 746,
      "åŁºç¡Ģ": 747,
      "æ¼Ķ": 748,
      "çĲĨè§£": 749,
      "æł¼": 750,
      "å¹³è¡¡": 751,
      "ä¹Ĳ": 752,
      "æľīæķĪ": 753,
      "å®ĥéĢļè¿ĩ": 754,
      "ç²¾åĩĨ": 755,
      "éĶ®": 756,
      "âĢľ": 757,
      "å¼ł": 758,
      "âĢĿ": 759,
      "éĴ": 760,
      "æİ¨åĬ¨": 761,
      "ç¬": 762,
      "åģ¥åº·": 763,
      "çĸĹ": 764,
      "åĵį": 765,
      "è¶ħ": 766,
      "ç»ľ": 767,
      "åŃ¦ä¹ł": 768,
      "å¦Ĥä½ķ": 769,
      "èİ": 770,
      "è½¦": 771,
      "æ¶Ī": 772,
      "åıĸ": 773,
      "éļı": 774,
      "æīĵ": 775,
      "åĪ©çĶ¨": 776,
      "å®ĩ": 777,
      "é«ĺæķĪ": 778,
      "æķĻ": 779,
      "æĴ": 780,
      "è¿ĺ": 781,
      "ç´¢": 782,
      "å£°": 783,
      "åĮ»": 784,
      "é£Ł": 785,
      "è¿ľ": 786,
      "è§ī": 787,
      "é¢ĨåŁŁ": 788,
      "æĶ¹": 789,
      "æ¸©": 790,
      "è®¤çŁ¥": 791,
      "åľŁ": 792,
      "æ®": 793,
      "å¹´": 794,
      "ä»·åĢ¼": 795,
      "è§ģ": 796,
      "æĺ¯æĮĩ": 797,
      "å®Ļ": 798,
      "å¿µ": 799,
      "è¾ĳ": 800,
      "å®ĩå®Ļ": 801,
      "çĽ®": 802,
      "è¿ŀ": 803,
      "è®¡ç®Ĺ": 804,
      "æ²»": 805,
      "è½¬åĮĸ": 806,
      "åĬ©": 807,
      "çŃĸ": 808,
      "è§Ħå¾ĭ": 809,
      "ç»Ļ": 810,
      "åŃĺåľ¨": 811,
      "åı²": 812,
      "è¿½": 813,
      "æ¯ıä¸Ģ": 814,
      "åħ³éĶ®": 815,
      "æŃ¤": 816,
      "çĬ": 817,
      "åĮº": 818,
      "æİĴ": 819,
      "åį³": 820,
      "æĶ¯": 821,
      "å¤±": 822,
      "è¯ģ": 823,
      "æµİ": 824,
      "æľŁ": 825,
      "æĪĺ": 826,
      "ç»ıæµİ": 827,
      "æķĪçİĩ": 828,
      "åİĨ": 829,
      "é¢ĺ": 830,
      "åĿļ": 831,
      "è¯Ńè¨Ģ": 832,
      "åĬŁèĥ½": 833,
      "éĥ¨": 834,
      "åıĪ": 835,
      "æ·±åĪ»": 836,
      "èİ·": 837,
      "æĳ": 838,
      "å¸¦": 839,
      "ç½ĳç»ľ": 840,
      "åħ±åĲĮ": 841,
      "éħį": 842,
      "åĵ²": 843,
      "å¤ĸ": 844,
      "æīĢ": 845,
      "éĹ¨": 846,
      "çŁ³": 847,
      "æĥħæĦŁ": 848,
      "æİ§": 849,
      "ä¸ªäºº": 850,
      "åĶ": 851,
      "ç¾¤": 852,
      "ç¨³": 853,
      "èĪŀ": 854,
      "çī©è´¨": 855,
      "åĽŀ": 856,
      "åı°": 857,
      "åĲ¸": 858,
      "åĲĦ": 859,
      "è¾¾": 860,
      "èĩªçĶ±": 861,
      "æŀĲ": 862,
      "æĶ¶": 863,
      "è¾¹": 864,
      "ä¸»ä¹ī": 865,
      "ä½ĵéªĮ": 866,
      "çĻ": 867,
      "ä¾ĭ": 868,
      "éĻį": 869,
      "èĥ½åĬĽ": 870,
      "æľºåĪ¶": 871,
      "è¡Įä¸º": 872,
      "ç©ºéĹ´": 873,
      "åĵ²åŃ¦": 874,
      "æĺ¾": 875,
      "èį¯": 876,
      "æĿ¡": 877,
      "éĹ®": 878,
      "åħ¨çĲĥ": 879,
      "é¦": 880,
      "æłĩ": 881,
      "æ¸ħæĻ": 882,
      "åįı": 883,
      "éĩįè¦ģ": 884,
      "å±ħ": 885,
      "åĩı": 886,
      "æĪĲä¸º": 887,
      "è½¬åĮĸä¸º": 888,
      "ä¹¦": 889,
      "åĽ½": 890,
      "æĹ¶éĹ´": 891,
      "çİ°å®ŀ": 892,
      "éĢī": 893,
      "åĲĮæĹ¶": 894,
      "å¹¶éĿŀ": 895,
      "çªģ": 896,
      "è®¾è®¡": 897,
      "çĲĨæĢ§": 898,
      "æľį": 899,
      "èĩ³": 900,
      "éĺ²": 901,
      "éĺ³": 902,
      "éĢ»": 903,
      "è¯»": 904,
      "å¹¿": 905,
      "åķ": 906,
      "ç»¿": 907,
      "åī§": 908,
      "æĪ·": 909,
      "æ»¡": 910,
      "å¼ºè°ĥ": 911,
      "æĸ¹å¼ı": 912,
      "æ¨¡å¼ı": 913,
      "ä½ł": 914,
      "æĿĲ": 915,
      "éĢ»è¾ĳ": 916,
      "æľªæĿ¥": 917,
      "ä¿®": 918,
      "èĻļ": 919,
      "å¿ĥçĲĨ": 920,
      "æī¿": 921,
      "æĻ¯": 922,
      "éĢĤ": 923,
      "ä¼Ĺ": 924,
      "åŃ¦ç§ĳ": 925,
      "çļĦæ·": 926,
      "èŀįåĲĪ": 927,
      "çĭ¬çī¹": 928,
      "å°ĳ": 929,
      "åİ»": 930,
      "ç¡®ä¿Ŀ": 931,
      "ä¹ĭéĹ´": 932,
      "å¢ŀ": 933,
      "éĽĨ": 934,
      "æľĽ": 935,
      "å¾·": 936,
      "åİĨåı²": 937,
      "é¸": 938,
      "å¤ĩ": 939,
      "ä¸ŃçļĦ": 940,
      "è½½": 941,
      "çļĦæł¸å¿ĥ": 942,
      "éļ¾": 943,
      "çī©çĲĨ": 944,
      "å½¢å¼ı": 945,
      "éŁ³": 946,
      "åĳĺ": 947,
      "å·¨": 948,
      "åħ³ç³»": 949,
      "æ£": 950,
      "æĬĬ": 951,
      "ä¸įä»ħæĺ¯": 952,
      "å®Ī": 953,
      "çĶ»": 954,
      "æŀľ": 955,
      "åł": 956,
      "é¥": 957,
      "çĲĨè®º": 958,
      "åºĶçĶ¨": 959,
      "æł¹": 960,
      "èĢĥ": 961,
      "åı¯èĥ½": 962,
      "éŃ": 963,
      "æīį": 964,
      "éļľ": 965,
      "ç´ł": 966,
      "ä¸ĩ": 967,
      "çĬ¶": 968,
      "å²": 969,
      "åĪĨæŀĲ": 970,
      "èģļ": 971,
      "éĻįä½İ": 972,
      "æŁĵ": 973,
      "å±ķçİ°": 974,
      "å¯¼èĩ´": 975,
      "è°Ĳ": 976,
      "éĢı": 977,
      "éĩĬ": 978,
      "æĿĥ": 979,
      "èĩªåĬ¨": 980,
      "èĦĳ": 981,
      "çļĦæ·±": 982,
      "å®Ľ": 983,
      "åĽŃ": 984,
      "è½»": 985,
      "çŃĳ": 986,
      "Ġä»¥": 987,
      "ä¿ĿæĬ¤": 988,
      "æ¬¡": 989,
      "æ½": 990,
      "åı£": 991,
      "éĻħ": 992,
      "éĽ¨": 993,
      "å®¹": 994,
      "ç»ĩ": 995,
      "åĴĮè°Ĳ": 996,
      "æ¤": 997,
      "å®Ľå¦Ĥ": 998,
      "éĻ©": 999,
      "äºĽ": 1000,
      "ä¸ºä¾ĭ": 1001,
      "æ²ī": 1002,
      "åħĥ": 1003,
      "æħ§": 1004,
      "ĳæĪĺ": 1005,
      "åĪ«": 1006,
      "ç¼ĵ": 1007,
      "æľįåĬ¡": 1008,
      "æŀĹ": 1009,
      "äººå·¥": 1010,
      "åºķ": 1011,
      "ä¼¼": 1012,
      "äººä»¬": 1013,
      "è¶³": 1014,
      "ä¸įåĲĮ": 1015,
      "æĭ©": 1016,
      "æĽ´æĺ¯": 1017,
      "ç¼ĸ": 1018,
      "åİĭ": 1019,
      "çŁ¥è¯Ĩ": 1020,
      "çĥŃ": 1021,
      "å§": 1022,
      "ä¸ĵ": 1023,
      "èĪ¬": 1024,
      "æĢĿç»´": 1025,
      "å¤´": 1026,
      "ç»ª": 1027,
      "èĳ": 1028,
      "åı¤": 1029,
      "ç»Ħ": 1030,
      "æ®µ": 1031,
      "ä¸įæĸŃ": 1032,
      "ä¿ĥ": 1033,
      "æķ°åŃ¦": 1034,
      "æľ¬è´¨": 1035,
      "æ¿": 1036,
      "ä½ľçĶ¨": 1037,
      "åı¯æĮģç»Ń": 1038,
      "ä¸Ģä¸ª": 1039,
      "å®ĥä»¬": 1040,
      "çİ°è±¡": 1041,
      "åĳ¼": 1042,
      "åıĺåĮĸ": 1043,
      "è§¦": 1044,
      "æĹłæ³ķ": 1045,
      "åĨ³çŃĸ": 1046,
      "æİ¢ç´¢": 1047,
      "ä¼¦": 1048,
      "å¼Ĥ": 1049,
      "åľ°çĲĥ": 1050,
      "ç®¡çĲĨ": 1051,
      "å¯Ł": 1052,
      "ç²¾ç¥ŀ": 1053,
      "çĪ": 1054,
      "åĽº": 1055,
      "é»ĺ": 1056,
      "ä¼ĺåĮĸ": 1057,
      "æĲ": 1058,
      "åº§": 1059,
      "è¯ķ": 1060,
      "å¸ĥ": 1061,
      "ç©¿": 1062,
      "å°±åĥıä¸Ģ": 1063,
      "è¿ĲåĬ¨": 1064,
      "å®¡": 1065,
      "å¥ı": 1066,
      "æŃ£æĺ¯": 1067,
      "äº«": 1068,
      "æ¤į": 1069,
      "ä¼¦çĲĨ": 1070,
      "èĥ½æºĲ": 1071,
      "å½±åĵį": 1072,
      "æķĻèĤ²": 1073,
      "æĵ": 1074,
      "æĮĳæĪĺ": 1075,
      "æ¸¸": 1076,
      "è¿½æ±Ĥ": 1077,
      "ï¼Ľ": 1078,
      "åħį": 1079,
      "è§Ĵ": 1080,
      "å±Ģ": 1081,
      "¹ģ": 1082,
      "æ¿Ģ": 1083,
      "ç§¯": 1084,
      "äº§çĶŁ": 1085,
      "ä¸įåı¯": 1086,
      "åĮĸåŃ¦": 1087,
      "é¡¹": 1088,
      "ç¢³": 1089,
      "èĥĮ": 1090,
      "æ³Ľ": 1091,
      "èĪª": 1092,
      "éĢĲ": 1093,
      "åĳ³": 1094,
      "åŁºåĽł": 1095,
      "ç½®": 1096,
      "åĩĿ": 1097,
      "çłģ": 1098,
      "å¤ĦçĲĨ": 1099,
      "ç¦»": 1100,
      "è¿ŀæİ¥": 1101,
      "çĶ¨æĪ·": 1102,
      "ç»¿èī²": 1103,
      "éĩįå¡ĳ": 1104,
      "åĨħå¿ĥ": 1105,
      "æĥ³è±¡": 1106,
      "éĩĳèŀį": 1107,
      "å¿«": 1108,
      "èĬ±": 1109,
      "çħ§": 1110,
      "æĹłéľĢ": 1111,
      "çĽ´æİ¥": 1112,
      "èĲ½": 1113,
      "éĢĴ": 1114,
      "ä½ĵç³»": 1115,
      "æĭ¥": 1116,
      "æĭŁ": 1117,
      "æĪı": 1118,
      "æł¸å¿ĥ": 1119,
      "å¼ķåıĳ": 1120,
      "å¿ħ": 1121,
      "çķĻ": 1122,
      "åĪ¤": 1123,
      "å±±": 1124,
      "æģĴ": 1125,
      "æıŃç¤ºäºĨ": 1126,
      "è£ħ": 1127,
      "éķľ": 1128,
      "åĪĴ": 1129,
      "æķ´ä½ĵ": 1130,
      "æĦıä¹ī": 1131,
      "åĳ¼åĲ¸": 1132,
      "ä½Ĩ": 1133,
      "èĩªæĪĳ": 1134,
      "èĳĹ": 1135,
      "èĮĥ": 1136,
      "å·®": 1137,
      "ç§ĳæĬĢ": 1138,
      "éļĲ": 1139,
      "çĻ½": 1140,
      "è®¨": 1141,
      "è¯Ĺ": 1142,
      "æŀ¶": 1143,
      "éģĵå¾·": 1144,
      "ç¹ģ": 1145,
      "ç®Ģ": 1146,
      "åı·": 1147,
      "æķ£": 1148,
      "çģ«": 1149,
      "æĺ¯çłĶç©¶": 1150,
      "æķħ": 1151,
      "åĨĻ": 1152,
      "æľºåĻ¨": 1153,
      "éĩıåŃĲ": 1154,
      "éĵ¾": 1155,
      "éĢīæĭ©": 1156,
      "è¶ħè¶Ĭ": 1157,
      "æ¸ħæĻ¨": 1158,
      "èĻ½": 1159,
      "å¯»": 1160,
      "æĬĹ": 1161,
      "æ°¸": 1162,
      "åķĨ": 1163,
      "èµĭ": 1164,
      "åĨľä¸ļ": 1165,
      "ç»Ŀ": 1166,
      "å¾ª": 1167,
      "å»ºçŃĳ": 1168,
      "è§ĦåĪĻ": 1169,
      "äºĮ": 1170,
      "åħĪ": 1171,
      "è´¹": 1172,
      "å®ŀæĹ¶": 1173,
      "ç¢İ": 1174,
      "åĶ¯": 1175,
      "åĮħ": 1176,
      "åĢĻ": 1177,
      "èº«ä½ĵ": 1178,
      "å¼ķå¯¼": 1179,
      "¾çĹħ": 1180,
      "åįĥ": 1181,
      "çļĦç²": 1182,
      "ä¿ĥè¿Ľ": 1183,
      "èħ": 1184,
      "è¯Ŀ": 1185,
      "å®¢": 1186,
      "çĶŁåĬ¨": 1187,
      "ä¿Ŀéļľ": 1188,
      "éľĢæ±Ĥ": 1189,
      "åŁºçŁ³": 1190,
      "å¤ª": 1191,
      "æĻºæħ§": 1192,
      "åĩıå°ĳ": 1193,
      "ç´§": 1194,
      "åĸĦ": 1195,
      "ä¸´": 1196,
      "ä½ı": 1197,
      "è¯´": 1198,
      "ä¸įåĨį": 1199,
      "å¿Ĩ": 1200,
      "çĽ¸äºĴ": 1201,
      "ç¿": 1202,
      "ç»ĥ": 1203,
      "æ¡Ī": 1204,
      "æĺ¾èĳĹ": 1205,
      "çļĦéĩįè¦ģ": 1206,
      "äºĪ": 1207,
      "å¯Į": 1208,
      "æ³¢": 1209,
      "å»¶": 1210,
      "æīĵçł´": 1211,
      "æħ": 1212,
      "å¨": 1213,
      "å·¨å¤§": 1214,
      "ä¸Ķ": 1215,
      "å®ı": 1216,
      "åĢŁ": 1217,
      "èģĶç½ĳ": 1218,
      "å¹¿æ³Ľ": 1219,
      "æĺĵ": 1220,
      "çļĦæĻ": 1221,
      "æĻ®": 1222,
      "åģļ": 1223,
      "è®°å¿Ĩ": 1224,
      "æĿĲæĸĻ": 1225,
      "æī¾": 1226,
      "ä¸»å¼ł": 1227,
      "å½©": 1228,
      "æ´ĭ": 1229,
      "éĹ®é¢ĺ": 1230,
      "æľĪ": 1231,
      "ä¼łéĢĴ": 1232,
      "çĸ¾çĹħ": 1233,
      "ä½ĵçİ°": 1234,
      "èĭ¥": 1235,
      "è®¡ç®Ĺæľº": 1236,
      "çļĦåħ³éĶ®": 1237,
      "çĭ¬çī¹çļĦ": 1238,
      "åıĬåħ¶": 1239,
      "ä¾¿æĺ¯": 1240,
      "Ġæ¸ħæĻ¨": 1241,
      "å¿ĥçģµ": 1242,
      "æ±¡": 1243,
      "æµģåĬ¨": 1244,
      "é¢Ħæµĭ": 1245,
      "ç¦ı": 1246,
      "ç¨³å®ļ": 1247,
      "çĽĳ": 1248,
      "ç«¯": 1249,
      "åĮ»çĸĹ": 1250,
      "åĤ": 1251,
      "å¾ģ": 1252,
      "æĦŁçŁ¥": 1253,
      "æİ¢è®¨": 1254,
      "åĭ": 1255,
      "æĹĭ": 1256,
      "å½¢æĢģ": 1257,
      "æıĲä¾ĽäºĨ": 1258,
      "çļĦç²¾": 1259,
      "çı": 1260,
      "èĢĮéĿŀ": 1261,
      "èµ°": 1262,
      "æĥħç»ª": 1263,
      "å¾Ħ": 1264,
      "çļĦæĦ": 1265,
      "åºĶå¯¹": 1266,
      "åĨħåľ¨": 1267,
      "é£İéĻ©": 1268,
      "çĬ¶æĢģ": 1269,
      "©åºı": 1270,
      "ç§©åºı": 1271,
      "åĩł": 1272,
      "å¤§èĦĳ": 1273,
      "é¸£": 1274,
      "èµĭäºĪ": 1275,
      "å¹²": 1276,
      "è¿ĻäºĽ": 1277,
      "èĲ¥": 1278,
      "åĪĽæĸ°": 1279,
      "å°Ĭ": 1280,
      "åĽ¢": 1281,
      "å¸®": 1282,
      "è¾ĵ": 1283,
      "éģĹ": 1284,
      "åıįåºĶ": 1285,
      "å®³": 1286,
      "èĥŀ": 1287,
      "èĥ½éĩı": 1288,
      "æĦıè¯Ĩ": 1289,
      "èĬĤå¥ı": 1290,
      "èı": 1291,
      "å·¥ç¨ĭ": 1292,
      "åģı": 1293,
      "åĪĻæĺ¯": 1294,
      "å¤ļæł·": 1295,
      "äºĴåĬ¨": 1296,
      "åħ¬å¹³": 1297,
      "äººå·¥æĻºèĥ½": 1298,
      "Ġå½ĵ": 1299,
      "çº¦": 1300,
      "åħħ": 1301,
      "æĸ¹åĲĳ": 1302,
      "è§£åĨ³": 1303,
      "çĸ«": 1304,
      "çľŁå®ŀ": 1305,
      "çľŁæŃ£": 1306,
      "ç®Ĺæ³ķ": 1307,
      "ç»Ĩèĥŀ": 1308,
      "åĶ¯æľī": 1309,
      "åı¶": 1310,
      "çĶŁäº§": 1311,
      "å®ĥä¸į": 1312,
      "æĦŁåıĹ": 1313,
      "å·¥ä½ľ": 1314,
      "çī¹å®ļ": 1315,
      "å®ĪæĬ¤": 1316,
      "æĪĲæľ¬": 1317,
      "æ´ģ": 1318,
      "æ¨¡åŀĭ": 1319,
      "æłĳ": 1320,
      "ä»¥åıĬ": 1321,
      "å»ºç«ĭ": 1322,
      "æ½ľ": 1323,
      "åĲ¬": 1324,
      "å·²": 1325,
      "å¸Ī": 1326,
      "è´¨éĩı": 1327,
      "å·¥ä¸ļ": 1328,
      "èĵ": 1329,
      "åĪĨåŃĲ": 1330,
      "è§Ĥä¼Ĺ": 1331,
      "åħ¸": 1332,
      "çķ¥": 1333,
      "äº¤éĢļ": 1334,
      "ç»´æĮģ": 1335,
      "åħ´": 1336,
      "çļĦæĥ": 1337,
      "æĶ¹åıĺ": 1338,
      "æĸ½": 1339,
      "æĬ½": 1340,
      "çľ¼": 1341,
      "è¿Ľè¡Į": 1342,
      "ç¥ŀç»ı": 1343,
      "å¥ĩ": 1344,
      "æ²³": 1345,
      "å§ĭ": 1346,
      "æ±¡æŁĵ": 1347,
      "çļĦæ¸": 1348,
      "æį¢": 1349,
      "å½¢æĪĲ": 1350,
      "ä»¿": 1351,
      "æıĲåįĩäºĨ": 1352,
      "æīįèĥ½": 1353,
      "ä¹±": 1354,
      "å¡ĳéĢł": 1355,
      "ä¸ĸçķĮçļĦ": 1356,
      "äºĳ": 1357,
      "æįķ": 1358,
      "ç¼º": 1359,
      "æĺ¯ä¸ĢéĹ¨": 1360,
      "å®ĮæĪĲ": 1361,
      "åĬĽéĩı": 1362,
      "çĶµåŃĲ": 1363,
      "è¯ĨåĪ«": 1364,
      "å¸®åĬ©": 1365,
      "æĮ¥": 1366,
      "çŁŃ": 1367,
      "ä½ľä¸º": 1368,
      "æĸĩæĺİ": 1369,
      "å£¤": 1370,
      "è¾¹çķĮ": 1371,
      "¦Ĥ": 1372,
      "ç»ĺ": 1373,
      "æĹ¶ç©º": 1374,
      "ç²Ĵ": 1375,
      "åĨ³å®ļ": 1376,
      "æĴŃ": 1377,
      "éĨ": 1378,
      "å±ŀ": 1379,
      "å¦Ļ": 1380,
      "é»ĳ": 1381,
      "æĹ¥å¸¸": 1382,
      "åľŁå£¤": 1383,
      "åıĮ": 1384,
      "æĢ§ä¸İ": 1385,
      "å·±": 1386,
      "æŁĲ": 1387,
      "ä»½": 1388,
      "æĢ§çļĦ": 1389,
      "å®¤": 1390,
      "å¤Ł": 1391,
      "æĬµ": 1392,
      "è¡Ģ": 1393,
      "èĩªå·±": 1394,
      "éĩįæĸ°": 1395,
      "æĹ¶ä»£": 1396,
      "æĹ¨åľ¨éĢļè¿ĩ": 1397,
      "éĢĤåºĶ": 1398,
      "åįİ": 1399,
      "æķħäºĭ": 1400,
      "å®ģ": 1401,
      "çĶŁåŃĺ": 1402,
      "åĪĽéĢł": 1403,
      "åİĭåĬĽ": 1404,
      "Ġæĥ³è±¡": 1405,
      "ãĢĬ": 1406,
      "ãĢĭ": 1407,
      "åıĻ": 1408,
      "å½ķ": 1409,
      "æ·±åº¦": 1410,
      "çļĦè¿ĩç¨ĭ": 1411,
      "çº§": 1412,
      "èĹ": 1413,
      "ä¸¤": 1414,
      "ä»Ĭ": 1415,
      "ç²¾å¯Ĩ": 1416,
      "æĢĿèĢĥ": 1417,
      "åİŁæľ¬": 1418,
      "ç§»": 1419,
      "éĽ¶": 1420,
      "å¸¦æĿ¥": 1421,
      "åĲ¦": 1422,
      "åĽ´": 1423,
      "é©¶": 1424,
      "åıĻäºĭ": 1425,
      "èĥ½å¤Ł": 1426,
      "åıĺå¾Ĺ": 1427,
      "è·¨": 1428,
      "åħ±é¸£": 1429,
      "éľĢè¦ģ": 1430,
      "çªģçł´": 1431,
      "å½Ĵ": 1432,
      "æ¶Į": 1433,
      "å¾Ģå¾Ģ": 1434,
      "éĺ³åħī": 1435,
      "å°½": 1436,
      "èµĸ": 1437,
      "éĻ¤": 1438,
      "ä¿ĿæĮģ": 1439,
      "éĿ¢å¯¹": 1440,
      "åĿĹ": 1441,
      "éķ¿æľŁ": 1442,
      "æļĸ": 1443,
      "åı¯æĮģç»Ńåıĳå±ķ": 1444,
      "æ¦Ĥ": 1445,
      "åľ¨äºİ": 1446,
      "ä¹°": 1447,
      "åįģ": 1448,
      "æ··": 1449,
      "ç¼©": 1450,
      "çī¹å¾ģ": 1451,
      "æ°ĶåĢĻ": 1452,
      "æµ·æ´ĭ": 1453,
      "éĵ¶": 1454,
      "è¿·": 1455,
      "ä¸Ģåľº": 1456,
      "æĬķ": 1457,
      "å¿Ĺ": 1458,
      "åĳ¨": 1459,
      "è¿Ĳè¡Į": 1460,
      "åĪĽä½ľ": 1461,
      "èĻļæĭŁ": 1462,
      "åĮĸçļĦ": 1463,
      "æİĴæĶ¾": 1464,
      "æ´¾": 1465,
      "çĦ¦": 1466,
      "è§Ĩè§ī": 1467,
      "èİ·å¾Ĺ": 1468,
      "æī¿è½½": 1469,
      "å°Ħ": 1470,
      "å¤ľ": 1471,
      "ä¸Ģæł·": 1472,
      "åĬ¨åĬĽ": 1473,
      "æ¸Ĳ": 1474,
      "æ²¡": 1475,
      "æĸ¹æ³ķ": 1476,
      "åĪĩ": 1477,
      "çļĦæµ": 1478,
      "æ´»åĬ¨": 1479,
      "æĪ¿": 1480,
      "å¨ģ": 1481,
      "ç£": 1482,
      "ç¬Ķ": 1483,
      "ä¸ī": 1484,
      "ç§ģ": 1485,
      "çº¯": 1486,
      "æĹ§": 1487,
      "è¡¨è¾¾": 1488,
      "çĶŁæĢģç³»ç»Ł": 1489,
      "æĹħ": 1490,
      "äººçļĦ": 1491,
      "è®¤ä¸º": 1492,
      "ç¾¤ä½ĵ": 1493,
      "ç§ĺ": 1494,
      "æµª": 1495,
      "ä¸ĵæ³¨": 1496,
      "çļĦç§ĳåŃ¦": 1497,
      "åĬ¿": 1498,
      "åĨ²": 1499,
      "éĿł": 1500,
      "æĭī": 1501,
      "ä¾Ŀæį®": 1502,
      "æĵį": 1503,
      "ä»¤": 1504,
      "æĺ¯éĢļè¿ĩ": 1505,
      "åıĳçİ°": 1506,
      "éģ¿": 1507,
      "è®¾å¤ĩ": 1508,
      "æīĢæľī": 1509,
      "éŃĤ": 1510,
      "éĨĴ": 1511,
      "æĹı": 1512,
      "è§Ĥå¯Ł": 1513,
      "åħ¬åħ±": 1514,
      "è®°å½ķ": 1515,
      "æľ¨": 1516,
      "çĶŁçļĦ": 1517,
      "åĽ°": 1518,
      "ä¸ĬçļĦ": 1519,
      "äº§åĵģ": 1520,
      "ä»İèĢĮåľ¨": 1521,
      "åıįæĢĿ": 1522,
      "çļĦæĥħ": 1523,
      "å®ĥä¸įä»ħ": 1524,
      "è´£": 1525,
      "æıı": 1526,
      "èµĽ": 1527,
      "æĤĦ": 1528,
      "èĮ¶": 1529,
      "æĬ½è±¡": 1530,
      "çļĦæ°": 1531,
      "æĹłå£°": 1532,
      "æŀĦæĪĲ": 1533,
      "å·¥åħ·": 1534,
      "ä½¿çĶ¨": 1535,
      "ç¬¦": 1536,
      "åŃ¦æĺ¯çłĶç©¶": 1537,
      "é¢ĳ": 1538,
      "çº¢": 1539,
      "å¾ªçİ¯": 1540,
      "åĩ»": 1541,
      "å½»": 1542,
      "çĽĬ": 1543,
      "ç«ŀ": 1544,
      "æįķæį": 1545,
      "ä¸°": 1546,
      "äº®": 1547,
      "åŃ©": 1548,
      "åĲ«": 1549,
      "æŃ»": 1550,
      "è·¯å¾Ħ": 1551,
      "éĩĩ": 1552,
      "å¾ħ": 1553,
      "æĹłå½¢": 1554,
      "èī²å½©": 1555,
      "ä½Ľ": 1556,
      "è¯¥": 1557,
      "åĬ¨æĢģ": 1558,
      "èĩªèº«": 1559,
      "åŁºæľ¬": 1560,
      "ç¯": 1561,
      "éĢģ": 1562,
      "ç«ł": 1563,
      "ä¸»åĬ¨": 1564,
      "éĶĻ": 1565,
      "åĪĹ": 1566,
      "ä¸İç¤¾ä¼ļ": 1567,
      "æĪĳä»¬åľ¨": 1568,
      "æİ§åĪ¶": 1569,
      "çļĦåŁºçŁ³": 1570,
      "è¿¹": 1571,
      "ä¾Ŀèµĸ": 1572,
      "æ²»çĸĹ": 1573,
      "ä¼ģ": 1574,
      "è¯¯": 1575,
      "çļĦæ²": 1576,
      "è½®": 1577,
      "èī¯": 1578,
      "èįĴ": 1579,
      "ä»¿ä½Ľ": 1580,
      "å¼±": 1581,
      "æľīåºı": 1582,
      "çļĦçĭ¬": 1583,
      "é©±": 1584,
      "çļĦæĻº": 1585,
      "å½»åºķ": 1586,
      "çĮ": 1587,
      "æĿ¾": 1588,
      "åħīå½±": 1589,
      "èĦī": 1590,
      "å®Įç¾İ": 1591,
      "ç¿»": 1592,
      "æħ¢": 1593,
      "å¹¿æ³ĽåºĶçĶ¨": 1594,
      "åĤ¨": 1595,
      "äºī": 1596,
      "ä¸Ģåº§": 1597,
      "æļĹ": 1598,
      "åĿļå®ŀ": 1599,
      "çļĦåĲĮæĹ¶": 1600,
      "å¹»": 1601,
      "çī©ç§į": 1602,
      "æĹłæķ°": 1603,
      "æ¼«": 1604,
      "é©¾": 1605,
      "æ¶Īè´¹": 1606,
      "ç®Ģåįķ": 1607,
      "ä¼ģä¸ļ": 1608,
      "æīĭæ®µ": 1609,
      "ä»»åĬ¡": 1610,
      "çļĦæĮ": 1611,
      "è´§": 1612,
      "çģ¯": 1613,
      "å°±åĥıç»Ļ": 1614,
      "é¡»": 1615,
      "èĹı": 1616,
      "åŃ©åŃĲ": 1617,
      "ä¹¡": 1618,
      "æ²¿": 1619,
      "èĢħåľ¨": 1620,
      "çŃīé¢ĨåŁŁ": 1621,
      "çĭ¬ç«ĭ": 1622,
      "æĺł": 1623,
      "æĪĲéķ¿": 1624,
      "çº³": 1625,
      "æ¯ıä¸Ģæ¬¡": 1626,
      "çĶµå½±": 1627,
      "æķ´ä¸ª": 1628,
      "æ»ĭ": 1629,
      "äº²": 1630,
      "è¿Ļä¾¿æĺ¯": 1631,
      "å·§": 1632,
      "çļĦçģ": 1633,
      "éĽ¾": 1634,
      "éĥ½æĺ¯": 1635,
      "å¾®å°ı": 1636,
      "¥¿": 1637,
      "çĩ": 1638,
      "è¥¿": 1639,
      "ä¸Ģä½į": 1640,
      "å¹ķ": 1641,
      "è´Ł": 1642,
      "è½¯": 1643,
      "è®©äºº": 1644,
      "æŃ¢": 1645,
      "å¯¹è¯Ŀ": 1646,
      "åĨħå®¹": 1647,
      "äº§ä¸ļ": 1648,
      "äºĴèģĶç½ĳ": 1649,
      "®æŀĹ": 1650,
      "æĿĳ": 1651,
      "å½¼": 1652,
      "è´Ń": 1653,
      "éĺŁ": 1654,
      "å¤ļæł·æĢ§": 1655,
      "èĢĹ": 1656,
      "å¸Ĥåľº": 1657,
      "çĽ®æłĩ": 1658,
      "å¿ħé¡»": 1659,
      "åıĤ": 1660,
      "å¹¸": 1661,
      "åĮĸä½ľ": 1662,
      "éľ²": 1663,
      "æ¢ģ": 1664,
      "çĽĸ": 1665,
      "é£ŀ": 1666,
      "è§ĦåĪĴ": 1667,
      "åħ·æľī": 1668,
      "é¦Ļ": 1669,
      "åįıåĲĮ": 1670,
      "åįıä½ľ": 1671,
      "èķ": 1672,
      "èľ": 1673,
      "çļĦåŃ¦ç§ĳ": 1674,
      "åĩŃ": 1675,
      "æīĺ": 1676,
      "åħ³æ³¨": 1677,
      "éĻĲåĪ¶": 1678,
      "ç¼ĵè§£": 1679,
      "éĢĲæ¸Ĳ": 1680,
      "èĵĿ": 1681,
      "å®ģéĿĻ": 1682,
      "å¹¿æ³ĽåºĶçĶ¨äºİ": 1683,
      "è¡ĮåĬ¨": 1684,
      "ç»´æĬ¤": 1685,
      "åħ·ä½ĵ": 1686,
      "âĢĿï¼Į": 1687,
      "èĥĮåĲİ": 1688,
      "åĪ¤æĸŃ": 1689,
      "æī¿è½½çĿĢ": 1690,
      "æįķæįī": 1691,
      "è¿ĳ": 1692,
      "çĶŁæĪĲ": 1693,
      "çĲĨå¿µ": 1694,
      "åĪĨå¸ĥ": 1695,
      "æ»¡è¶³": 1696,
      "æ±ĩ": 1697,
      "éĿ©": 1698,
      "è·ĳ": 1699,
      "äº¤æĺĵ": 1700,
      "æĢĿæĥ³": 1701,
      "¥æ¢ģ": 1702,
      "Ġåľ¨": 1703,
      "çļĦèīºæľ¯": 1704,
      "åĪĿ": 1705,
      "å¹ħ": 1706,
      "çļĦçº": 1707,
      "æ´»åĬĽ": 1708,
      "æ¶µ": 1709,
      "è°ĥèĬĤ": 1710,
      "éģĹä¼ł": 1711,
      "çļĦçĭ¬çī¹": 1712,
      "å®Ŀ": 1713,
      "åŁ¹": 1714,
      "å¸ģ": 1715,
      "çļĦçľ": 1716,
      "ç»ıéªĮ": 1717,
      "å®ŀçİ°äºĨ": 1718,
      "è¡¨çİ°": 1719,
      "èİ·åıĸ": 1720,
      "éŁ³ä¹Ĳ": 1721,
      "å®¡ç¾İ": 1722,
      "å°ĸ": 1723,
      "å®ĥä¸įä»ħæĺ¯": 1724,
      "æ²Ł": 1725,
      "æµ·éĩı": 1726,
      "éĴŁ": 1727,
      "çļĦçĶŁåĳ½": 1728,
      "è®Ń": 1729,
      "ä¹ħ": 1730,
      "åĽĽ": 1731,
      "çĽĺ": 1732,
      "åıĳçĶŁ": 1733,
      "éľĩ": 1734,
      "æ¸¸æĪı": 1735,
      "çļĦæĸ°": 1736,
      "ä»ĭ": 1737,
      "äººä½ĵ": 1738,
      "å¼ĥ": 1739,
      "æĽ²": 1740,
      "è°¨": 1741,
      "è·µ": 1742,
      "è¦ģæ±Ĥ": 1743,
      "æĤ£": 1744,
      "ä»»ä½ķ": 1745,
      "çĪ±": 1746,
      "å¤ªéĺ³": 1747,
      "çļĦäº¤": 1748,
      "æĢ»": 1749,
      "è¯¾": 1750,
      "å¥Ķ": 1751,
      "æĹłè®º": 1752,
      "æĹłéĻĲ": 1753,
      "ç¡¬": 1754,
      "éĶģ": 1755,
      "æĭ¥æľī": 1756,
      "é²": 1757,
      "å®ĺ": 1758,
      "è¿°": 1759,
      "ä¹İ": 1760,
      "æĮī": 1761,
      "æį·": 1762,
      "æįŁ": 1763,
      "æĭ¼": 1764,
      "æİ¨çĲĨ": 1765,
      "èĦļ": 1766,
      "éĢŁåº¦": 1767,
      "å²ģ": 1768,
      "å´": 1769,
      "è¿ģ": 1770,
      "æīĭæľº": 1771,
      "é¡º": 1772,
      "éŁ§": 1773,
      "éŁµ": 1774,
      "ä¸ªä½ĵåľ¨": 1775,
      "æ¸ħæĻ°": 1776,
      "åħįçĸ«": 1777,
      "èļ": 1778,
      "è¿ħ": 1779,
      "æİĮ": 1780,
      "åīª": 1781,
      "è§ĦèĮĥ": 1782,
      "å±ķçİ°äºĨ": 1783,
      "ç²ĴåŃĲ": 1784,
      "åį±": 1785,
      "åįļ": 1786,
      "èĩªä¸»": 1787,
      "åİļ": 1788,
      "éĥ½èĥ½": 1789,
      "é©¾é©¶": 1790,
      "èĥģ": 1791,
      "èĥ½æľīæķĪ": 1792,
      "è¯į": 1793,
      "æĬĺ": 1794,
      "çļĦç¤": 1795,
      "æºĲäºİ": 1796,
      "ç¡®å®ļ": 1797,
      "é©¬": 1798,
      "æļ´": 1799,
      "å¨ģèĥģ": 1800,
      "è¿ħéĢŁ": 1801,
      "çĶŁéķ¿": 1802,
      "æľ¬èº«": 1803,
      "èĪ¹": 1804,
      "æ¯ıä¸ªäºº": 1805,
      "ç¼ĸç»ĩ": 1806,
      "çĽĳæµĭ": 1807,
      "åħĭ": 1808,
      "åĨ·": 1809,
      "åĬĽäºİ": 1810,
      "è¾Ĩ": 1811,
      "å¯Ĩçłģ": 1812,
      "èĩ´åĬĽäºİ": 1813,
      "ä¸¥è°¨": 1814,
      "æ¿Ģåıĳ": 1815,
      "èĢĲ": 1816,
      "åį°": 1817,
      "æ¸ħæ´ģ": 1818,
      "åłµ": 1819,
      "å¥ł": 1820,
      "è½¬åŀĭ": 1821,
      "åħ±äº«": 1822,
      "èº«å¿ĥ": 1823,
      "è°ĥæķ´": 1824,
      "çĶŁæ´»çļĦ": 1825,
      "å¢ŀå¼º": 1826,
      "çļĦæĦı": 1827,
      "è·¨è¶Ĭ": 1828,
      "®é£Ł": 1829,
      "å³": 1830,
      "çĭ": 1831,
      "ä¿¡åı·": 1832,
      "ä¸ĭçļĦ": 1833,
      "åİŁåŃĲ": 1834,
      "å±ħæ°ĳ": 1835,
      "æ²¡æľī": 1836,
      "çĩĥ": 1837,
      "å¥łå®ļ": 1838,
      "çĨ": 1839,
      "Ń¦": 1840,
      "åºŁ": 1841,
      "ç©ºæ°Ķ": 1842,
      "é¢Ħéĺ²": 1843,
      "æĴĳ": 1844,
      "éĥ¨åĪĨ": 1845,
      "æĲŃ": 1846,
      "éĢĶ": 1847,
      "è´¦": 1848,
      "å¤§æķ°æį®": 1849,
      "æ¯Ĵ": 1850,
      "èĪŀåı°": 1851,
      "è¯ķåĽ¾": 1852,
      "è®Ńç»ĥ": 1853,
      "è´¢": 1854,
      "å®ŀéĻħ": 1855,
      "ç±³": 1856,
      "åĪ¶éĢł": 1857,
      "çľŁçĲĨ": 1858,
      "éļ¾ä»¥": 1859,
      "çļĦæ·±åĪ»": 1860,
      "éļĲç§ģ": 1861,
      "å¹¸ç¦ı": 1862,
      "èĨ": 1863,
      "èŃ¦": 1864,
      "łéĩĬ": 1865,
      "çĶ°": 1866,
      "æĺ¯åĲ¦": 1867,
      "è¯łéĩĬ": 1868,
      "åĨ°": 1869,
      "æı¡": 1870,
      "èĪĴ": 1871,
      "çľĭä¼¼": 1872,
      "ä¸ĩçī©": 1873,
      "å¿«éĢŁ": 1874,
      "åĩłä½ķ": 1875,
      "ä¸°å¯Į": 1876,
      "çļĦæĿ": 1877,
      "å®ŀè·µ": 1878,
      "æĵįä½ľ": 1879,
      "è´£ä»»": 1880,
      "çļĦç¤¾": 1881,
      "çļĦçĶŁæ´»": 1882,
      "ä½Ļ": 1883,
      "æĤŁ": 1884,
      "ä»ĸä»¬": 1885,
      "çģµæ´»": 1886,
      "æ»ĭåħ»": 1887,
      "è¹": 1888,
      "ä»į": 1889,
      "ä¼´": 1890,
      "çļĦæ³": 1891,
      "åģľ": 1892,
      "çģ¾": 1893,
      "çĶŁæĢģå¹³è¡¡": 1894,
      "å®ıå¤§": 1895,
      "å¯¸": 1896,
      "è¯Ħ": 1897,
      "ä½ĵèĤ²": 1898,
      "ä¼łæĴŃ": 1899,
      "èĩªçĦ¶çķĮ": 1900,
      "æ¦Ĥå¿µ": 1901,
      "æ¹": 1902,
      "ï¼ļ": 1903,
      "è®®": 1904,
      "å¤§å¹ħ": 1905,
      "å¢Ļ": 1906,
      "é©±åĬ¨": 1907,
      "åŃ¤": 1908,
      "éĩİ": 1909,
      "å±ı": 1910,
      "å¸Į": 1911,
      "æĭĵ": 1912,
      "å¤ļåħĥ": 1913,
      "ä¸¥æł¼": 1914,
      "èį¯çī©": 1915,
      "éĩįå¡ĳäºĨ": 1916,
      "ç¢İçīĩ": 1917,
      "çļĦçľŁ": 1918,
      "é²ľ": 1919,
      "æĹ¦": 1920,
      "åºĵ": 1921,
      "å®ĥæĹ¢": 1922,
      "ä¸ªæĢ§": 1923,
      "è°±": 1924,
      "è·³": 1925,
      "æ£®æŀĹ": 1926,
      "æ°¸æģĴ": 1927,
      "åģļåĩº": 1928,
      "åª": 1929,
      "éĢĢ": 1930,
      "æĢ§è´¨": 1931,
      "éĿ¢ä¸´": 1932,
      "èĦ±": 1933,
      "ä¸¥éĩį": 1934,
      "æ½®": 1935,
      "èĴ": 1936,
      "ä½ĵçļĦ": 1937,
      "ç«Ļ": 1938,
      "çī¹æĢ§": 1939,
      "æ¢Ń": 1940,
      "å°Ĭéĩį": 1941,
      "æĤ£èĢħ": 1942,
      "äºĶ": 1943,
      "æ³ķå¾ĭ": 1944,
      "èĻĳ": 1945,
      "åıªæĺ¯": 1946,
      "çģµéŃĤ": 1947,
      "ä¸ĢæĹ¦": 1948,
      "æµ¸": 1949,
      "è¡Ĺ": 1950,
      "åĬ¨ä½ľ": 1951,
      "äººç±»å¯¹": 1952,
      "è¿ĽæŃ¥": 1953,
      "åİŁçĲĨ": 1954,
      "çĶŁçī©å¤ļæł·æĢ§": 1955,
      "æ°ĳæĹı": 1956,
      "éģ¿åħį": 1957,
      "æĤĦçĦ¶": 1958,
      "æĶ¿": 1959,
      "çķħ": 1960,
      "éĺħ": 1961,
      "å¹³åı°": 1962,
      "æĸĩåŃĹ": 1963,
      "äº¤äºĴ": 1964,
      "çĶŁåĳ½çļĦ": 1965,
      "ä¾¿æį·": 1966,
      "çĥĪ": 1967,
      "çŃĸçķ¥": 1968,
      "æ¤įçī©": 1969,
      "è½¯ä»¶": 1970,
      "åªĴ": 1971,
      "ä»ĺ": 1972,
      "èĥ½åľ¨": 1973,
      "è¯ŀ": 1974,
      "åĩĢ": 1975,
      "æĸ°çļĦ": 1976,
      "å®ĩå®Ļä¸Ń": 1977,
      "æĶ¯æĴĳ": 1978,
      "å¯»æī¾": 1979,
      "èıĮ": 1980,
      "ä¸ľ": 1981,
      "åħ³èģĶ": 1982,
      "èĤī": 1983,
      "åĬłå¯Ĩ": 1984,
      "å¾®è§Ĥ": 1985,
      "éĴ¥": 1986,
      "åħħæ»¡": 1987,
      "ä¸Ńå¿ĥ": 1988,
      "ä¸ŃåĽ½": 1989,
      "éĢļä¿¡": 1990,
      "å¥¥": 1991,
      "éħįç½®": 1992,
      "èĽ": 1993,
      "ä¸İäºº": 1994,
      "æĢĢ": 1995,
      "çļĦæŀ": 1996,
      "æĿ¯": 1997,
      "æł¸": 1998,
      "æĥ¯": 1999,
      "æ²¹": 2000,
      "è¿Ĳè½¬": 2001,
      "ç§ĳåŃ¦å®¶": 2002,
      "è¿Ļä¸Ģè¿ĩç¨ĭ": 2003,
      "åįķçº¯": 2004,
      "å¤įæĿĤçļĦ": 2005,
      "éĢıæĺİ": 2006,
      "å®¡è§Ĩ": 2007,
      "çĽ¸äºĴä½ľçĶ¨": 2008,
      "çĴ": 2009,
      "æĿŁ": 2010,
      "è´µ": 2011,
      "å°±æĺ¯": 2012,
      "çĤ¼": 2013,
      "çļĦæł¹": 2014,
      "åıł": 2015,
      "çļĦæī": 2016,
      "çļĦæİ": 2017,
      "æ´ŀ": 2018,
      "åĲĪæĪĲ": 2019,
      "èįī": 2020,
      "èµĦéĩĳ": 2021,
      "å®Įåħ¨": 2022,
      "æ·±åĪ»å½±åĵį": 2023,
      "æ¥": 2024,
      "å¿½": 2025,
      "çļĦæ¡": 2026,
      "æī§": 2027,
      "æ°§": 2028,
      "åĳĪ": 2029,
      "æľīéĻĲ": 2030,
      "çļĦç©": 2031,
      "é¢Ĺ": 2032,
      "çº¸": 2033,
      "éĺ¶": 2034,
      "åľŁåľ°": 2035,
      "æĶ¯æĮģ": 2036,
      "çļĦæ¸©": 2037,
      "å²ģæľĪ": 2038,
      "ä¸Ŀ": 2039,
      "åĲį": 2040,
      "å°Ķ": 2041,
      "åĩ¡": 2042,
      "è¿Ļé¡¹": 2043,
      "æĽ¾": 2044,
      "åĪĨæĶ¯": 2045,
      "åĿı": 2046,
      "æİ¨åĬ¨äºĨ": 2047,
      "åĿļæĮģ": 2048,
      "å·®å¼Ĥ": 2049,
      "èıľ": 2050,
      "çļĦä¸Ģ": 2051,
      "çļĦåŁºç¡Ģ": 2052,
      "åĬ³": 2053,
      "æĺ¯ä»¥": 2054,
      "æĦ¿": 2055,
      "åĢĴ": 2056,
      "æķĪçİĩä¸İ": 2057,
      "é¦Ĩ": 2058,
      "Ĩæŀ¶": 2059,
      "ä¸¾": 2060,
      "ä¼ı": 2061,
      "çĶŁæľº": 2062,
      "æ´Ĵ": 2063,
      "æ±ł": 2064,
      "è§£éĩĬ": 2065,
      "åĽłæŃ¤": 2066,
      "å¾Ĺä»¥": 2067,
      "ä¹łæĥ¯": 2068,
      "éĤ£ä¸Ģ": 2069,
      "å²¸": 2070,
      "éĻįä½İäºĨ": 2071,
      "å°Ĭä¸¥": 2072,
      "è¹Ī": 2073,
      "å¸ĮæľĽ": 2074,
      "ä¸İèĩªçĦ¶": 2075,
      "å®ŀéªĮ": 2076,
      "æĹ¶åħī": 2077,
      "æĽ¿": 2078,
      "çĦķ": 2079,
      "è¶£": 2080,
      "éĺ»": 2081,
      "æ¶²": 2082,
      "æĸĩåŃ¦": 2083,
      "åĨħéĥ¨": 2084,
      "ç¾İåŃ¦": 2085,
      "å¼Ģåıĳ": 2086,
      "çĽ®çļĦ": 2087,
      "éĩĬæĶ¾": 2088,
      "å½¼æŃ¤": 2089,
      "çĳ": 2090,
      "çļĦè®¤çŁ¥": 2091,
      "æĸ¯": 2092,
      "å¾¡": 2093,
      "æĸ¹æ¡Ī": 2094,
      "åħ¶ä¸Ń": 2095,
      "çģĮ": 2096,
      "è£Ĥ": 2097,
      "è¿ĺåİŁ": 2098,
      "é£Łçī©": 2099,
      "èĪŀè¹Ī": 2100,
      "æĪıåī§": 2101,
      "åĽ¢éĺŁ": 2102,
      "äº¿": 2103,
      "çĽ²": 2104,
      "æ·±åħ¥": 2105,
      "åĳ½è¿Ĳ": 2106,
      "è®¾æĸ½": 2107,
      "è§Ĩè§Ĵ": 2108,
      "æŁĶ": 2109,
      "èĭĹ": 2110,
      "æ¸©åº¦": 2111,
      "çļĦç²¾ç¥ŀ": 2112,
      "çļĦç©º": 2113,
      "çĵ": 2114,
      "è¸": 2115,
      "èĶ": 2116,
      "åį«": 2117,
      "è½¨": 2118,
      "å¦Ĥä»Ĭ": 2119,
      "æĹłäºº": 2120,
      "ç»Łä¸Ģ": 2121,
      "æ±½": 2122,
      "ç¤¾åĮº": 2123,
      "æ¯ıä¸ª": 2124,
      "åĴĮè°Ĳåħ±": 2125,
      "é¼": 2126,
      "å°ĺ": 2127,
      "åĮł": 2128,
      "å¹¶æıĲåįĩ": 2129,
      "åĪĨç±»": 2130,
      "åģĩ": 2131,
      "ä¿¡ä»»": 2132,
      "ç»ĵæŀľ": 2133,
      "äºĭä»¶": 2134,
      "ç»ĵæŀĦä¸İ": 2135,
      "æ£Ģ": 2136,
      "çļĦç¤¾ä¼ļ": 2137,
      "æ¥¼": 2138,
      "çļĦäºº": 2139,
      "æī¹": 2140,
      "æľīæľº": 2141,
      "è¾¨": 2142,
      "éģį": 2143,
      "ä¸»è§Ĥ": 2144,
      "å®¶åĽŃ": 2145,
      "éĵģ": 2146,
      "å®Įæķ´": 2147,
      "æĭ¥åłµ": 2148,
      "åĳĪçİ°": 2149,
      "éĢĨ": 2150,
      "æĿ¿": 2151,
      "æľīçļĦ": 2152,
      "ä½ľåĵģ": 2153,
      "éļĶ": 2154,
      "éģµ": 2155,
      "ç¼ĺ": 2156,
      "åĢ¾": 2157,
      "æľªçŁ¥": 2158,
      "çªĹ": 2159,
      "å§ĭç»Ī": 2160,
      "ç£ģ": 2161,
      "ä¸ªæĢ§åĮĸ": 2162,
      "æĹ©": 2163,
      "èĢķ": 2164,
      "åİĤ": 2165,
      "åĪĨéħį": 2166,
      "äººç±»åľ¨": 2167,
      "èĢĮæĺ¯éĢļè¿ĩ": 2168,
      "å½ĵä¸ĭ": 2169,
      "çĶŁçī©åŃ¦": 2170,
      "æ¡Ĩæŀ¶": 2171,
      "æ¶Įçİ°": 2172,
      "åıĤä¸İ": 2173,
      "è¿«": 2174,
      "æĢ¥": 2175,
      "å¤§åľ°": 2176,
      "åľ°åĽ¾": 2177,
      "æ·±å¤Ħ": 2178,
      "çĹĽ": 2179,
      "äºĭçī©": 2180,
      "æ¸©æļĸ": 2181,
      "æĹĭè½¬": 2182,
      "æ°ĶåĢĻåıĺåĮĸ": 2183,
      "¤Ĳ": 2184,
      "Ġå°ı": 2185,
      "ä»ª": 2186,
      "è®¸": 2187,
      "å®ĥåĥı": 2188,
      "çļĦçŁ": 2189,
      "æŃ£ä¹ī": 2190,
      "äº¤ç»ĩ": 2191,
      "ç»´ç³»": 2192,
      "å¼ķæĵ": 2193,
      "éħ¸": 2194,
      "éļıçĿĢ": 2195,
      "çĻ¾": 2196,
      "å°±åĥıä¸Ģä½į": 2197,
      "ç»Ŀå¯¹": 2198,
      "å¼ķæĵİ": 2199,
      "¢å¤į": 2200,
      "é¾": 2201,
      "é¤Ĳ": 2202,
      "è¡¥": 2203,
      "æī©": 2204,
      "éĿĴ": 2205,
      "å¤§éĩı": 2206,
      "çĿ¡": 2207,
      "ç²¾å¿ĥ": 2208,
      "åĽ¾åĥı": 2209,
      "åĩĿèģļ": 2210,
      "æĺ¯ä¸ĢéĹ¨çłĶç©¶": 2211,
      "æĿİ": 2212,
      "å¹³åĩ¡": 2213,
      "èį£": 2214,
      "éĩĮçļĦ": 2215,
      "æĹĭå¾ĭ": 2216,
      "ħåĬĽ": 2217,
      "åıĭ": 2218,
      "ä¼¸": 2219,
      "çºł": 2220,
      "æĭĨ": 2221,
      "æĸ¹èĥ½": 2222,
      "è·Ŀ": 2223,
      "åĲĪçĲĨ": 2224,
      "ä¹ĭä¸Ń": 2225,
      "èŀįåħ¥": 2226,
      "çł´åĿı": 2227,
      "ä¼ĺè´¨": 2228,
      "è½½ä½ĵ": 2229,
      "æĿĥåĪ©": 2230,
      "ç²¾å¯ĨçļĦ": 2231,
      "çĦ¦èĻĳ": 2232,
      "ç«ŀæĬĢ": 2233,
      "ĠèĢģ": 2234,
      "Ġæķ°åŃĹ": 2235,
      "éĩįå¤į": 2236,
      "æĸ¹å¯¸": 2237,
      "æģ¢å¤į": 2238,
      "èĬĤçĤ¹": 2239,
      "éĽĨä½ĵ": 2240,
      "æīĵçł´äºĨ": 2241,
      "å®ıè§Ĥ": 2242,
      "åı¸": 2243,
      "æĪ´": 2244,
      "æĻ¶": 2245,
      "é£İæł¼": 2246,
      "èĲ¥åħ»": 2247,
      "è¿·éĽ¾": 2248,
      "éĤ£ä¸ĢåĪ»": 2249,
      "æ¾": 2250,
      "Ġäºº": 2251,
      "å°ģ": 2252,
      "ç¤¾äº¤": 2253,
      "åĵģè´¨": 2254,
      "æ¼ĶåĮĸ": 2255,
      "åĨħå¿ĥçļĦ": 2256,
      "åķĨä¸ļ": 2257,
      "çļĦæĦŁ": 2258,
      "éĵ¶è¡Į": 2259,
      "è´Ńä¹°": 2260,
      "åĩŃåĢŁ": 2261,
      "çļĦæľ¬è´¨": 2262,
      "ç»½": 2263,
      "æīİ": 2264,
      "éĹ´çļĦ": 2265,
      "æĬĢèīº": 2266,
      "æ¨¡æĭŁ": 2267,
      "è¿ĩç¨ĭä¸Ń": 2268,
      "åĮºåĿĹ": 2269,
      "è¾¹ç¼ĺ": 2270,
      "æĿ¡ä»¶": 2271,
      "é¦Ī": 2272,
      "å·¨å¤§çļĦ": 2273,
      "çļĦæĥħæĦŁ": 2274,
      "æ²ŁéĢļ": 2275,
      "ĥåľ": 2276,
      "ä¸İæĥħæĦŁ": 2277,
      "åºŃ": 2278,
      "è¯Ĭ": 2279,
      "æİª": 2280,
      "ä¾µ": 2281,
      "å¤§çļĦ": 2282,
      "éģĩ": 2283,
      "æµģæ´¾": 2284,
      "èĤ¥": 2285,
      "åŀĥåľ": 2286,
      "åıªéľĢ": 2287,
      "åĸľ": 2288,
      "éĴ¢": 2289,
      "æĳ¸": 2290,
      "è¯»èĢħ": 2291,
      "æł¹æį®": 2292,
      "éŃħåĬĽ": 2293,
      "èķ´": 2294,
      "èĴĻ": 2295,
      "åŀĥåľ¾": 2296,
      "ä¸İçİ¯å¢ĥ": 2297,
      "è®²": 2298,
      "è¿ĻæŃ£æĺ¯": 2299,
      "æĦıå¿Ĺ": 2300,
      "äº¤æµģ": 2301,
      "éª¨": 2302,
      "åĿĩ": 2303,
      "åĮ»çĶŁ": 2304,
      "å±ħä½ı": 2305,
      "ç©¿æ¢Ń": 2306,
      "æ¶µçĽĸ": 2307,
      "æ±½è½¦": 2308,
      "åĪº": 2309,
      "æķı": 2310,
      "çīĮ": 2311,
      "åºĬ": 2312,
      "åıĳæĮ¥": 2313,
      "çº·": 2314,
      "ä¼łæī¿": 2315,
      "ä¾ĽåºĶ": 2316,
      "èĭ¦": 2317,
      "å±ĢéĻĲ": 2318,
      "åĮºåĿĹéĵ¾": 2319,
      "ä¸½": 2320,
      "æµ©": 2321,
      "çļĦç¨": 2322,
      "æĽ´åľ¨": 2323,
      "ä¼łæĦŁ": 2324,
      "æĮĩå¼ķ": 2325,
      "åŃĺåĤ¨": 2326,
      "åłĤ": 2327,
      "å±ķçİ°åĩº": 2328,
      "éĢĲæŃ¥": 2329,
      "æĶ¹åıĺäºĨ": 2330,
      "åŁ¹åħ»": 2331,
      "ĠæĬĢæľ¯": 2332,
      "ä¸ºäººç±»": 2333,
      "è¡°": 2334,
      "å®ĥè®©": 2335,
      "ä½ľçī©": 2336,
      "æĭħ": 2337,
      "ä»£çłģ": 2338,
      "çģŃ": 2339,
      "ç»Īæŀģ": 2340,
      "æķ°åŃĹåĮĸ": 2341,
      "åķ¡": 2342,
      "åı¤èĢģ": 2343,
      "åĩĿåĽº": 2344,
      "èħ¾": 2345,
      "åĽ°å¢ĥ": 2346,
      "æŀĦæĪĲäºĨ": 2347,
      "èĽĭ": 2348,
      "ç»½æĶ¾": 2349,
      "ĸåķ¡": 2350,
      "åı¥": 2351,
      "ä¸Ģçīĩ": 2352,
      "ä¼¤": 2353,
      "æľīåĬ©": 2354,
      "åĴĸåķ¡": 2355,
      "è¿ĽåĮĸ": 2356,
      "å°±åĥıåľ¨": 2357,
      "è¡¨æ¼Ķ": 2358,
      "å¡ĳæĸĻ": 2359,
      "è½¦è¾Ĩ": 2360,
      "ä¿®å¤į": 2361,
      "å¢ŀéķ¿": 2362,
      "èĩªåĬ¨é©¾é©¶": 2363,
      "æĺ¾èĳĹæıĲåįĩ": 2364,
      "æĭĵå±ķ": 2365,
      "éģµå¾ª": 2366,
      "æľīåĬ©äºİ": 2367,
      "ä»°": 2368,
      "ä½³": 2369,
      "ä¸Ģç§į": 2370,
      "ä¼ª": 2371,
      "å¼¹": 2372,
      "ç§°": 2373,
      "åĬ¨çī©": 2374,
      "éĩįæŀĦ": 2375,
      "ç»ĵåĲĪ": 2376,
      "åıªæľī": 2377,
      "çł´ç¢İ": 2378,
      "æ¢°": 2379,
      "åŃĺåľ¨çļĦ": 2380,
      "æĳĦ": 2381,
      "ä½ĵçİ°äºĨ": 2382,
      "éĺħè¯»": 2383,
      "å±ĭ": 2384,
      "è¿Ļçīĩ": 2385,
      "æĥĬ": 2386,
      "ç§įåŃĲ": 2387,
      "æĽ´åĬł": 2388,
      "æģ¶": 2389,
      "éĺ¿": 2390,
      "ç¤¾ä¼ļçļĦ": 2391,
      "èģĮ": 2392,
      "æĺ¯ä¸Ģé¡¹": 2393,
      "æķ´åĲĪ": 2394,
      "åľºæĻ¯": 2395,
      "è§Ĩé¢ĳ": 2396,
      "ä¹Łæĺ¯": 2397,
      "å¦ĤåĲĮåľ¨": 2398,
      "äºĳç«¯": 2399,
      "ĠéĩıåŃĲ": 2400,
      "åĲ¯": 2401,
      "äººæĢ§": 2402,
      "æĢ§èĥ½": 2403,
      "çļĦç¥": 2404,
      "åħ³æĢĢ": 2405,
      "ç¼Ŀ": 2406,
      "æĪĳä»¬å¯¹": 2407,
      "ä¾¿èĥ½": 2408,
      "åıįé¦Ī": 2409,
      "æĺ¯ä¸Ģç§įéĢļè¿ĩ": 2410,
      "è¯ģæĺİ": 2411,
      "å®¢è§Ĥ": 2412,
      "æĻ®éĢļ": 2413,
      "æĩ": 2414,
      "çĢ": 2415,
      "çļĦçĶŁåĬ¨": 2416,
      "å®ľ": 2417,
      "åĬ±": 2418,
      "æķĳ": 2419,
      "ç§Ĵ": 2420,
      "æŃĮ": 2421,
      "çļĦç¾": 2422,
      "ç³ĸ": 2423,
      "åĪĨéĴŁ": 2424,
      "æĽ´è®©": 2425,
      "å¹³çŃī": 2426,
      "ç¼ł": 2427,
      "æĦıåĬĽ": 2428,
      "èĤ¡": 2429,
      "åĿĲ": 2430,
      "çļĦæ·±å±Ĥ": 2431,
      "è¯łéĩĬäºĨ": 2432,
      "±¼": 2433,
      "é½": 2434,
      "é±¼": 2435,
      "å°Ŀ": 2436,
      "æµĵ": 2437,
      "æ¯«": 2438,
      "æ²Į": 2439,
      "å®ļä¹ī": 2440,
      "åĩºè¡Į": 2441,
      "åħ³ä¹İ": 2442,
      "è¦Ĩ": 2443,
      "å®¶åºŃ": 2444,
      "ç¥ī": 2445,
      "çľĭåĪ°": 2446,
      "æ²»çĲĨ": 2447,
      "ç»ĦæĪĲ": 2448,
      "èµ°åĲĳ": 2449,
      "æĬµè¾¾": 2450,
      "æ°§åĮĸ": 2451,
      "ä¼łæĦŁåĻ¨": 2452,
      "çĢļ": 2453,
      "çļ®": 2454,
      "çļĦè¾¹çķĮ": 2455,
      "æľµ": 2456,
      "ä¸įç¡®å®ļ": 2457,
      "åŃ¦ä¼ļ": 2458,
      "æ´ª": 2459,
      "ç§ĳå¹»": 2460,
      "è§Ĥæµĭ": 2461,
      "èĢħçļĦ": 2462,
      "éªĮè¯ģ": 2463,
      "åĽ¾ä¹¦": 2464,
      "éģĵè·¯": 2465,
      "æŀģéĻĲ": 2466,
      "ç»Ħç»ĩ": 2467,
      "å¥¥ç§ĺ": 2468,
      "çļĦæ¡¥æ¢ģ": 2469,
      "åĬŀ": 2470,
      "çĽĪ": 2471,
      "ç´¯": 2472,
      "å£®": 2473,
      "è§Ĩä¸º": 2474,
      "åĬłéĢŁ": 2475,
      "å¹²é¢Ħ": 2476,
      "æ··æ²Į": 2477,
      "å¥łå®ļäºĨ": 2478,
      "æī§è¡Į": 2479,
      "ç»¼": 2480,
      "çĶŁçĲĨ": 2481,
      "æĬ¥": 2482,
      "çļĦæ´": 2483,
      "æŀĿ": 2484,
      "çĽĽ": 2485,
      "çī©èģĶç½ĳ": 2486,
      "æľºæ¢°": 2487,
      "å¢¨": 2488,
      "å®ļåĪ¶": 2489,
      "åı¯éĿł": 2490,
      "è¶ĭ": 2491,
      "æ»´": 2492,
      "çªģçĦ¶": 2493,
      "çıį": 2494,
      "æııç»ĺ": 2495,
      "çļĦæĻºæħ§": 2496,
      "åįĹ": 2497,
      "çļĦæ¯": 2498,
      "åĨµ": 2499,
      "æ³¥": 2500,
      "æľīäºº": 2501,
      "æĥł": 2502,
      "åŁºäºİ": 2503,
      "å±ķç¤º": 2504,
      "æĥħå¢ĥ": 2505,
      "è¿½éĹ®": 2506,
      "åĽ½å®¶": 2507,
      "éļ¾é¢ĺ": 2508,
      "ç©¿è¶Ĭ": 2509,
      "æĺ¥": 2510,
      "å®ĥèĥ½": 2511,
      "å®ŀåľ¨": 2512,
      "çºª": 2513,
      "çľł": 2514,
      "å·¥èīº": 2515,
      "æŁ¥": 2516,
      "è¿ĺèĥ½": 2517,
      "åį³æĹ¶": 2518,
      "ä¿®åīª": 2519,
      "éĢıè¿ĩ": 2520,
      "å®Ľå¦Ĥä¸Ģåľº": 2521,
      "é»ĳæļĹ": 2522,
      "æııè¿°": 2523,
      "è´§å¸ģ": 2524,
      "çİ©": 2525,
      "èµı": 2526,
      "å¥ĳ": 2527,
      "æ·Į": 2528,
      "ä¼łè¾ĵ": 2529,
      "å¼ķåĬĽ": 2530,
      "æ¡Į": 2531,
      "åĵįä¹Ĳ": 2532,
      "èĻļæŀĦ": 2533,
      "æ²īæµ¸": 2534,
      "ç¼ĸè¾ĳ": 2535,
      "çĪĨ": 2536,
      "ç§¯æŀģ": 2537,
      "æģĴæĺŁ": 2538,
      "æµ©çĢļ": 2539,
      "²Į": 2540,
      "åļ": 2541,
      "è²Į": 2542,
      "çļĦçĲĨè®º": 2543,
      "å°º": 2544,
      "æŀ¯": 2545,
      "çŃĶ": 2546,
      "å°Ĩåħ¶": 2547,
      "åħ¨éĿ¢": 2548,
      "åīĤ": 2549,
      "åħ³éĩįè¦ģ": 2550,
      "æµģæ·Į": 2551,
      "åıĺæĪĲ": 2552,
      "ä¿ĿçķĻ": 2553,
      "èº«ä»½": 2554,
      "èĤ¢": 2555,
      "æĮĩä»¤": 2556,
      "é£İéĽ¨": 2557,
      "åīįæ²¿": 2558,
      "ä¾Ŀæīĺ": 2559,
      "æ³¨æĦıåĬĽ": 2560,
      "ç»ĨèĬĤ": 2561,
      "åĸ§": 2562,
      "æ¢¦": 2563,
      "ç¬¬": 2564,
      "åįıè°ĥ": 2565,
      "èĩ³åħ³éĩįè¦ģ": 2566,
      "åįĥå¹´": 2567,
      "çļĦæ²³": 2568,
      "æĲŃå»º": 2569,
      "çĦķåıĳ": 2570,
      "çļĦç¥ŀ": 2571,
      "äº¡": 2572,
      "èĥľ": 2573,
      "æī°": 2574,
      "å·Ŀ": 2575,
      "è°ľ": 2576,
      "åı¯åĨį": 2577,
      "éĺĶ": 2578,
      "ç½Ĺ": 2579,
      "èĬ¯": 2580,
      "çĸĳ": 2581,
      "æľĢå¤§": 2582,
      "ç»ıåħ¸": 2583,
      "æĪĸç¼º": 2584,
      "çľŁçĽ¸": 2585,
      "çĥŁ": 2586,
      "å®ĮåĸĦ": 2587,
      "æŀģç«¯": 2588,
      "ä¹Ĳç«ł": 2589,
      "å£°éŁ³": 2590,
      "è¿ľç¨ĭ": 2591,
      "èĢĥéªĮ": 2592,
      "ç¢³æİĴæĶ¾": 2593,
      "æ±ĩèģļ": 2594,
      "å´©": 2595,
      "åĦ": 2596,
      "çĺ": 2597,
      "ä¸ģ": 2598,
      "çļĦéĢ»è¾ĳ": 2599,
      "çļĦçİ°è±¡": 2600,
      "åľĨ": 2601,
      "ä¸İäººç±»": 2602,
      "æĺ¯äººç±»": 2603,
      "ä¼ĳ": 2604,
      "ä¹ĺ": 2605,
      "åĮĻ": 2606,
      "å¯Ĥ": 2607,
      "è¯ī": 2608,
      "ä¸įè§ģ": 2609,
      "è¿Ļç±»": 2610,
      "ä½ľèĢħ": 2611,
      "åıĺä¸º": 2612,
      "æĮĩå¯¼": 2613,
      "ç»ĪçĤ¹": 2614,
      "æĴŀ": 2615,
      "åĮ»åŃ¦": 2616,
      "æľªæĿ¥çļĦ": 2617,
      "åĽºå®ļ": 2618,
      "å¤ªç©º": 2619,
      "çıł": 2620,
      "ç¥ŀç»ıç½ĳç»ľ": 2621,
      "æ··ä¹±": 2622,
      "ç£¨": 2623,
      "éĴ¥åĮĻ": 2624,
      "Ġç½ĳç»ľ": 2625,
      "çļĦåħī": 2626,
      "éĢĿ": 2627,
      "åľ°åŁŁ": 2628,
      "ç¼ļ": 2629,
      "çĸ²": 2630,
      "çĶµæ±ł": 2631,
      "çĶŁæ´»æĸ¹å¼ı": 2632,
      "çĹĩ": 2633,
      "é¡¶": 2634,
      "ä¾ĿçĦ¶": 2635,
      "åŁºç¡Ģè®¾æĸ½": 2636,
      "é«ĺæķĪçļĦ": 2637,
      "æ®ĸ": 2638,
      "åį³åı¯": 2639,
      "é¸Ł": 2640,
      "ä¸įåı¯æĪĸç¼º": 2641,
      "åĳ¨æľŁ": 2642,
      "çļĦçģµ": 2643,
      "è®©äººåľ¨": 2644,
      "åĦ¿": 2645,
      "ä¸Ģå¼ł": 2646,
      "è¡£": 2647,
      "çĶ¨äºİ": 2648,
      "éĻ·": 2649,
      "ç²ī": 2650,
      "éĽķ": 2651,
      "æ¶¦": 2652,
      "çĶµåĬĽ": 2653,
      "éĤ»": 2654,
      "æī¾åĪ°": 2655,
      "ç¦ıç¥ī": 2656,
      "èįĴè¯ŀ": 2657,
      "æĬĺå°Ħ": 2658,
      "çļĦçľŁå®ŀ": 2659,
      "Ġ1": 2660,
      "çļĦåĨħåľ¨": 2661,
      "åįĬ": 2662,
      "çļĦæ¼": 2663,
      "å®ĥè¦ģæ±Ĥ": 2664,
      "çĽ¾": 2665,
      "åİ¨": 2666,
      "æĦŁå®ĺ": 2667,
      "å¹³éĿ¢": 2668,
      "ä¸»è¦ģ": 2669,
      "éĽħ": 2670,
      "åº¦ä¸İ": 2671,
      "æĿĤä¹±": 2672,
      "æĤ²": 2673,
      "çĽ´è§Ĥ": 2674,
      "çĽ´è§ī": 2675,
      "æ¬¢": 2676,
      "éĤ£äºĽ": 2677,
      "ç¬ĳ": 2678,
      "æ¶Īå¤±": 2679,
      "æĳĨ": 2680,
      "åłĨ": 2681,
      "éŃĶ": 2682,
      "çĸ«èĭĹ": 2683,
      "è¯¾åłĤ": 2684,
      "æĭĨè§£": 2685,
      "è¿·éĽ¾ä¸Ń": 2686,
      "è¶ĭåĬ¿": 2687,
      "½å¸¦": 2688,
      "ĠæķĻèĤ²": 2689,
      "ĠåŁºåĽł": 2690,
      "çļĦæĶ": 2691,
      "åĳĬ": 2692,
      "å¥¹": 2693,
      "æıĲåıĸ": 2694,
      "åħ³äºİ": 2695,
      "å¹³éĿĻ": 2696,
      "çĶµèĥ½": 2697,
      "æ°´å¹³": 2698,
      "åİŁåĪĻ": 2699,
      "åĽ¾æĻ¯": 2700,
      "æŀĦå»ºåĩº": 2701,
      "çĹħæ¯Ĵ": 2702,
      "æĺŁç³»": 2703,
      "å¿ĥçĲĨåŃ¦": 2704,
      "èģļçĦ¦": 2705,
      "ä¸ĵä¸ļ": 2706,
      "äº«åıĹ": 2707,
      "åĤ¬": 2708,
      "ç¬¦åı·": 2709,
      "çļĦæĻºèĥ½": 2710,
      "æ¼«éķ¿": 2711,
      "ç»¼åĲĪ": 2712,
      "Ġæķ°åŃ¦": 2713,
      "çļĦæĬĢæľ¯": 2714,
      "éĹŃ": 2715,
      "æ²Ļ": 2716,
      "æĬĢæľ¯çļĦ": 2717,
      "éĶĢ": 2718,
      "è¿Ļä¸Ģé¢ĨåŁŁ": 2719,
      "å°ıè¯´": 2720,
      "ä¹Łèĥ½": 2721,
      "ç¢°": 2722,
      "ä¸¥å¯Ĩ": 2723,
      "çº¿æĿ¡": 2724,
      "æ¬¾": 2725,
      "ç»ĨèıĮ": 2726,
      "è£ģ": 2727,
      "éļıæľº": 2728,
      "è¿ĺæĺ¯": 2729,
      "é£ŁæĿĲ": 2730,
      "å¤ĸéĥ¨": 2731,
      "æ³¢åĬ¨": 2732,
      "åĪĨå¸ĥå¼ı": 2733,
      "éĺ¶æ®µ": 2734,
      "åļ£": 2735,
      "åĸ§åļ£": 2736,
      "èĬ¯çīĩ": 2737,
      "çļĦå¹³è¡¡": 2738,
      "çļĦåİĨåı²": 2739,
      "ä¼°": 2740,
      "åį·": 2741,
      "è¿ĩåº¦": 2742,
      "æ¯į": 2743,
      "è§£è¯»": 2744,
      "æģ°": 2745,
      "æµģè¡Į": 2746,
      "æĮĩå°ĸ": 2747,
      "è¿Ļç§įæ¨¡å¼ı": 2748,
      "åīįè¡Į": 2749,
      "èµ·æºĲ": 2750,
      "èĭı": 2751,
      "å¥½æ¯Ķç»Ļ": 2752,
      "éĴ±": 2753,
      "æłĩåĩĨ": 2754,
      "äººä»¬åľ¨": 2755,
      "å±ıå¹ķ": 2756,
      "åªĴä»ĭ": 2757,
      "åį«çĶŁ": 2758,
      "ĠçĶµå½±": 2759,
      "çļĦçĶ»": 2760,
      "å®½": 2761,
      "å®Ĺ": 2762,
      "åŃ¦çĶŁ": 2763,
      "éĹª": 2764,
      "çļĦç³": 2765,
      "æĻļ": 2766,
      "ç»Łè®¡": 2767,
      "æ±Ĺ": 2768,
      "æĸ¹éĿ¢": 2769,
      "å·¥åİĤ": 2770,
      "è§Ĥå¿µ": 2771,
      "èĦĨ": 2772,
      "äºĴèģĶ": 2773,
      "åıįæĺł": 2774,
      "çłĶåıĳ": 2775,
      "æ¬²": 2776,
      "ä½įç½®": 2777,
      "æĥħæĦŁä¸İ": 2778,
      "é¡¹çĽ®": 2779,
      "çģ«æĺŁ": 2780,
      "åķĨåĵģ": 2781,
      "ç´§å¯Ĩ": 2782,
      "åĭĥ": 2783,
      "æ½ľèĥ½": 2784,
      "å·²æĪĲä¸º": 2785,
      "æĬµå¾¡": 2786,
      "æĹłå½¢çļĦ": 2787,
      "è¥¿æĸ¹": 2788,
      "çļĦæķ°åŃ¦": 2789,
      "æľ«": 2790,
      "ä¸ĢæĿ¡": 2791,
      "æµ®": 2792,
      "å®ĥå¼ºè°ĥ": 2793,
      "çļĦç½": 2794,
      "çļĦçĥ": 2795,
      "é¢ľ": 2796,
      "ä¸Ĭåįĩ": 2797,
      "æ·±åİļ": 2798,
      "æ¶ī": 2799,
      "è¿ĽèĢĮ": 2800,
      "çŃīå¾ħ": 2801,
      "æ»¥": 2802,
      "æ°Ķä½ĵ": 2803,
      "åıįå¤į": 2804,
      "æİ¢ç©¶": 2805,
      "å¤©æ°Ķ": 2806,
      "éĴĪ": 2807,
      "æĶ¹åĸĦ": 2808,
      "åĲĦç±»": 2809,
      "åĽŃä¸ģ": 2810,
      "èĥĮæĻ¯": 2811,
      "äºĮæ°§åĮĸ": 2812,
      "çļĦæ°´": 2813,
      "ç®ĢåįķçļĦ": 2814,
      "ä¹¡æĿĳ": 2815,
      "å·§å¦Ļ": 2816,
      "çļĦç¨³": 2817,
      "´æľĽ": 2818,
      "çĶŁç´ł": 2819,
      "è¿ĩåİ»": 2820,
      "è´´": 2821,
      "å¯¹æĬĹ": 2822,
      "é¢Ŀ": 2823,
      "ç³Ĭ": 2824,
      "éģ¥": 2825,
      "åģ¶": 2826,
      "è§ĤçĤ¹": 2827,
      "å¯¼èĪª": 2828,
      "èĩªçĦ¶è¯Ńè¨Ģ": 2829,
      "çĥ¹": 2830,
      "çİ¯å¢ĥä¸Ń": 2831,
      "æ¡¥æ¢ģ": 2832,
      "åĨľèį¯": 2833,
      "åį³ä¾¿": 2834,
      "æĶ¯ä»ĺ": 2835,
      "æĶ¶éĽĨ": 2836,
      "å¹¶éĿŀåįķçº¯": 2837,
      "éŁ³ç¬¦": 2838,
      "é¥®é£Ł": 2839,
      "çļĦæ·±åº¦": 2840,
      "è£ħä¸Ĭ": 2841,
      "åģıå·®": 2842,
      "çºłç¼ł": 2843,
      "æĩĤ": 2844,
      "åı¦": 2845,
      "ä¸Ģåıª": 2846,
      "ä¼Ł": 2847,
      "æĬĳ": 2848,
      "çļĦæ¨¡": 2849,
      "æ³Ħ": 2850,
      "åĬĽåŃ¦": 2851,
      "ç²®é£Ł": 2852,
      "æĬĢå·§": 2853,
      "åıĬç¤¾ä¼ļ": 2854,
      "æµģè½¬": 2855,
      "ä¸įä»ħèĥ½": 2856,
      "æķ°æį®ä¸Ń": 2857,
      "ä¸ĸçķĮä¸Ń": 2858,
      "åħ·å¤ĩ": 2859,
      "åīįæıĲ": 2860,
      "æĶ¾å¤§": 2861,
      "æ³¨åħ¥": 2862,
      "æĶ¹éĢł": 2863,
      "ä¹ĭéĹ´çļĦ": 2864,
      "å¸ĥå±Ģ": 2865,
      "æ¦Ĥçİĩ": 2866,
      "çļĦæµ·": 2867,
      "éŁµå¾ĭ": 2868,
      "èĢĲå¿ĥ": 2869,
      "çĨŁ": 2870,
      "èĪĴéĢĤ": 2871,
      "æ·±åĪ»å½±åĵįçĿĢ": 2872,
      "»ç»Ł": 2873,
      "ĽçĽ¾": 2874,
      "åĮ¹": 2875,
      "çİ»": 2876,
      "å¯¿": 2877,
      "å¼Ī": 2878,
      "åįĸ": 2879,
      "è¿ĻéĹ¨": 2880,
      "å®ŀä½ĵ": 2881,
      "çļĦç®": 2882,
      "å¯¹è±¡": 2883,
      "æľºä¼ļ": 2884,
      "æĦŁæŁĵ": 2885,
      "åı¯åıĬ": 2886,
      "è·ĥ": 2887,
      "æ³ķåĪĻ": 2888,
      "è¿Ľç¨ĭ": 2889,
      "æ»ĳ": 2890,
      "æİ¢æµĭ": 2891,
      "é¢Ħè®¾": 2892,
      "åĶ¤": 2893,
      "æ²īé»ĺ": 2894,
      "å¿ħçĦ¶": 2895,
      "åħĪè¿Ľ": 2896,
      "åĨ³å®ļäºĨ": 2897,
      "èī¯å¥½": 2898,
      "çĭĤ": 2899,
      "ä¸ľæĸ¹": 2900,
      "çļĦæł¹æľ¬": 2901,
      "æī¹åĪ¤": 2902,
      "èĽĭçĻ½": 2903,
      "çļĦç¾İ": 2904,
      "å®ĹæķĻ": 2905,
      "çļĦç³»ç»Ł": 2906,
      "NA": 2907,
      "èĿ": 2908,
      "Ġçİ°ä»£": 2909,
      "äº¬": 2910,
      "çĶļ": 2911,
      "çļĦæŃ": 2912,
      "è¡ĮæĺŁ": 2913,
      "çĦ¶èĢĮ": 2914,
      "ä»İèĢĮå®ŀçİ°": 2915,
      "ç¾İå¥½": 2916,
      "èµĦæºĲçļĦ": 2917,
      "éĩĳå±ŀ": 2918,
      "åĲĦèĩª": 2919,
      "åĵ²åŃ¦æİ¢è®¨": 2920,
      "éķľå¤´": 2921,
      "çļĦæµģ": 2922,
      "åįļå¼Ī": 2923,
      "çİ©å®¶": 2924,
      "çļĦèĥ½åĬĽ": 2925,
      "ä¸Ģæ¬¡": 2926,
      "æĦĪ": 2927,
      "çļĦçĬ": 2928,
      "é¢¤": 2929,
      "å®ļå¾ĭ": 2930,
      "ç»Īèº«": 2931,
      "å£«": 2932,
      "é¡µ": 2933,
      "çĽ¸ä¼ł": 2934,
      "æĤ¦": 2935,
      "å¤įæĿĤç³»ç»Ł": 2936,
      "çľĭçĿĢ": 2937,
      "è£¹": 2938,
      "æ¶ĪèĢĹ": 2939,
      "æ®ĭ": 2940,
      "åį³åħ´": 2941,
      "èŀįåĲĪäºĨ": 2942,
      "çķĻä¸ĭ": 2943,
      "èĥĮåĲİçļĦ": 2944,
      "æİĮæı¡": 2945,
      "åĬŀåħ¬": 2946,
      "èĤ¢ä½ĵ": 2947,
      "çļĦæĸĩåĮĸ": 2948,
      "çļĦçĲĨè§£": 2949,
      "ä¸İæĸĩåĮĸ": 2950,
      "èĥĢ": 2951,
      "è®©ä»ĸ": 2952,
      "çļĦç¢": 2953,
      "çĶµæµģ": 2954,
      "çĶµè·¯": 2955,
      "ç¥¨": 2956,
      "åĽłç´ł": 2957,
      "çĶŁæ´»ä¸Ń": 2958,
      "å½±åĥı": 2959,
      "åĵģçīĮ": 2960,
      "æĹ¨åľ¨æıŃç¤º": 2961,
      "ä»·æł¼": 2962,
      "çľĭè§ģ": 2963,
      "çľĭä¸įè§ģ": 2964,
      "å±Ĥå±Ĥ": 2965,
      "æ¼Ķåĳĺ": 2966,
      "åĮºåŁŁ": 2967,
      "å²Ľ": 2968,
      "éĽ¨æ°´": 2969,
      "æľºåĻ¨åŃ¦ä¹ł": 2970,
      "æĦŁåıĹåĪ°": 2971,
      "çļĦæ°¸": 2972,
      "ç«ŀäºī": 2973,
      "çļĦæĦıä¹ī": 2974,
      "ä¾ĽåºĶéĵ¾": 2975,
      "åĽ¾ä¹¦é¦Ĩ": 2976,
      "çĶļèĩ³": 2977,
      "èĸ": 2978,
      "çļĦä¿¡æģ¯": 2979,
      "ä¸İæĻºèĥ½": 2980,
      "æĺ¯å¯¹": 2981,
      "äººçī©": 2982,
      "æµĩ": 2983,
      "è¡į": 2984,
      "éĹ»": 2985,
      "éĻ¢": 2986,
      "ä»İå®¹": 2987,
      "çłĸ": 2988,
      "æĽ´èĥ½": 2989,
      "éĺ´": 2990,
      "æ·±å±Ĥ": 2991,
      "çŃīå¤ļ": 2992,
      "æĢĿç»ª": 2993,
      "æīĭä¸Ń": 2994,
      "ä¾¿ä¼ļ": 2995,
      "ä¾¿åĪ©": 2996,
      "æ¨¡ç³Ĭ": 2997,
      "ä¿¡æģ¯çļĦ": 2998,
      "é»Ħ": 2999,
      "åĨľäº§åĵģ": 3000,
      "åħ»åĪĨ": 3001,
      "æĲı": 3002,
      "æľºåĻ¨äºº": 3003,
      "æĻ®éģį": 3004,
      "å®ĥä¸įæĺ¯": 3005,
      "åıĮæĸ¹": 3006,
      "åħ¬åħ±åį«çĶŁ": 3007,
      "åĿļå®ŀåŁºç¡Ģ": 3008,
      "éĿ©åĳ½": 3009,
      "åħįçĸ«ç³»ç»Ł": 3010,
      "èĨ¨": 3011,
      "è¯Ħä¼°": 3012,
      "åıłåĬł": 3013,
      "çļĦçŁ¥": 3014,
      "æ»¥çĶ¨": 3015,
      "Ġæµ·æ´ĭ": 3016,
      "īæĭ©": 3017,
      "çļĦæķ°åŃĹ": 3018,
      "çļĦéģĵå¾·": 3019,
      "äººç¾¤": 3020,
      "æĬīæĭ©": 3021,
      "èĩĤ": 3022,
      "ä¿Ĺ": 3023,
      "è®©åİŁæľ¬": 3024,
      "çļĦç«": 3025,
      "çļĦç¬": 3026,
      "åĬĽä¸İ": 3027,
      "éĻĪ": 3028,
      "å¹¶æİ¨åĬ¨": 3029,
      "çº½å¸¦": 3030,
      "æ·Ģ": 3031,
      "æĽ´æĸ°": 3032,
      "åıĺéĿ©": 3033,
      "è§ĤèĢħ": 3034,
      "ä»İèĢĮä¸º": 3035,
      "ä»İèĢĮæıĲåįĩ": 3036,
      "ä¸ĸçºª": 3037,
      "é¡¾": 3038,
      "ç¡®ç«ĭ": 3039,
      "ç«ĭåį³": 3040,
      "èĢģäºº": 3041,
      "åİ»ä¸Ńå¿ĥ": 3042,
      "äº«æľī": 3043,
      "ç»ĥä¹ł": 3044,
      "æĻ®æĥł": 3045,
      "çĽĳç®¡": 3046,
      "èĲ¥éĢł": 3047,
      "ç»ĺåĪ¶": 3048,
      "æŃ»äº¡": 3049,
      "çĮ«": 3050,
      "çģ¾å®³": 3051,
      "åĴĮè°Ĳåħ±çĶŁ": 3052,
      "èĩªçĦ¶è¯Ńè¨Ģå¤ĦçĲĨ": 3053,
      "çļĦçŁ¥è¯Ĩ": 3054,
      "çļĦæķ°æį®": 3055,
      "çļĦå¥ĩ": 3056,
      "ç»ķ": 3057,
      "ä¸İä»·åĢ¼": 3058,
      "æĸĳ": 3059,
      "çļĦæ¶": 3060,
      "å®ĥæıŃç¤ºäºĨ": 3061,
      "çļĦç¼": 3062,
      "ç¨ĭåºı": 3063,
      "åĪ¶å®ļ": 3064,
      "èĤº": 3065,
      "åįĩåįİ": 3066,
      "æķ´çĲĨ": 3067,
      "èį·": 3068,
      "èĬĤæĹ¥": 3069,
      "åĬłåī§": 3070,
      "æļĤ": 3071,
      "âĢĿãĢĤ": 3072,
      "æ¸©å®¤": 3073,
      "èĪŀèĢħ": 3074,
      "åĽŀå½Ĵ": 3075,
      "åĩıæİĴ": 3076,
      "ç»ĦåĲĪ": 3077,
      "é»ĺé»ĺ": 3078,
      "æĬĹçĶŁç´ł": 3079,
      "ç»ĺçĶ»": 3080,
      "ä»¤äºº": 3081,
      "æ¶Īè´¹èĢħ": 3082,
      "å¤ªéĺ³èĥ½": 3083,
      "æļ´éĽ¨": 3084,
      "æĹłäººæľº": 3085,
      "æĻ¶ä½ĵ": 3086,
      "çļĨ": 3087,
      "çļĦé£İ": 3088,
      "äºŁ": 3089,
      "åĲĥ": 3090,
      "äººæ°ĳ": 3091,
      "å¹½": 3092,
      "æĹ¶åĪ»": 3093,
      "çŃĽ": 3094,
      "ç§įæ¤į": 3095,
      "å¥¶": 3096,
      "å¤§æ°Ķ": 3097,
      "æĽ´ä¸º": 3098,
      "äººç±»åģ¥åº·": 3099,
      "æĦıå¢ĥ": 3100,
      "æīĭæľ¯": 3101,
      "è®¤è¯Ĩ": 3102,
      "å¡Į": 3103,
      "å¡Ķ": 3104,
      "ç¢į": 3105,
      "éĿĻæŃ¢": 3106,
      "åĿļéŁ§": 3107,
      "åĲ¸æĶ¶": 3108,
      "å¿ĥçĲĨåģ¥åº·": 3109,
      "é¥°": 3110,
      "åı¤åħ¸": 3111,
      "åĨĻçħ§": 3112,
      "åħ¸åŀĭ": 3113,
      "å°½ç®¡": 3114,
      "æĹłå£°çļĦ": 3115,
      "èĵĿåĽ¾": 3116,
      "éŁ§æĢ§": 3117,
      "èļģ": 3118,
      "æ¹¿": 3119,
      "çĴĥ": 3120,
      "çļĦç¨³å®ļ": 3121,
      "çİ»çĴĥ": 3122,
      "èĨ¨èĥĢ": 3123,
      "Ġæ¸¸æĪı": 3124,
      "åĪĢ": 3125,
      "èĢ³": 3126,
      "åĮĹ": 3127,
      "ä¸ºæł¸å¿ĥ": 3128,
      "è¾ħ": 3129,
      "ç²¹": 3130,
      "åıĺè¿ģ": 3131,
      "æ·±å¤ľ": 3132,
      "åħ¶æł¸å¿ĥ": 3133,
      "æĮĩæĮ¥": 3134,
      "æķ°æį®çļĦ": 3135,
      "åį´èĥ½": 3136,
      "çĽ¸å¯¹": 3137,
      "éĤ®": 3138,
      "çĥ§": 3139,
      "æĤ¬": 3140,
      "å¤±åİ»": 3141,
      "è¯»èĢħåľ¨": 3142,
      "èĬ±åĽŃ": 3143,
      "Ġå½ĵä½ł": 3144,
      "Ġæĥ³è±¡ä¸Ģ": 3145,
      "ç¯®": 3146,
      "å®ģéĿĻä¸İ": 3147,
      "åį±æľº": 3148,
      "å¹¸ç¦ıæĦŁ": 3149,
      "çĽ²çĽ®": 3150,
      "ä¸įç¡®å®ļæĢ§": 3151,
      "¶æĢģ": 3152,
      "çļĦå¤įæĿĤ": 3153,
      "ç»İ": 3154,
      "æĺ¯åľ¨": 3155,
      "äººéĻħ": 3156,
      "è¯ĳ": 3157,
      "ä¸ºäºĨ": 3158,
      "æĮĸ": 3159,
      "çļĦçŀ¬éĹ´": 3160,
      "åİ¦": 3161,
      "éĻĮ": 3162,
      "è¾ī": 3163,
      "éķĩ": 3164,
      "ç½ª": 3165,
      "åĻª": 3166,
      "è§¦æīĭ": 3167,
      "è¿ĲåĬ¨åĳĺ": 3168,
      "è§ĴèĲ½": 3169,
      "èĮĥåĽ´": 3170,
      "æ½ľåľ¨": 3171,
      "å®ĥä¸įä»ħèĥ½": 3172,
      "çļĦæĮĩ": 3173,
      "å³»": 3174,
      "å¿½çķ¥": 3175,
      "çļĦçĬ¶æĢģ": 3176,
      "çħ": 3177,
      "Ġæķ°æį®": 3178,
      "ĠåŁİå¸Ĥ": 3179,
      "æķ¬": 3180,
      "è¯¢": 3181,
      "ä¸ŃåĴĮ": 3182,
      "å¿ĺ": 3183,
      "æİĺ": 3184,
      "æľīå®³": 3185,
      "éĻª": 3186,
      "æĥ«": 3187,
      "å¤§åİ¦": 3188,
      "èīĺ": 3189,
      "åĪĨæķ£": 3190,
      "åī¯": 3191,
      "ä¿¡ä»°": 3192,
      "é«ĺåº¦": 3193,
      "åįĩçº§": 3194,
      "é¡¿": 3195,
      "é¥ª": 3196,
      "åħĥç´ł": 3197,
      "åĩıå°ĳäºĨ": 3198,
      "æīĵçł´ä¼łç»Ł": 3199,
      "çļĦæ¸ħ": 3200,
      "çº³ç±³": 3201,
      "èķ¾": 3202,
      "è´¢å¯Į": 3203,
      "çļĦç©ºéĹ´": 3204,
      "è¿«ä½¿": 3205,
      "åıĳæĮ¥çĿĢ": 3206,
      "æ±Ĺæ°´": 3207,
      "Ġ2": 3208,
      "Ġç²¾åĩĨ": 3209,
      "Ġç»¿èī²": 3210,
      "Ĵå¼ĥ": 3211,
      "ĸæģ¯": 3212,
      "çļĦçİ°ä»£": 3213,
      "çļĦåŃĺåľ¨": 3214,
      "å®«": 3215,
      "è¿Ī": 3216,
      "æľĭ": 3217,
      "åĩĳ": 3218,
      "èĩªåıĳ": 3219,
      "çļĦçª": 3220,
      "è¾°": 3221,
      "ç±į": 3222,
      "è°§": 3223,
      "æĭĴ": 3224,
      "æ±Ł": 3225,
      "è½¬æį¢": 3226,
      "æ°´æµģ": 3227,
      "èĤĮ": 3228,
      "ä¹īåĬ¡": 3229,
      "è°ĥæİ§": 3230,
      "è¿ĲèĲ¥": 3231,
      "å£ģ": 3232,
      "èį¡": 3233,
      "èįĲ": 3234,
      "éĿĻè°§": 3235,
      "æĺŁè¾°": 3236,
      "çĸĹæ³ķ": 3237,
      "æİĴåĪĹ": 3238,
      "æĳĴå¼ĥ": 3239,
      "æīĢåľ¨": 3240,
      "å®ŀæĹ¶çĽĳæµĭ": 3241,
      "åĮħå®¹": 3242,
      "è¾ĵåħ¥": 3243,
      "æĬķèµĦ": 3244,
      "è½¨è¿¹": 3245,
      "è¿ĻéĹ¨åŃ¦ç§ĳ": 3246,
      "Ġä¸Ń": 3247,
      "ĠçĶµ": 3248,
      "çļĦå·¨": 3249,
      "çļĦè§Ĩè§ī": 3250,
      "æĺ¯ä¸ŃåĽ½": 3251,
      "æĪª": 3252,
      "äººä¸İ": 3253,
      "çĲ´": 3254,
      "åįĵ": 3255,
      "éĹ²": 3256,
      "è¿Ļä¸įä»ħæĺ¯": 3257,
      "è¿Ļå°±æĺ¯": 3258,
      "é¢ł": 3259,
      "å¥ĸ": 3260,
      "å¥Ĺ": 3261,
      "æĭį": 3262,
      "å®ļæľŁ": 3263,
      "çķĮéĻĲ": 3264,
      "åıĺæļĸ": 3265,
      "åĪ¶åº¦": 3266,
      "æľĢåĲİ": 3267,
      "è§Ħæ¨¡": 3268,
      "ä¹ĭç¾İ": 3269,
      "è¿Ĳä½ľ": 3270,
      "æİ¨èįĲ": 3271,
      "èµĦäº§": 3272,
      "èĻ«": 3273,
      "çĽ¸ä¼¼": 3274,
      "çĽ´åĪ°": 3275,
      "åįķä¸Ģ": 3276,
      "å±ĤéĿ¢": 3277,
      "æ¼Ķç»İ": 3278,
      "çĬ¯": 3279,
      "åĿļå®Ī": 3280,
      "åĶ®": 3281,
      "ä¸»ä¹īæĺ¯ä¸Ģç§į": 3282,
      "çİ°å®ŀä¸ĸçķĮ": 3283,
      "ç¢³ä¸ŃåĴĮ": 3284,
      "éļĲå½¢": 3285,
      "æ°¸ä¸į": 3286,
      "æµģåĬ¨çļĦ": 3287,
      "ç§©åºıä¸İ": 3288,
      "æ²³æµģ": 3289,
      "å³°": 3290,
      "é¼ĵ": 3291,
      "é¾Ħ": 3292,
      "æ¾Ī": 3293,
      "è¯ĬæĸŃ": 3294,
      "é¹": 3295,
      "çļĦåıĳå±ķ": 3296,
      "åľ¨èĻļæĭŁ": 3297,
      "äººåı£": 3298,
      "å¯Ħ": 3299,
      "åĨĴ": 3300,
      "æĮ¯": 3301,
      "çĽĨ": 3302,
      "åĲĮä¸Ģ": 3303,
      "è¡Įä¸ļ": 3304,
      "å»ĵ": 3305,
      "ç²¾ç¡®": 3306,
      "è¿ĲçĶ¨": 3307,
      "è¯Ńä¹ī": 3308,
      "è¡¨éĿ¢": 3309,
      "çª¥": 3310,
      "èģĶç³»": 3311,
      "çī©è´¨çļĦ": 3312,
      "éĺ²æŃ¢": 3313,
      "å¯»æ±Ĥ": 3314,
      "æĺ¾èĳĹæıĲåįĩäºĨ": 3315,
      "è½®å»ĵ": 3316,
      "çĩĥæĸĻ": 3317,
      "ç»´ç³»çĿĢ": 3318,
      "è·Ŀç¦»": 3319,
      "çļĦçģµéŃĤ": 3320,
      "çĥ¹é¥ª": 3321,
      "æ³Ħéľ²": 3322,
      "çļĦæ°¸æģĴ": 3323,
      "è§¦æīĭåı¯åıĬ": 3324,
      "Â·": 3325,
      "çļĦå¾®": 3326,
      "çļĦä»·åĢ¼": 3327,
      "éĢĥ": 3328,
      "æĹģ": 3329,
      "åľ¨æĸ¹å¯¸": 3330,
      "åĲŀ": 3331,
      "äººå¿ĥ": 3332,
      "è¯ļ": 3333,
      "å¿Ļ": 3334,
      "çļĦæ£": 3335,
      "æĿĢ": 3336,
      "æĮ£": 3337,
      "è®©æ¯ıä¸Ģ": 3338,
      "æĬĢèĥ½": 3339,
      "æµģç¨ĭ": 3340,
      "æĦıè±¡": 3341,
      "èĤ´": 3342,
      "çĶŁæ´»è´¨éĩı": 3343,
      "å½ĵä»£": 3344,
      "å¥½æ¯Ķä¸Ģä½į": 3345,
      "æľĢç»Īåľ¨": 3346,
      "æ¶ĪéĻ¤": 3347,
      "çĬ¹": 3348,
      "ä¹¦åĨĻ": 3349,
      "è½»çĽĪ": 3350,
      "ç¼ĸç¨ĭ": 3351,
      "è§Ĵèī²": 3352,
      "äº§çĶŁçļĦ": 3353,
      "ç®Ģæ´ģ": 3354,
      "æ°¸è¿ľ": 3355,
      "çº¢èī²": 3356,
      "ç¯ĩ": 3357,
      "åį°è±¡": 3358,
      "è´¦æľ¬": 3359,
      "èĪŀåı°ä¸Ĭ": 3360,
      "æĿŁç¼ļ": 3361,
      "æĽ¿ä»£": 3362,
      "ä¹ĺå®¢": 3363,
      "åįĵè¶Ĭ": 3364,
      "ģè®¸": 3365,
      "åħģè®¸": 3366,
      "åŃ£": 3367,
      "äººçĶŁ": 3368,
      "ä¸Ńåįİ": 3369,
      "çļĦæ¢": 3370,
      "ä¸ºä½ķ": 3371,
      "æī«": 3372,
      "å®ĥåľ¨": 3373,
      "å®ĥå¹¶éĿŀ": 3374,
      "å¹¶ä¿ĥè¿Ľ": 3375,
      "æĭĶ": 3376,
      "åĵª": 3377,
      "æķĪåºĶ": 3378,
      "æľ¬ä½ĵ": 3379,
      "æµģçķħ": 3380,
      "è°ĥåº¦": 3381,
      "æīĭæ³ķ": 3382,
      "å®īå®ģ": 3383,
      "åħ¬æ°ĳ": 3384,
      "çĤ¹äº®": 3385,
      "æł¼å±Ģ": 3386,
      "è¶ħå¯¼": 3387,
      "è§īå¯Ł": 3388,
      "å¹´è½»": 3389,
      "è§ģè¯ģ": 3390,
      "æĺ¯æĮĩéĢļè¿ĩ": 3391,
      "æĳĩ": 3392,
      "çĪ¶": 3393,
      "ç¦»åŃĲ": 3394,
      "å¿ĥçģµçļĦ": 3395,
      "æłĳæľ¨": 3396,
      "å±ŀäºİ": 3397,
      "å¸¦æĿ¥çļĦ": 3398,
      "æĹħæ¸¸": 3399,
      "ç§ĺå¯Ĩ": 3400,
      "èľĤ": 3401,
      "é¡ºçķħ": 3402,
      "æ´ŀå¯Ł": 3403,
      "éª¨æŀ¶": 3404,
      "èĦĨå¼±": 3405,
      "äºŁéľĢ": 3406,
      "DNA": 3407,
      "ĠæĻºæħ§": 3408,
      "ĽåĽ´": 3409,
      "çļĦå°ı": 3410,
      "äººä¸İèĩªçĦ¶": 3411,
      "åºĹ": 3412,
      "äºĨä¸Ģ": 3413,
      "ä¸ºçĲĨè§£": 3414,
      "åĮĸä¸º": 3415,
      "å®ŀçĶ¨": 3416,
      "é¢Ī": 3417,
      "æ¸´æľĽ": 3418,
      "çľģ": 3419,
      "åĩºçļĦ": 3420,
      "ä»£ä»£": 3421,
      "æºĲå¤´": 3422,
      "ä¿ĿéĻ©": 3423,
      "çŃīæł¸å¿ĥ": 3424,
      "æĦıåĳ³": 3425,
      "éª¤": 3426,
      "åıªèĥ½": 3427,
      "è¯Ńå¢ĥ": 3428,
      "èµ·ä¼ı": 3429,
      "å®īåħ¨æĢ§": 3430,
      "éĤ£ä»½": 3431,
      "è¶ħçº§": 3432,
      "æ¯ıä¸Ģä¸ª": 3433,
      "æĳ©": 3434,
      "ä¿®æŃ£": 3435,
      "é¥®": 3436,
      "ç§¯æľ¨": 3437,
      "èĮĥå¼ı": 3438,
      "ç¹ģèį£": 3439,
      "åĪĽä½ľèĢħ": 3440,
      "æħ¢æĢ§": 3441,
      "å¾®å°ıçļĦ": 3442,
      "çļĦçº¿": 3443,
      "ä¸¥è°¨çļĦ": 3444,
      "èĪĴå±ķ": 3445,
      "é²ľæ´»": 3446,
      "äºĮæ°§åĮĸç¢³": 3447,
      "éģ¥è¿ľ": 3448,
      "é¢łè¦Ĩ": 3449,
      "¡å¯¼": 3450,
      "±ä¹Ĳ": 3451,
      "éº": 3452,
      "ĠæŁĲ": 3453,
      "åĪ·": 3454,
      "æĺ¯çİ°ä»£": 3455,
      "ä¸įæģ¯": 3456,
      "çļĦçĸ": 3457,
      "å¥³": 3458,
      "æĹłåºı": 3459,
      "ä»¥æŃ¤": 3460,
      "ç¨Ģ": 3461,
      "æıĲåĩº": 3462,
      "åĪĨè§£": 3463,
      "åĩºçİ°": 3464,
      "æ·±åĮĸ": 3465,
      "åĢ¡å¯¼": 3466,
      "è±ª": 3467,
      "æŃ£æ·±åĪ»": 3468,
      "å½¢çĬ¶": 3469,
      "äº§éĩı": 3470,
      "åĲĳå¾Ģ": 3471,
      "åĩĨåĪĻ": 3472,
      "åģ¥èº«": 3473,
      "æ¡£": 3474,
      "åįķåħĥ": 3475,
      "éļıä¹ĭ": 3476,
      "è¿ľæĸ¹": 3477,
      "æīĢéľĢ": 3478,
      "ç¨³åĽº": 3479,
      "é¦ĸ": 3480,
      "ä¹¦ç±į": 3481,
      "é¸¿": 3482,
      "æł¹æľ¬": 3483,
      "æĿĥåĬĽ": 3484,
      "é»ĺå¥ĳ": 3485,
      "å°±åĥıä¸Ģåľº": 3486,
      "å±Ģéĥ¨": 3487,
      "ä¸´çķĮ": 3488,
      "åĢŁåĬ©": 3489,
      "çļĦæĻ®": 3490,
      "ä¸»å¼łéĢļè¿ĩ": 3491,
      "åĭĩ": 3492,
      "åģıè§ģ": 3493,
      "æ½ľåĬĽ": 3494,
      "èĩªå·±çļĦ": 3495,
      "æĹħè¡Į": 3496,
      "çĮ®": 3497,
      "èĦīç»ľ": 3498,
      "æĭ¼åĩĳ": 3499,
      "çļĦæŀģ": 3500,
      "è¸ı": 3501,
      "å°Ŀè¯ķ": 3502,
      "å¯¿åĳ½": 3503,
      "æĦıåĳ³çĿĢ": 3504,
      "³çĲĨ": 3505,
      "ĠèĩªçĶ±": 3506,
      "çļĦæľªæĿ¥": 3507,
      "çļĦæķ´ä½ĵ": 3508,
      "åıī": 3509,
      "çİĭ": 3510,
      "ä¸Ńä¿ĿæĮģ": 3511,
      "ä¸įåıĺ": 3512,
      "æĢ§æĢĿç»´": 3513,
      "çļĦç¡": 3514,
      "æĥ§": 3515,
      "æĶ»": 3516,
      "éĩįèİ·": 3517,
      "æ²¸": 3518,
      "åıĬæĹ¶": 3519,
      "æľ¬èĥ½": 3520,
      "ç®±": 3521,
      "ä»£è¡¨": 3522,
      "ç²¾åĬĽ": 3523,
      "å¤įåĪ¶": 3524,
      "è°ĥåĴĮ": 3525,
      "åĲİä»£": 3526,
      "åıªè¦ģ": 3527,
      "çĭ¬èĩª": 3528,
      "éĿĻé»ĺ": 3529,
      "ä¸ªä½ĵçļĦ": 3530,
      "æĥħæĦŁåħ±é¸£": 3531,
      "èĩ³ä»Ĭ": 3532,
      "çī©çĲĨåŃ¦": 3533,
      "ä¸įåĲĮçļĦ": 3534,
      "è§¦æĳ¸": 3535,
      "è¯ķéªĮ": 3536,
      "åĩĿè§Ĩ": 3537,
      "åĨľä¸ļçĶŁäº§": 3538,
      "å¨±ä¹Ĳ": 3539,
      "èµ°è¿Ľ": 3540,
      "èĵĦ": 3541,
      "å¸¦æĿ¥äºĨ": 3542,
      "èľľ": 3543,
      "å´ĩ": 3544,
      "é©¬æĭī": 3545,
      "å¯ĨçłģåŃ¦": 3546,
      "æİªæĸ½": 3547,
      "çļĦæ²³æµģ": 3548,
      "æĬĺå°Ħåĩº": 3549,
      "¡æĶ¹": 3550,
      "°å®Ŀ": 3551,
      "ï¼Ł": 3552,
      "äºļ": 3553,
      "åħ¼": 3554,
      "ç»µ": 3555,
      "ç»·": 3556,
      "æĺ¯å°Ĩ": 3557,
      "å°ļ": 3558,
      "ä¹ı": 3559,
      "åĨ¥": 3560,
      "çī©ä½ĵ": 3561,
      "æķ°éĩı": 3562,
      "åľ°éľĩ": 3563,
      "æ·¡": 3564,
      "æĭ¬": 3565,
      "åı¯è§ģ": 3566,
      "æĸ¹è¨Ģ": 3567,
      "æģĲ": 3568,
      "ç«Ł": 3569,
      "éĥģ": 3570,
      "é«ĺéĢŁ": 3571,
      "å¾ĭåĬ¨": 3572,
      "å¤ļå±Ĥ": 3573,
      "å¼ºå¤§çļĦ": 3574,
      "åĩĨç¡®": 3575,
      "çĶŁçī©ä½ĵ": 3576,
      "èµĦæºĲéħįç½®": 3577,
      "æķĻåŃ¦": 3578,
      "ä»·åĢ¼çļĦ": 3579,
      "è¯ģæį®": 3580,
      "éħįåĲĪ": 3581,
      "åĶ±": 3582,
      "é¥Ń": 3583,
      "æł¹ç³»": 3584,
      "éĩĳèŀįæľįåĬ¡": 3585,
      "è¯ĹæĦı": 3586,
      "ä¸´åºĬ": 3587,
      "äº¤éĢļæĭ¥åłµ": 3588,
      "å½¢æĪĲçļĦ": 3589,
      "æĹ¶ä»£çļĦ": 3590,
      "æ·±åº¦åŃ¦ä¹ł": 3591,
      "ç¯¡æĶ¹": 3592,
      "å¥Ķè·ĳ": 3593,
      "ä¸¥éĩįå¨ģèĥģ": 3594,
      "çº·ç¹ģ": 3595,
      "å°ºåº¦": 3596,
      "çļĦç¥ŀç»ı": 3597,
      "åı¯åĨįçĶŁ": 3598,
      "éĻ·åħ¥": 3599,
      "çļĦæ¼Ķ": 3600,
      "çļĦçĥŃ": 3601,
      "ç²®é£Łå®īåħ¨": 3602,
      "èĸĦ": 3603,
      "åİ»ä¸Ńå¿ĥåĮĸ": 3604,
      "Ġ20": 3605,
      "é©¬æĭīæĿ¾": 3606,
      "²åıĸ": 3607,
      "ĠæĻºèĥ½": 3608,
      "ä¸Ģæľ¬": 3609,
      "åºŀ": 3610,
      "ä¸Ńä»ĭ": 3611,
      "åĩī": 3612,
      "çĲĨæĥ³": 3613,
      "çļĦçķ": 3614,
      "å¯¹äºİ": 3615,
      "çŃ¾": 3616,
      "ç²Ĺ": 3617,
      "æ±²åıĸ": 3618,
      "åī¥": 3619,
      "æµģåĲĳ": 3620,
      "å°±èĥ½": 3621,
      "çģ°": 3622,
      "çĸı": 3623,
      "çī¹èī²": 3624,
      "éĶĲ": 3625,
      "æĺ¯ä¸Ģåľº": 3626,
      "åħ¬åı¸": 3627,
      "è¢«åĬ¨": 3628,
      "æĻºèĥ½åĮĸ": 3629,
      "ä¸¥å³»": 3630,
      "æĺŁéĻħ": 3631,
      "åŁİå¸ĤçļĦ": 3632,
      "æĺ¯ä¸Ģç§įåĪ©çĶ¨": 3633,
      "éĽĨæĪĲ": 3634,
      "éļĲèĹı": 3635,
      "å»¶ä¼¸": 3636,
      "çļĦç²¾åĩĨ": 3637,
      "æĹ¥å¸¸çĶŁæ´»": 3638,
      "æĬķåħ¥": 3639,
      "çļĦæĸ°åŀĭ": 3640,
      "çļĦäº¤åĵįä¹Ĳ": 3641,
      "åºŁå¼ĥ": 3642,
      "ç»ĵæŀĦä¸İåĬŁèĥ½": 3643,
      "èķ´åĲ«": 3644,
      "èģĮä¸ļ": 3645,
      "é½¿": 3646,
      "åĶ¤éĨĴ": 3647,
      "çŃĽéĢī": 3648,
      "é¸¿æ²Ł": 3649,
      "ĠèĩªçĦ¶": 3650,
      "çļĦåŁºæľ¬": 3651,
      "ç»§": 3652,
      "ä¸İçĶŁåĳ½": 3653,
      "ä¸ĢæŃ¥": 3654,
      "çīĪ": 3655,
      "ä¸įçŁ¥": 3656,
      "å®ĥä»¥": 3657,
      "è´·": 3658,
      "çī©åĵģ": 3659,
      "çļĦçĹ": 3660,
      "çŁĽçĽ¾": 3661,
      "éĩįç»Ħ": 3662,
      "åħ¨æĸ°çļĦ": 3663,
      "è§£æŀĦ": 3664,
      "å»ºè®¾": 3665,
      "åĲĪçº¦": 3666,
      "è§Ĩéĩİ": 3667,
      "éĥ½ä¼ļ": 3668,
      "æĹ¢æĺ¯": 3669,
      "å¾®çĶŁçī©": 3670,
      "æ¼Ķè¿Ľ": 3671,
      "æķĪçİĩå¹¶": 3672,
      "å¢ŀåĬł": 3673,
      "æ²īæ·Ģ": 3674,
      "ç¼ĵç¼ĵ": 3675,
      "ä¿ĥä½¿": 3676,
      "ç¹ģè¡į": 3677,
      "æķ£èĲ½": 3678,
      "åĮħæĭ¬": 3679,
      "æħİ": 3680,
      "çľŁæŃ£çļĦ": 3681,
      "èµĽäºĭ": 3682,
      "èĵĿèī²": 3683,
      "çļĦæīĭ": 3684,
      "æ¶Įçİ°åĩº": 3685,
      "Ġå°ıæĺİ": 3686,
      "ä»ªå¼ı": 3687,
      "è¡°èĢģ": 3688,
      "å®ľå±ħ": 3689,
      "æ¸©å®¤æ°Ķä½ĵ": 3690,
      "æĮĸæİĺ": 3691,
      "å©": 3692,
      "çļĦå¤§": 3693,
      "åľĪ": 3694,
      "åĪ¹": 3695,
      "èĥ¶": 3696,
      "ä¸ĢæĹł": 3697,
      "ä¹³": 3698,
      "çī¢": 3699,
      "äºĨä¼łç»Ł": 3700,
      "çļĦæ±": 3701,
      "å®ĥå°Ĩ": 3702,
      "è´«": 3703,
      "å·ŀ": 3704,
      "æ³¡": 3705,
      "æĪĲåĬŁ": 3706,
      "æĻ¨": 3707,
      "ç±»åŀĭ": 3708,
      "éĩıèº«": 3709,
      "è§£æŀĲ": 3710,
      "èĬ½": 3711,
      "åħīçº¿": 3712,
      "æŃ£éĢĲæŃ¥": 3713,
      "åĽłæŀľ": 3714,
      "å¼ºåĮĸ": 3715,
      "åį´åĽł": 3716,
      "ç¾İé£Ł": 3717,
      "å¡ŀ": 3718,
      "çİ°ä»£ä¸»ä¹ī": 3719,
      "ä»ĸäºº": 3720,
      "åĨľæ°ĳ": 3721,
      "æľīæķĪç¼ĵè§£": 3722,
      "èĪªè¡Į": 3723,
      "è¯ĹæŃĮ": 3724,
      "å»¶éķ¿": 3725,
      "çľ¼åīį": 3726,
      "æīįèĥ½è®©": 3727,
      "æĹ¶ç©ºéĻĲåĪ¶": 3728,
      "å½¼å²¸": 3729,
      "åŁ¹èĤ²": 3730,
      "åĩĢåĮĸ": 3731,
      "ä¸»è§Ĥä½ĵéªĮ": 3732,
      "åĤ¬åĮĸ": 3733,
      "éĤ®ä»¶": 3734,
      "ĸæģ¯åľ°": 3735,
      "éī": 3736,
      "Ġå®ĹæķĻ": 3737,
      "çļĦä¸ĸçķĮ": 3738,
      "çļĦåĬĽéĩı": 3739,
      "çĶľ": 3740,
      "ä¸Ģæĸ¹": 3741,
      "å¼¦": 3742,
      "çīĽ": 3743,
      "çļĦæĤ": 3744,
      "çļĦæĭ": 3745,
      "æİĪ": 3746,
      "æĦī": 3747,
      "ä¾¦": 3748,
      "å·´": 3749,
      "å®ŀè¯ģ": 3750,
      "è®©æĪĳä»¬": 3751,
      "è®©è§Ĥä¼Ĺ": 3752,
      "æĪĲäºĨ": 3753,
      "åĲĮæł·": 3754,
      "å°Ĩäººç±»": 3755,
      "å·¥åĮł": 3756,
      "è½¬åĲĳ": 3757,
      "æ°´ä¸Ń": 3758,
      "äº¤èŀį": 3759,
      "åĿį": 3760,
      "èĩªçĦ¶çļĦ": 3761,
      "å°ıåĮº": 3762,
      "çĶŁæĢģçİ¯å¢ĥ": 3763,
      "çº¿æĢ§": 3764,
      "åºıåĪĹ": 3765,
      "å¥½æ¯Ķåľ¨": 3766,
      "æĺŁçĲĥ": 3767,
      "ç»Ĩå¾®": 3768,
      "åĸ·": 3769,
      "æ¢³çĲĨ": 3770,
      "ä¹ĲåĻ¨": 3771,
      "éļıæĹ¶": 3772,
      "æ·±åĪ»æĶ¹åıĺäºĨ": 3773,
      "èĻļå®ŀ": 3774,
      "æľįåĬ¡äºİ": 3775,
      "äººä»¬å¯¹": 3776,
      "æĲľ": 3777,
      "çĶ¨æĪ·ä½ĵéªĮ": 3778,
      "çħ§äº®": 3779,
      "å¼ķåıĳäºĨ": 3780,
      "åħ´è¶£": 3781,
      "çĶµåŃĲç«ŀæĬĢ": 3782,
      "éĢĤåºĶçİ¯å¢ĥ": 3783,
      "ä¸¤ä¸ª": 3784,
      "çº¯ç²¹": 3785,
      "è¯¥é¢ĨåŁŁ": 3786,
      "çļĦæĮģ": 3787,
      "çĭ¬ç«ĭäºİ": 3788,
      "èļĢ": 3789,
      "èĩªçĦ¶çķĮä¸Ń": 3790,
      "æīĵçł´äºĨä¼łç»Ł": 3791,
      "çĪĨåıĳ": 3792,
      "çĸ²æĥ«": 3793,
      "åĨ¥æĥ³": 3794,
      "éī´": 3795,
      "Ġè§Ĥå¯Ł": 3796,
      "ĠèĩªåĬ¨é©¾é©¶": 3797,
      "ĠDNA": 3798,
      "çļĦç»¼åĲĪ": 3799,
      "å®£": 3800,
      "è¿Ł": 3801,
      "æĺĶ": 3802,
      "éĢ¼": 3803,
      "å¼¥": 3804,
      "åįł": 3805,
      "äºĨäººç±»": 3806,
      "è¿Ļæĺ¯": 3807,
      "æĮ¤": 3808,
      "æ°ĽåĽ´": 3809,
      "ä¾§": 3810,
      "ç§įç¾¤": 3811,
      "æ¯ģ": 3812,
      "éĩįå»º": 3813,
      "æ³ķæ²»": 3814,
      "æĮģä¹ħ": 3815,
      "ç»ıè¿ĩ": 3816,
      "ä¹ĭå¤ĸ": 3817,
      "çİ¯ä¿Ŀ": 3818,
      "çİ¯èĬĤ": 3819,
      "è®ºæĺ¯çłĶç©¶": 3820,
      "å¼ºå¤§": 3821,
      "åħ¬æŃ£": 3822,
      "å¡«": 3823,
      "æĤī": 3824,
      "çĶŁçī©æĬĢæľ¯": 3825,
      "è¨Ģè¯Ń": 3826,
      "çŀ¬éĹ´çļĦ": 3827,
      "ä½¿åħ¶": 3828,
      "çľĭæ¸ħ": 3829,
      "ä¾ĿéĿł": 3830,
      "æĶ¶åħ¥": 3831,
      "å§¿": 3832,
      "å¼Ĥå¸¸": 3833,
      "åĮĸåŃ¦åıįåºĶ": 3834,
      "å±±æ°´": 3835,
      "çĶŁåĬ¨è¯łéĩĬäºĨ": 3836,
      "è¾ĵéĢģ": 3837,
      "åı¶çīĩ": 3838,
      "è¡Ģç®¡": 3839,
      "æ·±åº¦èŀįåĲĪ": 3840,
      "éĽ¶ä»¶": 3841,
      "å¤ªéĺ³ç³»": 3842,
      "ç¡¬ä»¶": 3843,
      "è¿ģç§»": 3844,
      "éĢĶå¾Ħ": 3845,
      "çļĦçĶŁåĬ¨ä½ĵçİ°": 3846,
      "çļĦæ¯ı": 3847,
      "é¢ľèī²": 3848,
      "æĻ®æĥłéĩĳèŀį": 3849,
      "çŀ¬": 3850,
      "Ĭçĳ": 3851,
      "çļĦéķ¿": 3852,
      "çļĦèĩªçĦ¶": 3853,
      "çļĦåĴĮè°Ĳ": 3854,
      "æľ´": 3855,
      "åĬª": 3856,
      "ä¸İè¡Įä¸º": 3857,
      "ä¸İç©ºéĹ´": 3858,
      "æīŃ": 3859,
      "åŁĥ": 3860,
      "åİĺ": 3861,
      "å¤§ä¼Ĺ": 3862,
      "åľ°ä½į": 3863,
      "è¾ĥ": 3864,
      "ä»İæµ·éĩı": 3865,
      "æĽ´å¤ļ": 3866,
      "åıĺå¼Ĥ": 3867,
      "è§ĤèĢħåľ¨": 3868,
      "æĸ°çĶŁ": 3869,
      "è½¬åıĺ": 3870,
      "åħīä¼ı": 3871,
      "åĨħæ¶µ": 3872,
      "èĦ¸": 3873,
      "èŀįåĮĸ": 3874,
      "åİŁæĸĻ": 3875,
      "è®¤åĲĮ": 3876,
      "éĢłæĪĲ": 3877,
      "åĲİæŀľ": 3878,
      "èĢĮæĺ¯åľ¨": 3879,
      "å¦ĤåĲĮç»Ļ": 3880,
      "éĵº": 3881,
      "å¼Ģå§ĭ": 3882,
      "æŀģå¤§": 3883,
      "å¤©åľ°": 3884,
      "å¤ĸçķĮ": 3885,
      "åĲĦåĽ½": 3886,
      "è½¬åĮĸä¸ºçĶµèĥ½": 3887,
      "å¹¿éĺĶ": 3888,
      "ä¿®æĶ¹": 3889,
      "æ²īçĿ¡": 3890,
      "ç§¯ç´¯": 3891,
      "éĵ¾æĿ¡": 3892,
      "åģıè¿ľ": 3893,
      "çļĦèīºæľ¯å½¢å¼ı": 3894,
      "è¡¨çİ°ä¸º": 3895,
      "çĹĽèĭ¦": 3896,
      "çıįè´µ": 3897,
      "æ±ĩèģļæĪĲ": 3898,
      "çļĦç½ĳ": 3899,
      "åĮ¹éħį": 3900,
      "Ġä¸ŃåĮ»": 3901,
      "çĬ¹å¦Ĥ": 3902,
      "çļĦæ¢¦": 3903,
      "åı¯åĨįçĶŁèĥ½æºĲ": 3904,
      "Ĭçĳļ": 3905,
      "åĺ": 3906,
      "ĠåĲİ": 3907,
      "Ġæľīæľº": 3908,
      "çĶĺ": 3909,
      "ä¸İåħ¶": 3910,
      "å¤¸": 3911,
      "æĬĵ": 3912,
      "çļĦæ½": 3913,
      "å®ĥåĪ©çĶ¨": 3914,
      "è¿Ļä¸ª": 3915,
      "è¿Ļä»½": 3916,
      "æł¡": 3917,
      "åİħ": 3918,
      "ç¤ģ": 3919,
      "çķı": 3920,
      "æıĲéĨĴ": 3921,
      "åħ¨æĸ°": 3922,
      "å¹³ç¨³": 3923,
      "èĪµ": 3924,
      "æ¶¨": 3925,
      "çŃīæĬĢæľ¯": 3926,
      "ç¾İæĦŁ": 3927,
      "éĥ½åľ¨": 3928,
      "ç¡®è®¤": 3929,
      "æµ·å¹³éĿ¢": 3930,
      "çĭ¬ä¸ĢæĹł": 3931,
      "åħ·è±¡": 3932,
      "å®īåħ¨çļĦ": 3933,
      "ä¼łç»ŁæĸĩåĮĸ": 3934,
      "çªĥ": 3935,
      "éļıæĦı": 3936,
      "æ£µ": 3937,
      "åı¯èĥ½å¼ķåıĳ": 3938,
      "ä¿ĥè¿ĽäºĨ": 3939,
      "ä¸įåĨįæĺ¯": 3940,
      "åĭ¾": 3941,
      "åĭĴ": 3942,
      "äºīè®®": 3943,
      "æĺłçħ§": 3944,
      "æİĮæİ§": 3945,
      "å®ŀéĻħéĹ®é¢ĺ": 3946,
      "åŃ¤çĭ¬": 3947,
      "ç¢İçīĩåĮĸ": 3948,
      "åªĴä½ĵ": 3949,
      "çļĦæĦŁçŁ¥": 3950,
      "æķıéĶĲ": 3951,
      "æŀĿåı¶": 3952,
      "å´©å¡Į": 3953,
      "è¯īè¯´": 3954,
      "ç»Łè®¡åŃ¦": 3955,
      "åīįæıĲä¸ĭ": 3956,
      "çļĦæŃ£": 3957,
      "éĻªä¼´": 3958,
      "æľĭåıĭ": 3959,
      "å¯Ħæīĺ": 3960,
      "åıīåŃ¦ç§ĳ": 3961,
      "çĭ¬ä¸ĢæĹłäºĮ": 3962,
      "æ©": 3963,
      "Ġä½ĵèĤ²": 3964,
      "ĠçĶŁçī©å¤ļæł·æĢ§": 3965,
      "ĠèĬĤæĹ¥": 3966,
      "ä¸²": 3967,
      "çļĦæĺ¯": 3968,
      "çļĦç»ĵæŀĦ": 3969,
      "çļĦå®ıå¤§": 3970,
      "ä¸įæĺ¯": 3971,
      "çļĦæ»": 3972,
      "åĨ»": 3973,
      "è®©çĶ¨æĪ·": 3974,
      "è®©è¯»èĢħåľ¨": 3975,
      "ç¤¼": 3976,
      "å¤§æµ·": 3977,
      "åĵĪ": 3978,
      "æĦŁåĪ°": 3979,
      "ä¼łæŁĵ": 3980,
      "æŃ£åľ¨": 3981,
      "æĥħä¸İ": 3982,
      "æĪĳä»¬å¦Ĥä½ķ": 3983,
      "æ¯ıä½į": 3984,
      "åĪ©çĽĬ": 3985,
      "æİ¥æĶ¶": 3986,
      "æİ¥çº³": 3987,
      "éĥ½å¸Ĥ": 3988,
      "äºĭå®ŀ": 3989,
      "éĿĻéĿĻ": 3990,
      "æ¢¯": 3991,
      "æİ¨åĬ¨çĿĢ": 3992,
      "æ¯ıä¸ĢæŃ¥": 3993,
      "åĽŀåºĶ": 3994,
      "æĶ¶èİ·": 3995,
      "éĺ²çº¿": 3996,
      "æŀ¶æŀĦ": 3997,
      "åĮħè£¹": 3998,
      "æľĪçĲĥ": 3999,
      "éģĹäº§": 4000,
      "åħħçĶµ": 4001,
      "åĨ³å®ļè®º": 4002,
      "è¡Ģæ¶²": 4003,
      "çĶŁåŃĺä¸İ": 4004,
      "å¿ĹæĦ¿": 4005,
      "æĹħç¨ĭ": 4006,
      "éĩĩéĽĨ": 4007,
      "éĶĻè¯¯": 4008,
      "è¯ŀçĶŁ": 4009,
      "è½¨éģĵ": 4010,
      "éĤ»å±ħ": 4011,
      "çļĦæķ°åŃ¦åĪĨæĶ¯": 4012,
      "ç»§ç»Ń": 4013,
      "éĩıèº«å®ļåĪ¶": 4014,
      "ä¾¦æİ¢": 4015,
      "åĿįç¼©": 4016,
      "Ġåħī": 4017,
      "Ġç§ĳåŃ¦": 4018,
      "Ġå®ĩå®Ļ": 4019,
      "Ġåı¤": 4020,
      "Ġæ£®æŀĹ": 4021,
      "çļĦå·¨å¤§": 4022,
      "çļĦæķħäºĭ": 4023,
      "äºķ": 4024,
      "è§ħ": 4025,
      "ä¸ĢæĿ¯": 4026,
      "äººåľ¨": 4027,
      "åºĦ": 4028,
      "è¯º": 4029,
      "å¾Ļ": 4030,
      "éĢļè¿ĩç§ĳåŃ¦": 4031,
      "æĪĲå°±": 4032,
      "åıĳçĶµ": 4033,
      "éĻĨ": 4034,
      "æ¯Ľ": 4035,
      "éļĻ": 4036,
      "æµģæ°´": 4037,
      "åĢ¦": 4038,
      "è½¬ç§»": 4039,
      "çĶµèĦĳ": 4040,
      "äº¤æį¢": 4041,
      "éĶ»": 4042,
      "éĶĭ": 4043,
      "å¯¼ä½ĵ": 4044,
      "ä¹ĭä¸Ģ": 4045,
      "çĶŁåĳ½åľ¨": 4046,
      "æ»¤": 4047,
      "åħ¬ä¼Ĺ": 4048,
      "éĤĥ": 4049,
      "ç¦ħ": 4050,
      "ä¼ĺéĽħ": 4051,
      "æ³¨éĩį": 4052,
      "æİ¨åĬ¨ç¤¾ä¼ļ": 4053,
      "å¤±è¡¡": 4054,
      "åĬŁèĥ½ä¸»ä¹ī": 4055,
      "è¾¾åĪ°": 4056,
      "éĺ²å¾¡": 4057,
      "åī§çĥĪ": 4058,
      "ç´łè´¨": 4059,
      "è½»æĿ¾": 4060,
      "å°±åĥıä¸Ģåº§": 4061,
      "æĦıä¹īçļĦ": 4062,
      "åĮħåĲ«": 4063,
      "ä½ıæĪ¿": 4064,
      "è®°å¿Ĩä¸İ": 4065,
      "çľŁå®ŀçļĦ": 4066,
      "äº²æīĭ": 4067,
      "æĮīéľĢ": 4068,
      "è¿ģå¾Ļ": 4069,
      "åĨ°åĨ·": 4070,
      "åĨ°å·Ŀ": 4071,
      "ä¸°å¯ĮçļĦ": 4072,
      "è¿Ļé¡¹æĬĢæľ¯": 4073,
      "çĵ¦": 4074,
      "çĵ¶": 4075,
      "é¾Ļ": 4076,
      "ä½³èĤ´": 4077,
      "é½Ĳ": 4078,
      "ç»ĦæĪĲéĥ¨åĪĨ": 4079,
      "æĮ£æīİ": 4080,
      "æ§": 4081,
      "Ġå°±åĥı": 4082,
      "çļĦå¿ĥ": 4083,
      "çļĦåľ°": 4084,
      "å®ł": 4085,
      "åı¹": 4086,
      "æĺĤ": 4087,
      "åŃķ": 4088,
      "ä¸İæĬĢæľ¯": 4089,
      "æĺ¯ä¸ªä½ĵ": 4090,
      "æĺ¯è¿ŀæİ¥": 4091,
      "æĺ¯ä¸ªä½ĵåľ¨": 4092,
      "å¤®": 4093,
      "å¤º": 4094,
      "ç§ĭ": 4095,
      "è¯·": 4096,
      "åį¡": 4097,
      "è¿ĩå¾Ģ": 4098,
      "è¿ĩè½½": 4099,
      "éĢļå¾Ģ": 4100,
      "è¿Ļåº§": 4101,
      "æĢ§åĴĮ": 4102,
      "è®©è®¡ç®Ĺæľº": 4103,
      "è®©è§ĤèĢħåľ¨": 4104,
      "æľºä½ĵ": 4105,
      "è°ģ": 4106,
      "æĦŁæĤŁ": 4107,
      "æķĪæŀľ": 4108,
      "éĩıåĮĸ": 4109,
      "éļĨ": 4110,
      "å°±ä¸ļ": 4111,
      "èĬĴ": 4112,
      "éĽ·": 4113,
      "è¿Ľåħ¥": 4114,
      "ä¹ĭä¸Ĭ": 4115,
      "æİ¨éĢģ": 4116,
      "å£³": 4117,
      "é£İèĥ½": 4118,
      "æ¸ħéĻ¤": 4119,
      "æ¸ħæ¾Ī": 4120,
      "éĿŀçº¿æĢ§": 4121,
      "èĬĤçº¦": 4122,
      "æµ·ç»µ": 4123,
      "åĪĽä¸ļ": 4124,
      "ç»ĵæŀĦçļĦ": 4125,
      "å®īåħ¨ä¸İ": 4126,
      "è·¯çº¿": 4127,
      "çĹħåİŁ": 4128,
      "ä¼ĺåĬ¿": 4129,
      "èĢģæĹ§": 4130,
      "æĴ¼": 4131,
      "æ²»æĦĪ": 4132,
      "åĲĦç§į": 4133,
      "ä¸»ä¹īä¸»å¼ł": 4134,
      "åĽ½éĻħ": 4135,
      "çĶ»éĿ¢": 4136,
      "çĶ»å®¶": 4137,
      "åı¯èĥ½æĢ§": 4138,
      "éļľç¢į": 4139,
      "ä¸įåı¯éĢĨ": 4140,
      "èĪªå¤©": 4141,
      "æıĲä¾ĽäºĨåħ³éĶ®": 4142,
      "çıŃ": 4143,
      "ç¥ŀç»ıåħĥ": 4144,
      "å±ŀæĢ§": 4145,
      "éĵ¶æ²³": 4146,
      "æĪ¿éĹ´": 4147,
      "éľĩæĴ¼": 4148,
      "èº«å¿ĥåģ¥åº·": 4149,
      "éļĲç§ģä¿ĿæĬ¤": 4150,
      "èŃ¦ç¤º": 4151,
      "æ·±åĪ»å½±åĵįäºĨ": 4152,
      "è¿Ļé¡¹è¿ĲåĬ¨": 4153,
      "ä¸¾æİª": 4154,
      "æ²īæµ¸å¼ı": 4155,
      "éŃĶæ³ķ": 4156,
      "æķ¬çķı": 4157,
      "é½¿è½®": 4158,
      "æĦīæĤ¦": 4159,
      "åĬªåĬĽ": 4160,
      "Ġè¯»": 4161,
      "ĠéĿ¢å¯¹": 4162,
      "Ġçģ«æĺŁ": 4163,
      "Łæ¼": 4164,
      "çļĦåģ¥åº·": 4165,
      "ä¸İå¯¹": 4166,
      "åľ¨æŃ¤": 4167,
      "çĲĲ": 4168,
      "ä¸Ńå®ŀçİ°": 4169,
      "ä¸ŃæĦŁåıĹ": 4170,
      "ä¸įè¢«": 4171,
      "å®ĥæ·±åħ¥": 4172,
      "å®ŀåĪĻ": 4173,
      "è®©çŁ¥è¯Ĩ": 4174,
      "æłª": 4175,
      "æłĸæģ¯åľ°": 4176,
      "å¦ĤæŃ¤": 4177,
      "å¤§å®¶": 4178,
      "æľºæŀĦ": 4179,
      "æıĲåīį": 4180,
      "åīĸ": 4181,
      "æĮĩåĲĳ": 4182,
      "è®¡åĪĴ": 4183,
      "æİ¨æ¼Ķ": 4184,
      "çĹķ": 4185,
      "å¯Ĩå®¤": 4186,
      "åį´åľ¨": 4187,
      "çĤ¹çĩĥ": 4188,
      "é©³": 4189,
      "ä¹łä¿Ĺ": 4190,
      "æĹ¢å®ļ": 4191,
      "éĤ£ä¸ª": 4192,
      "å¹³è¡¡ä¸İ": 4193,
      "åĵįåºĶ": 4194,
      "å¦Ĥä½ķä»İ": 4195,
      "éļıåĲİ": 4196,
      "å¸¦çĿĢ": 4197,
      "è¾¾æĪĲ": 4198,
      "åł¤": 4199,
      "å®Ľå¦Ĥä¸Ģåº§": 4200,
      "æĲº": 4201,
      "å¸ĥä¸Ĭ": 4202,
      "ç©¿è¿ĩ": 4203,
      "æĬĹä½ĵ": 4204,
      "èħ»": 4205,
      "å®ıä¼Ł": 4206,
      "æıĲä¾ĽäºĨåĿļå®ŀ": 4207,
      "åºĶå¯¹æ°ĶåĢĻåıĺåĮĸ": 4208,
      "åģıç¦»": 4209,
      "ç¥ŀç»ıç§ĳåŃ¦": 4210,
      "ç§»åĬ¨": 4211,
      "èĦļæŃ¥": 4212,
      "è¡Ĺéģĵ": 4213,
      "æĶ¿çŃĸ": 4214,
      "å¾®è§Ĥç²ĴåŃĲ": 4215,
      "å¿½è§Ĩ": 4216,
      "åģĩè®¾": 4217,
      "æī©å±ķ": 4218,
      "æĳĦå½±": 4219,
      "çļĦçĲĨè®ºåŁºç¡Ģ": 4220,
      "èĥľè´Ł": 4221,
      "è°ľé¢ĺ": 4222,
      "çļĦçªģ": 4223,
      "çĬ¯ç½ª": 4224,
      "æģĲæĥ§": 4225,
      "çļĦçķĮ": 4226,
      "çļĦæĮģç»Ń": 4227,
      "åŃķèĤ²": 4228,
      "Łæ¼ª": 4229,
      "çŀ": 4230,
      "Ġéķ¿": 4231,
      "ĠæĹ¶éĹ´": 4232,
      "Ġå·¥ä¸ļ": 4233,
      "Ġæµģè¡Į": 4234,
      "çļĦæĸ¹å¼ı": 4235,
      "çļĦç»Īæŀģ": 4236,
      "ä¸İçĶŁæ´»": 4237,
      "ä¸İäººå·¥æĻºèĥ½": 4238,
      "å°¾": 4239,
      "ä¸Ńå¤®": 4240,
      "ä¸įä¼ļ": 4241,
      "æİī": 4242,
      "å®ĥçĶ¨": 4243,
      "å®ĥå¦ĤåĲĮ": 4244,
      "è¿Ļä¸įä»ħ": 4245,
      "çĽı": 4246,
      "è®©æ¯ıä¸ª": 4247,
      "åĲĮæŃ¥": 4248,
      "çŃĭ": 4249,
      "åľ°åĮº": 4250,
      "æıĲé«ĺ": 4251,
      "æıĲçĤ¼": 4252,
      "å»ºæ¨¡": 4253,
      "ç¤¾ç¾¤": 4254,
      "æĬĢæľ¯åıĳå±ķ": 4255,
      "æŃ£ç¡®": 4256,
      "å¢ĥçķĮ": 4257,
      "æľĢä¼ĺ": 4258,
      "æĮĩåĩº": 4259,
      "å¯¼æ¼Ķ": 4260,
      "æĢĿæ½®": 4261,
      "åħ¥ä¾µ": 4262,
      "çĽ¸åħ³": 4263,
      "çĥģ": 4264,
      "æŀĦå»ºèµ·": 4265,
      "èµĦæºĲåĪ©çĶ¨": 4266,
      "å¼ĢåĲ¯": 4267,
      "åħ»çĶŁ": 4268,
      "èİ«": 4269,
      "æīĵå¼Ģ": 4270,
      "åŃĺåľ¨äºİ": 4271,
      "è¯ģä¼ª": 4272,
      "æ·±åĪ»éĩįå¡ĳäºĨ": 4273,
      "éĢīæīĭ": 4274,
      "åĳĺå·¥": 4275,
      "çģ«åĢĻ": 4276,
      "ç´§ç»·": 4277,
      "åĭ¤": 4278,
      "çıĬçĳļ": 4279,
      "çľŁæŃ£å®ŀçİ°äºĨ": 4280,
      "ä¸īç»´": 4281,
      "è¯¯å·®": 4282,
      "èĦīæĲı": 4283,
      "æ²¿æµ·": 4284,
      "æĲŃéħį": 4285,
      "æĽ¾ç»ı": 4286,
      "èĶ¬": 4287,
      "é¼ł": 4288,
      "æī©æķ£": 4289,
      "çĿ¡çľł": 4290,
      "æ´ªæµģ": 4291,
      "å£®ä¸½": 4292,
      "éĹªçĥģ": 4293,
      "æµĩçģĮ": 4294,
      "éĺ´éĺ³": 4295,
      "è®¤è¯Ĩè®º": 4296,
      "èĮĥåĽ´åĨħ": 4297,
      "èĤĮèĤī": 4298,
      "åį°è±¡æ´¾": 4299,
      "ä»£ä»£çĽ¸ä¼ł": 4300,
      "åĭ¾åĭĴ": 4301,
      "¨è¯¢": 4302,
      "ĠåĽ¾": 4303,
      "ĠçĶŁæĢģ": 4304,
      "Ġåģ¥åº·": 4305,
      "Ġåħ¨çĲĥ": 4306,
      "Ġä¼¦çĲĨ": 4307,
      "Ġå»ºçŃĳ": 4308,
      "Ġäººå·¥æĻºèĥ½": 4309,
      "ĠèĮ¶": 4310,
      "ĠéŁ³ä¹Ĳ": 4311,
      "ĠèĪŀè¹Ī": 4312,
      "ĠæĪıåī§": 4313,
      "ĠèĴĻ": 4314,
      "ĠåĬ¨çī©": 4315,
      "Ġç»Īèº«": 4316,
      "Ġä¾ĽåºĶéĵ¾": 4317,
      "Ġå¿ĥçĲĨåģ¥åº·": 4318,
      "ĠçĶµåŃĲç«ŀæĬĢ": 4319,
      "ĠæĻ®æĥłéĩĳèŀį": 4320,
      "Ĥèļģ": 4321,
      "ĨåĲ¬": 4322,
      "çļĦçĶŁæĢģ": 4323,
      "çļĦä½ĵçİ°": 4324,
      "çļĦèĬĤå¥ı": 4325,
      "çļĦåıĮ": 4326,
      "çļĦåĬ¨åĬĽ": 4327,
      "ä¸İå®īåħ¨": 4328,
      "ä¸İéģĵå¾·": 4329,
      "æķ²": 4330,
      "ä¸Ģåı£": 4331,
      "å¾Ĵ": 4332,
      "æŀļ": 4333,
      "éĢļè¿ĩåĪĨæŀĲ": 4334,
      "æ°¢": 4335,
      "æ³ī": 4336,
      "æĪĲåĪĨ": 4337,
      "æĪĲåĳĺ": 4338,
      "æľīæľĽ": 4339,
      "çļĦçŃ": 4340,
      "åıĳåħī": 4341,
      "åĴ¨è¯¢": 4342,
      "ä»¥åħ¶": 4343,
      "çº¹": 4344,
      "çĿĢäººç±»": 4345,
      "ä¸Ĭä¼ł": 4346,
      "æºī": 4347,
      "ä»£éĻħ": 4348,
      "æ·±è¿ľ": 4349,
      "åĢį": 4350,
      "æºĲæºĲ": 4351,
      "ä¸»ä½ĵ": 4352,
      "æĸĩæľ¬": 4353,
      "èģĨåĲ¬": 4354,
      "è¦ģç´ł": 4355,
      "åĽłä¸º": 4356,
      "è¢Ń": 4357,
      "èĻ¹": 4358,
      "æİ¥åı£": 4359,
      "ä¹Łä¸º": 4360,
      "ä¹ŁæĹłæ³ķ": 4361,
      "å½ĵåīį": 4362,
      "éĵľ": 4363,
      "é¢ĦèŃ¦": 4364,
      "æµĭéĩı": 4365,
      "æŀģå¤§åľ°": 4366,
      "ç¦ģ": 4367,
      "åĬŁåĪ©": 4368,
      "è½¦æµģ": 4369,
      "åĽŀè·¯": 4370,
      "ç©ºéĹ´ä¸Ń": 4371,
      "æłĩå¿Ĺ": 4372,
      "åĲĮæĹ¶ä¹Ł": 4373,
      "èĻļæĹł": 4374,
      "æĿĥå¨ģ": 4375,
      "èĩªåĬ¨åĮĸ": 4376,
      "å®¡æħİ": 4377,
      "è®¨è®º": 4378,
      "ç»ĿæľĽ": 4379,
      "äºĮåįģ": 4380,
      "å¸®åĬ©äººä»¬": 4381,
      "åĪĽéĢłæĢ§": 4382,
      "çļĦæ²ī": 4383,
      "çļĦçģ¯": 4384,
      "é¦Ļæ°Ķ": 4385,
      "é¡ºåºĶ": 4386,
      "èļĤèļģ": 4387,
      "èĢĲèį¯": 4388,
      "è·¨è¶ĬæĹ¶ç©º": 4389,
      "é¢Ħéĺ²çĸ¾çĹħ": 4390,
      "åŃ¤ç«ĭ": 4391,
      "æĶ¿æ²»": 4392,
      "è¸ª": 4393,
      "å°ĺåŁĥ": 4394,
      "åĪºæ¿Ģ": 4395,
      "çļĦæ´»": 4396,
      "æ¢¦æĥ³": 4397,
      "æŀģç«¯å¤©æ°Ķ": 4398,
      "ç²īä¸Ŀ": 4399,
      "ĠæķĻèĤ²åħ¬å¹³": 4400,
      "ĠåŁºåĽłç¼ĸè¾ĳ": 4401,
      "èģļçĦ¦äºİ": 4402,
      "ç¢°æĴŀ": 4403,
      "çĨŁæĤī": 4404,
      "æī¹åĪ¤æĢ§æĢĿç»´": 4405,
      "çļĦå¥ĩå¦Ļ": 4406,
      "çĽ¸å¯¹è®º": 4407,
      "Ġç²¾åĩĨåĮ»çĸĹ": 4408,
      "æĪªçĦ¶": 4409,
      "æĲľç´¢": 4410,
      "æīŃæĽ²": 4411,
      "æµ·å¹³éĿ¢ä¸Ĭåįĩ": 4412,
      "Ġåı¤è¯Ĺ": 4413,
      "æºĲæºĲä¸įæĸŃ": 4414,
      "éŀ": 4415,
      "ĠS": 4416,
      "ĠåĽŃ": 4417,
      "Ġäºĳ": 4418,
      "Ġå¤ªç©º": 4419,
      "ĠæĬĹçĶŁç´ł": 4420,
      "ä¸§": 4421,
      "çļĦå¤©": 4422,
      "çļĦå¥¥ç§ĺ": 4423,
      "è¿Ŀ": 4424,
      "ä¸İåĨ³çŃĸ": 4425,
      "ä¸İå®¡ç¾İ": 4426,
      "åľ¨æľīéĻĲ": 4427,
      "ä¸ĢæĬĬ": 4428,
      "çĶŁçĶŁ": 4429,
      "äººæł¼": 4430,
      "å¯Ĵ": 4431,
      "åįĪ": 4432,
      "æĬ¹": 4433,
      "ä¸įåı¯èĥ½": 4434,
      "çļĦæº": 4435,
      "ä¸ºåªĴä»ĭ": 4436,
      "åĮĸè§£": 4437,
      "å·¢": 4438,
      "æĹ¶çļĦ": 4439,
      "æŃ§": 4440,
      "æĹłç«ł": 4441,
      "å¹¶å®ŀçİ°": 4442,
      "çº¤": 4443,
      "éĩįåĬĽ": 4444,
      "æŀĦéĢł": 4445,
      "å®ļæł¼": 4446,
      "åĪĨå½¢": 4447,
      "ç«¥": 4448,
      "æµģéĢĿ": 4449,
      "æ·±ç©º": 4450,
      "è½¬èĢĮ": 4451,
      "æŃ£å¿µ": 4452,
      "æ°´æºĲ": 4453,
      "æĥħèĬĤ": 4454,
      "åĿ¡": 4455,
      "çĲĥæĺ¯ä¸Ģé¡¹": 4456,
      "åŀĤ": 4457,
      "åĽ¾å½¢": 4458,
      "å¼ºè¡Į": 4459,
      "æ¼ł": 4460,
      "è¿Ļä¸ĢçĲĨå¿µ": 4461,
      "ç¾İå¾·": 4462,
      "ä¾Ľç»Ļ": 4463,
      "èĢĮæĺ¯åĥı": 4464,
      "ç¢Ĺ": 4465,
      "çł´è§£": 4466,
      "èµ·æĿ¥": 4467,
      "ä½¿å¾Ĺ": 4468,
      "æ¬£": 4469,
      "åįķä½į": 4470,
      "åĨľåľº": 4471,
      "ä½İç¢³": 4472,
      "æīĵç£¨": 4473,
      "æĴķ": 4474,
      "çĽ®åīį": 4475,
      "å¤±æİ§": 4476,
      "èĩªçĶ±ä¸İ": 4477,
      "çªģåıĳ": 4478,
      "ç¼ĵæħ¢": 4479,
      "çĥŃéĩı": 4480,
      "æĹłæ³ķè¢«": 4481,
      "ç®¡çĲĨåĳĺ": 4482,
      "ç©¿éĢı": 4483,
      "èĻ½èĥ½": 4484,
      "åĶ¯ä¸Ģ": 4485,
      "ä¿ĥè¿Ľç¤¾ä¼ļ": 4486,
      "æī¾åĽŀ": 4487,
      "å¡ĳéĢłäºĨ": 4488,
      "æĺ¯ä¸ĢéĹ¨èŀįåĲĪ": 4489,
      "ä¸¤èĢħ": 4490,
      "é¢ĳçİĩ": 4491,
      "å½»åºķæĶ¹åıĺäºĨ": 4492,
      "ç¿»è¯ĳ": 4493,
      "è¯įè¯Ń": 4494,
      "çļĦæĿĥ": 4495,
      "çļĦæ³ķ": 4496,
      "äº¿ä¸ĩ": 4497,
      "æ£Ģæµĭ": 4498,
      "æĹ©å·²": 4499,
      "é»ĳæļĹä¸Ń": 4500,
      "å¯ĤéĿĻ": 4501,
      "è£ħä¸ĬäºĨ": 4502,
      "èĽĭçĻ½è´¨": 4503,
      "è¾ħåĬ©": 4504,
      "æĭĴç»Ŀ": 4505,
      "çļĦæ£®æŀĹ": 4506,
      "æĶ»åĩ»": 4507,
      "éĶ»çĤ¼": 4508,
      "èª": 4509,
      "ĠåĮºåĿĹéĵ¾": 4510,
      "Ġçĸ«èĭĹ": 4511,
      "çļĦåŁİå¸Ĥ": 4512,
      "çļĦè§Ħå¾ĭ": 4513,
      "çļĦåħ³ç³»": 4514,
      "çļĦåĳ¼åĲ¸": 4515,
      "ä¸İçĲĨæĢ§": 4516,
      "ä¸İåı¯æĮģç»Ńåıĳå±ķ": 4517,
      "æķ¢": 4518,
      "ä¸Ģä½ĵ": 4519,
      "æĬ±": 4520,
      "æĬĸ": 4521,
      "éĢļè¡Į": 4522,
      "ä¸ºçİ°ä»£": 4523,
      "åĮĸçŁ³": 4524,
      "éĹ¹": 4525,
      "éĢļè¿ĩä¼ĺåĮĸ": 4526,
      "æĮ¡": 4527,
      "çī©æµģ": 4528,
      "å¿ĥè·³": 4529,
      "åıĳåĩº": 4530,
      "å¯¹äººç±»": 4531,
      "åľ°ä¸ĭ": 4532,
      "ä»İæľª": 4533,
      "è°·": 4534,
      "å°ĨæĬ½è±¡": 4535,
      "åĪĨäº«": 4536,
      "æĽ´é«ĺ": 4537,
      "æºĥ": 4538,
      "äººç±»æ´»åĬ¨": 4539,
      "ç©ºä¸Ń": 4540,
      "çĲĥåĳĺ": 4541,
      "çĶŁåĳ½æ´»åĬ¨": 4542,
      "å®¶å±ħ": 4543,
      "æİ¨å¯¼": 4544,
      "è®¾å®ļ": 4545,
      "éĿŀçĲĨæĢ§": 4546,
      "èĬĤèĥ½": 4547,
      "åĻ¬": 4548,
      "åĪĽæĦı": 4549,
      "ä¿¡æģ¯è¿ĩè½½": 4550,
      "èµ·çĤ¹": 4551,
      "èµ·åĪĿ": 4552,
      "å¤Ħäºİ": 4553,
      "æŀģèĩ´": 4554,
      "å¥½æ¯Ķæĺ¯": 4555,
      "çĸĹæķĪ": 4556,
      "éļıæĹ¶éĹ´": 4557,
      "è®¤çŁ¥åģıå·®": 4558,
      "åĽŀæĶ¶": 4559,
      "æī¿æĭħ": 4560,
      "é¥±": 4561,
      "å¥ıåĩº": 4562,
      "åĳ³èķ¾": 4563,
      "éķľåŃĲ": 4564,
      "èĻ½çĦ¶": 4565,
      "èµĭèĥ½": 4566,
      "å»¶ç»Ń": 4567,
      "æĿĲæĸĻç§ĳåŃ¦": 4568,
      "åĽ¢åľĨ": 4569,
      "çī¹å®ļçļĦ": 4570,
      "åĲ¬è§ģ": 4571,
      "Ġæĥ³è±¡ä¸Ģä¸ª": 4572,
      "è¿·å®«": 4573,
      "åĨ²åĬ¨": 4574,
      "åĲ«ä¹ī": 4575,
      "å¿ħé¡»åľ¨": 4576,
      "åĪĿå§ĭ": 4577,
      "å¤§å¹ħæıĲåįĩ": 4578,
      "ä¸İäººæĸĩ": 4579,
      "çļĦæİ¢": 4580,
      "çļĦæİ¨": 4581,
      "åĬ³åĬ¨": 4582,
      "çģĮæºī": 4583,
      "åĮłäºº": 4584,
      "ç£ģåľº": 4585,
      "æĪ´ä¸Ĭ": 4586,
      "éĴ¢éĵģ": 4587,
      "åĿĩè¡¡": 4588,
      "å±ĭé¡¶": 4589,
      "æ¯«ç§Ĵ": 4590,
      "æĿĤä¹±æĹłç«ł": 4591,
      "éĻĮçĶŁ": 4592,
      "è¿ĪåĲĳ": 4593,
      "é¼ĵåĬ±": 4594,
      "é¹¿": 4595,
      "çª¥è§ģ": 4596,
      "éº¦": 4597,
      "ä¸´åºĬè¯ķéªĮ": 4598,
      "è§ħé£Ł": 4599,
      "çĹħåİŁä½ĵ": 4600,
      "éĵ¶æ²³ç³»": 4601,
      "ĠéĿŀ": 4602,
      "Ġèµ°è¿Ľ": 4603,
      "ĢçĴ": 4604,
      "ıåĪ¶": 4605,
      "çļĦè¯Ńè¨Ģ": 4606,
      "çļĦç»¿èī²": 4607,
      "çļĦéĢīæĭ©": 4608,
      "çļĦæĸ¹åĲĳ": 4609,
      "è¿Ķ": 4610,
      "ä»ĵ": 4611,
      "ä¸İç»ıæµİ": 4612,
      "ä¸İä¸ªäºº": 4613,
      "ä¸İç²¾ç¥ŀ": 4614,
      "åľ¨çİ°ä»£": 4615,
      "èĢĢ": 4616,
      "çİī": 4617,
      "èĢĮæĪĲ": 4618,
      "çļĦç´": 4619,
      "çļĦçı": 4620,
      "åıĳçĶŁçļĦ": 4621,
      "éĻĦ": 4622,
      "åĴ¬": 4623,
      "åĴĮç¤¾ä¼ļ": 4624,
      "æľºèĥ½": 4625,
      "å»Ĭ": 4626,
      "éģıåĪ¶": 4627,
      "ç«Ń": 4628,
      "åŁºåľ°": 4629,
      "è·Į": 4630,
      "é«ĺæ¸©": 4631,
      "çĶµåķĨ": 4632,
      "å¢ĥä¸Ń": 4633,
      "äº¤å¾Ģ": 4634,
      "äº¤åĵįä¹Ĳ": 4635,
      "éĿ¢åīį": 4636,
      "ä¸ĭéĻį": 4637,
      "è®ºè¯ģ": 4638,
      "æİ¨æĸŃ": 4639,
      "æİ¨å¹¿": 4640,
      "ç»Īç»ĵ": 4641,
      "è¿Ļç§įå¯¹": 4642,
      "åİŁå§ĭ": 4643,
      "æ¨¡ä»¿": 4644,
      "åĽ¾æ¡Ī": 4645,
      "ä¹Łä¸į": 4646,
      "è¢«è§Ĩä¸º": 4647,
      "åŁİä¹¡": 4648,
      "éħĴ": 4649,
      "åıĹéĻĲ": 4650,
      "èĮĤ": 4651,
      "å¥½æ¯Ķä¸Ģåľº": 4652,
      "æľĢç»Īè®©": 4653,
      "æ¼Ķåıĺ": 4654,
      "å¦Ĥä½ķéĢļè¿ĩ": 4655,
      "è¿ľéķľ": 4656,
      "æĶ¹èī¯": 4657,
      "æ¸©æŁĶ": 4658,
      "åĬ©åĬĽ": 4659,
      "éĹ¨æ§": 4660,
      "åĽŀåĵį": 4661,
      "ä½łçļĦ": 4662,
      "æľĽè¿ľéķľ": 4663,
      "æĿĥè¡¡": 4664,
      "çŃĳèµ·": 4665,
      "æ¤ħ": 4666,
      "æĢĿç»´ä¸İ": 4667,
      "è§¦ç¢°": 4668,
      "ç½®äºİ": 4669,
      "æĹłéľĢäººå·¥": 4670,
      "æķħéļľ": 4671,
      "åĮħè±ª": 4672,
      "åĩıå°ĳæ±¡æŁĵ": 4673,
      "æĻ®åıĬ": 4674,
      "çº¦æĿŁ": 4675,
      "è§£åĨ³äºĨ": 4676,
      "çľ¼éķľ": 4677,
      "ç¼ºä¹ı": 4678,
      "æŁĲäºĽ": 4679,
      "é©¶åĲĳ": 4680,
      "åĳ¨åĽ´": 4681,
      "ç¬Ķè®°": 4682,
      "æµªè´¹": 4683,
      "ä¸ĵæ³¨äºİ": 4684,
      "åĨ²çªģ": 4685,
      "åħ¬åħ±æľįåĬ¡": 4686,
      "æ¼«æŃ¥": 4687,
      "çļĦæĮĳæĪĺ": 4688,
      "åįıåĲĮå·¥ä½ľ": 4689,
      "ç¼ĸç»ĩæĪĲ": 4690,
      "çļĦæ³¢": 4691,
      "æ°¸æģĴçļĦ": 4692,
      "åĽ¾åĥıè¯ĨåĪ«": 4693,
      "éĴ¢çŃĭ": 4694,
      "è®²è¿°": 4695,
      "æĭĵå±ķäºĨ": 4696,
      "èĤ¡ç¥¨": 4697,
      "åĨµä¸ĭ": 4698,
      "çŃĶæ¡Ī": 4699,
      "åıįæĺłäºĨ": 4700,
      "åī¯ä½ľçĶ¨": 4701,
      "æħ¢æĢ§çĹħ": 4702,
      "å´ĩé«ĺ": 4703,
      "åĸ·æ´Ĵ": 4704,
      "æĺĶæĹ¥": 4705,
      "ä¼łæŁĵçĹħ": 4706,
      "ä¸§å¤±": 4707,
      "ĢçĴ¨": 4708,
      "éĹ¨æ§Ľ": 4709,
      "åĮħè±ªæĸ¯": 4710,
      "¹æŀľ": 4711,
      "Ġçİ¯å¢ĥ": 4712,
      "Ġå¹´": 4713,
      "Ġè®¾è®¡": 4714,
      "ĠèĦĳ": 4715,
      "Ġè¿ľç¨ĭ": 4716,
      "çļĦå®īåħ¨": 4717,
      "çļĦèĪŀè¹Ī": 4718,
      "ä¸İæķ°æį®": 4719,
      "æĺ¯æŀĦå»º": 4720,
      "åºľ": 4721,
      "åŃ¦æĺ¯ä¸ĢéĹ¨çłĶç©¶": 4722,
      "è´¸": 4723,
      "å¿ĥä¸Ń": 4724,
      "æķ°åįģ": 4725,
      "æľºéģĩ": 4726,
      "åĪĨåıĳ": 4727,
      "æĽ´æ·±åĪ»": 4728,
      "ç¡ħ": 4729,
      "æĸ°é²ľ": 4730,
      "æ°´ä½ĵ": 4731,
      "çŃīåħ³éĶ®": 4732,
      "è±¡å¾ģ": 4733,
      "ç¤¾ä¼ļä¸Ń": 4734,
      "è¿Ĳç®Ĺ": 4735,
      "ç»´åº¦": 4736,
      "å¤ļç§į": 4737,
      "å¤ļè¿ľ": 4738,
      "åŀĴ": 4739,
      "æ¼Ĥ": 4740,
      "å¯ĨéĴ¥": 4741,
      "æ»ļ": 4742,
      "åĨ³äºİ": 4743,
      "éĤ¦": 4744,
      "ä¿¡æģ¯æĬĢæľ¯": 4745,
      "æĸŃè£Ĥ": 4746,
      "æŀģç®Ģ": 4747,
      "èĭ¹æŀľ": 4748,
      "æĺŁç©º": 4749,
      "æł·æľ¬": 4750,
      "æĹ¥çĽĬ": 4751,
      "å¤©å¤§": 4752,
      "ç²¾åĩĨåľ°": 4753,
      "å¼łåĬĽ": 4754,
      "åıĸåĨ³äºİ": 4755,
      "çĻ»": 4756,
      "æłĩæ³¨": 4757,
      "æłĩçŃ¾": 4758,
      "æ²īéĩį": 4759,
      "çŁ¥è¯ĨçļĦ": 4760,
      "èĳ±": 4761,
      "æĲ¬": 4762,
      "è¯ķéĶĻ": 4763,
      "æķĻèĤ²èµĦæºĲ": 4764,
      "çķĻçĻ½": 4765,
      "è£ħå¤ĩ": 4766,
      "è£ħé¥°": 4767,
      "è¯Ĺäºº": 4768,
      "åĨĻå®ŀ": 4769,
      "èħ¹": 4770,
      "æĺ¾èĳĹéĻįä½İ": 4771,
      "Ġæ¸ħæĻ¨çļĦ": 4772,
      "å·¥ä¸ļçĶŁäº§": 4773,
      "è·¨åŃ¦ç§ĳ": 4774,
      "å°½æĺ¾": 4775,
      "çĶŁæĢģç³»ç»ŁçļĦ": 4776,
      "çļĦæĥħåĨµä¸ĭ": 4777,
      "ç¬¦åĲĪ": 4778,
      "éĩĩçĶ¨": 4779,
      "éĩĩåıĸ": 4780,
      "èī²å½©ä¸İ": 4781,
      "åĤ¨åŃĺ": 4782,
      "æµ·éĩıæķ°æį®": 4783,
      "éĴŁè¡¨": 4784,
      "çļĦäº¤åıīåŃ¦ç§ĳ": 4785,
      "åį±å®³": 4786,
      "æ¯ıä¸ªäººéĥ½èĥ½": 4787,
      "æĵįä½ľç³»ç»Ł": 4788,
      "å¤§å¹ħéĻįä½İ": 4789,
      "æĭĵå®½": 4790,
      "æĶ¿åºľ": 4791,
      "ä»°æľĽ": 4792,
      "æ³¨æĦıåĬĽæľºåĪ¶": 4793,
      "åįĬå¯¼ä½ĵ": 4794,
      "è¥¿æĸ¹åĵ²åŃ¦": 4795,
      "çļĦæ¨¡æł·": 4796,
      "çĪ¶æ¯į": 4797,
      "çļĦçķĮéĻĲ": 4798,
      "éŀĭ": 4799,
      "çĶŁçĶŁä¸įæģ¯": 4800,
      "æ¬£èµı": 4801,
      "ĠA": 4802,
      "Ġæ··æ²Į": 4803,
      "Ġç¢³ä¸ŃåĴĮ": 4804,
      "łéģĵ": 4805,
      "çļĦå®Įç¾İ": 4806,
      "çļĦåħ¸åŀĭ": 4807,
      "åľ¨çī¹å®ļ": 4808,
      "ä¸Ģèĩ´": 4809,
      "ä¼½": 4810,
      "æĢķ": 4811,
      "ä¹Ļ": 4812,
      "èĥ½è®©": 4813,
      "ä¸įè¶³": 4814,
      "åŃ¦çĶŁçļĦ": 4815,
      "éĢļå¸¸": 4816,
      "çļĦæģ": 4817,
      "çļĦæĳ": 4818,
      "èĩªç»Ħç»ĩ": 4819,
      "å··": 4820,
      "æĹ¶èĢĮ": 4821,
      "çŁ¿": 4822,
      "è¡Įäºº": 4823,
      "ä½ľä¸ļ": 4824,
      "è°¬": 4825,
      "éĩįéĩı": 4826,
      "æ·¹": 4827,
      "æĦŁä¸İ": 4828,
      "çĿĽ": 4829,
      "å®ļä½į": 4830,
      "ç®Ń": 4831,
      "åī©": 4832,
      "æºĲèĩª": 4833,
      "åħ¶ä»ĸ": 4834,
      "çĶµéĺ»": 4835,
      "æľĢå°ı": 4836,
      "éĶħ": 4837,
      "ç»Īå°Ĩ": 4838,
      "ç§ĳåŃ¦çłĶç©¶": 4839,
      "ç§ĳåŃ¦ä¾Ŀæį®": 4840,
      "é£İæļ´": 4841,
      "åĲİçļĦ": 4842,
      "åħ¬å¼ı": 4843,
      "ä¾ĽéľĢ": 4844,
      "æĺİçļĦ": 4845,
      "åıªä¸º": 4846,
      "èĢĮæĺ¯å°Ĩ": 4847,
      "ç«ĭä½ĵ": 4848,
      "èģĶç»ĵ": 4849,
      "çĲĨè§£ä¸İ": 4850,
      "åıĸä»£": 4851,
      "å£°ä¸Ń": 4852,
      "æ®Ĭ": 4853,
      "æĪĺæľ¯": 4854,
      "æĥħæĦŁçļĦ": 4855,
      "åĲĦä¸ª": 4856,
      "åħ³ç³»çļĦåŃ¦ç§ĳ": 4857,
      "åºķèķ´": 4858,
      "ç¼ĸçłģ": 4859,
      "çĥŃæ°Ķ": 4860,
      "ä¸ĵå±ŀ": 4861,
      "æİ¢ç´¢å®ĩå®Ļ": 4862,
      "åľ°çĲĥä¸Ĭ": 4863,
      "åĩĿç»ĥ": 4864,
      "èĲ½åľ°": 4865,
      "èĩªæĪĳè®¤çŁ¥": 4866,
      "èħĲ": 4867,
      "è¯´è¯Ŀ": 4868,
      "å»¶ç¼ĵ": 4869,
      "åĢŁçĶ±": 4870,
      "èĢĮéĿŀä»ħ": 4871,
      "åĨħåľ¨çļĦ": 4872,
      "èµĭäºĪäºĨ": 4873,
      "åĽ°éļ¾": 4874,
      "èµĽåľº": 4875,
      "æĹłè®ºçĽ¸": 4876,
      "å¥łå®ļåĿļå®ŀåŁºç¡Ģ": 4877,
      "æ³¥åľŁ": 4878,
      "å±ķç¤ºäºĨ": 4879,
      "çĦķåıĳæĸ°çĶŁ": 4880,
      "å´©æºĥ": 4881,
      "éĽķå¡ĳ": 4882,
      "åİ¨å¸Ī": 4883,
      "çļĦç¢İ": 4884,
      "é¾ĦåĮĸ": 4885,
      "åºŁå¼ĥçī©": 4886,
      "å§¿æĢģ": 4887,
      "Ġç³»ç»Ł": 4888,
      "ĠåİĨåı²": 4889,
      "ĠèįĴè¯ŀ": 4890,
      "Ġä¹¡æĿĳ": 4891,
      "Ġä¸ĸçºª": 4892,
      "çļĦä¸ªä½ĵ": 4893,
      "çļĦä¹Ĳ": 4894,
      "çļĦåŃ¦ä¹ł": 4895,
      "çļĦäºĴåĬ¨": 4896,
      "è¿Ń": 4897,
      "ä¸İå¿ĥçĲĨ": 4898,
      "æĺ¯çĶ±": 4899,
      "æĺ¯èŀįåĲĪ": 4900,
      "åľ¨ä¸įåĲĮ": 4901,
      "ä¸Ģèīĺ": 4902,
      "èĥ½åĲ¦": 4903,
      "ä¸Ńä¸įæĸŃ": 4904,
      "ä½ĵæĤŁ": 4905,
      "ä½ĵè£ģ": 4906,
      "å®ĥä¸»å¼ł": 4907,
      "èĢĮä¸į": 4908,
      "èĩªè¡Į": 4909,
      "çļĦçł": 4910,
      "åľ°åŁº": 4911,
      "çºµ": 4912,
      "ä»İæŃ¤": 4913,
      "çłĮ": 4914,
      "çĿ£": 4915,
      "åı¯ä¿¡": 4916,
      "ä¼łè¯´": 4917,
      "åħ¨ç¨ĭ": 4918,
      "æĢģåº¦": 4919,
      "éĺµ": 4920,
      "å»ºéĢł": 4921,
      "æ·±éĤĥ": 4922,
      "ä¿¡å¿µ": 4923,
      "æĸ°èį¯": 4924,
      "é«ĺè´¨éĩı": 4925,
      "é«ĺåĪĨåŃĲ": 4926,
      "åħ±è¯Ĩ": 4927,
      "çĶµåĬ¨": 4928,
      "æĸĩæ¡£": 4929,
      "çŃīåīįæ²¿": 4930,
      "éĿ¢è²Į": 4931,
      "åĿĿ": 4932,
      "æ¯ıæĹ¥": 4933,
      "ç³»ç»ŁçļĦ": 4934,
      "ç³»ç»Łä¸Ń": 4935,
      "é£İæĻ¯": 4936,
      "å®īè£ħ": 4937,
      "ç¾İåĳ³": 4938,
      "åıįèĢĮ": 4939,
      "åĩĨå¤ĩ": 4940,
      "çĽ¸è¿ŀ": 4941,
      "çĥĤ": 4942,
      "æĻºèĥ½æīĭæľº": 4943,
      "æĻºèĥ½åĲĪçº¦": 4944,
      "ä¼ĺåħĪ": 4945,
      "èĭ±": 4946,
      "åĨľçĶ°": 4947,
      "ç»Ĩèħ»": 4948,
      "æľĢç»Īå®ŀçİ°": 4949,
      "çļĦæłĩ": 4950,
      "è§Ħå¾ĭçļĦç§ĳåŃ¦": 4951,
      "åħ³éĶ®ä½ľçĶ¨": 4952,
      "åı°æ¢Ń": 4953,
      "æĶ¶çĽĬ": 4954,
      "åħ¨çĲĥæĢ§": 4955,
      "åī§æĥħ": 4956,
      "å¼ºè°ĥéĢļè¿ĩ": 4957,
      "å¢ŀåĢ¼": 4958,
      "ä¸ĩåįĥ": 4959,
      "èĩªåĬ¨æī§è¡Į": 4960,
      "ç¼ĸæİĴ": 4961,
      "ä¸įåı¯ç¯¡æĶ¹": 4962,
      "éĩıåŃĲè®¡ç®Ĺæľº": 4963,
      "éĩıåŃĲåĬĽåŃ¦": 4964,
      "äºĮèĢħ": 4965,
      "ç¿ħ": 4966,
      "çļĦéĩįè¦ģåŁºçŁ³": 4967,
      "å»¶è¿Ł": 4968,
      "å¹²æī°": 4969,
      "è§£åĨ³æĸ¹æ¡Ī": 4970,
      "ä½ľä¸ºä¸Ģç§į": 4971,
      "é»ĳæ´ŀ": 4972,
      "éĽ¶æķ£": 4973,
      "æīĢæľīäºº": 4974,
      "éĨĴæĿ¥": 4975,
      "çļĦæĥħç»ª": 4976,
      "æĤĦæĤĦ": 4977,
      "åŃ¦æĺ¯çłĶç©¶çĶŁçī©": 4978,
      "çļĦçģ«": 4979,
      "ç»ıéªĮä¸°å¯ĮçļĦ": 4980,
      "åįļçī©": 4981,
      "æ¸ħæ´ģèĥ½æºĲ": 4982,
      "çĭĹ": 4983,
      "è´¢äº§": 4984,
      "èĤīä½ĵ": 4985,
      "çļĦæŀĦ": 4986,
      "çĽ®çļĦè®º": 4987,
      "æ£Ģç´¢": 4988,
      "åĢ¾åĲĳ": 4989,
      "æĸ¹å¯¸ä¹ĭéĹ´": 4990,
      "ç¤¾äº¤åªĴä½ĵ": 4991,
      "æ´ªæ°´": 4992,
      "ç´¯ç§¯": 4993,
      "æĥħå¢ĥä¸Ń": 4994,
      "ä¿ĿçķĻäºĨ": 4995,
      "åı¯åĨįçĶŁçļĦ": 4996,
      "æľĢå¤§åĮĸ": 4997,
      "çļĦç³»ç»ŁæĢ§": 4998,
      "ç¾İå¥½çĶŁæ´»çļĦ": 4999,
      "éĿ©åĳ½æĢ§": 5000,
      "åĲŀåĻ¬": 5001,
      "çļĦæŀģèĩ´": 5002,
      "å¼ķåıĳäºĨåħ³äºİ": 5003,
      "è¯īè¯´çĿĢ": 5004,
      "å®łçī©": 5005,
      "åĪĨå½¢åĩłä½ķ": 5006,
      "èªī": 5007,
      "åı°æ¢ŃåĪ©": 5008,
      "ªæµģ": 5009,
      "Ġçī©ç§į": 5010,
      "Ġç¾İåŃ¦": 5011,
      "Ġæ°ĶåĢĻåıĺåĮĸ": 5012,
      "Ġå®ŀåľ¨": 5013,
      "ä¸ĥ": 5014,
      "çļĦçİ¯å¢ĥ": 5015,
      "çļĦè§ĦåĪĻ": 5016,
      "çļĦæĹłéĻĲ": 5017,
      "ä»Ħ": 5018,
      "åħŃ": 5019,
      "çĶ²": 5020,
      "ä¸İè®¤çŁ¥": 5021,
      "ä¸İåĬŁèĥ½": 5022,
      "ä¸İéĢ»è¾ĳ": 5023,
      "ä¸İæľªæĿ¥": 5024,
      "å¤«": 5025,
      "ä¸Ģå®¶": 5026,
      "ä¸ĢåĪĩ": 5027,
      "ä¹Ī": 5028,
      "äººä¸º": 5029,
      "äººæľº": 5030,
      "å¼¯": 5031,
      "çļĦæļ": 5032,
      "åĨĽ": 5033,
      "çĲĨè´¢": 5034,
      "æµĳ": 5035,
      "æīĩ": 5036,
      "éĢļè¿ĩç²¾åĩĨ": 5037,
      "çĽĲ": 5038,
      "è®©ä¼łç»Ł": 5039,
      "è®©åŁİå¸Ĥ": 5040,
      "è®©ä½ł": 5041,
      "çļĦçĭ": 5042,
      "çļĦç¹ģ": 5043,
      "å¤§å°ı": 5044,
      "åľ°éĿ¢": 5045,
      "æ¸¡": 5046,
      "æ¸Ĭ": 5047,
      "æ¸Ķ": 5048,
      "åĩºèº«": 5049,
      "æľ¬çľŁ": 5050,
      "è§£è°ľ": 5051,
      "ä¸Ĭä¸ĭ": 5052,
      "ç¨ĭåº¦": 5053,
      "æ·±æµ·": 5054,
      "æ¶Ľ": 5055,
      "è±Ĩ": 5056,
      "ç»ĵè®º": 5057,
      "æķ´æķ°": 5058,
      "çĤī": 5059,
      "è¿Ļç§įæĸ¹æ³ķ": 5060,
      "èĦı": 5061,
      "èĩªçĦ¶éĢīæĭ©": 5062,
      "å¼ķåħ¥": 5063,
      "èµĦæľ¬": 5064,
      "äºĴçĽ¸": 5065,
      "åİŁæĿĲæĸĻ": 5066,
      "åĽ¾è°±": 5067,
      "è¿Ļä¸ĢçĲĨè®º": 5068,
      "è¿Ļä¸Ģæ¦Ĥå¿µ": 5069,
      "éĥ½æĪĲä¸º": 5070,
      "çİ¯å¢ĥæ±¡æŁĵ": 5071,
      "ç«ĭåĪ»": 5072,
      "çīĩæ®µ": 5073,
      "çĽ´æĴŃ": 5074,
      "çº¿ç´¢": 5075,
      "å¤įæĿĤä»»åĬ¡": 5076,
      "ä¾ĿåŃĺ": 5077,
      "æ¼ĶåĮĸçļĦ": 5078,
      "æľīæķĪæĢ§": 5079,
      "æľīæķĪéĻįä½İäºĨ": 5080,
      "åŃ¦ä¹łæĺ¯ä¸Ģç§į": 5081,
      "æ¶Īèŀį": 5082,
      "çī©è´¨å¾ªçİ¯": 5083,
      "èĩªçĶ±æĦıå¿Ĺ": 5084,
      "çĻĮ": 5085,
      "è½¬åĮĸä¸ºåı¯": 5086,
      "ä¿®è¡¥": 5087,
      "å°ĳå¹´": 5088,
      "å²©": 5089,
      "åºķå±Ĥ": 5090,
      "æĵ¦": 5091,
      "èĬ±æľµ": 5092,
      "å»¶å±ķ": 5093,
      "è®¡ç®Ĺæľºè§Ĩè§ī": 5094,
      "è¾ĵåĩº": 5095,
      "è§£åĨ³å®ŀéĻħéĹ®é¢ĺ": 5096,
      "ç»´æĮģçĿĢ": 5097,
      "çŁŃæļĤ": 5098,
      "æŁĲä¸ª": 5099,
      "Ġæĥ³è±¡ä½ł": 5100,
      "ãĢĭï¼Į": 5101,
      "éĵ¶å¹ķ": 5102,
      "è¿·å¤±": 5103,
      "æĬķæĶ¾": 5104,
      "åħīå½±ä¸İ": 5105,
      "è´Łæĭħ": 5106,
      "å¸Ĥåľºç»ıæµİ": 5107,
      "å®Ŀè´µ": 5108,
      "äººä½ĵåģ¥åº·": 5109,
      "å¥Ķæ¶Į": 5110,
      "æįŁèĢĹ": 5111,
      "å®ıå¤§çļĦ": 5112,
      "æ¹ĸ": 5113,
      "å±ıéļľ": 5114,
      "èĦ±ç¦»": 5115,
      "éģ¿åħįäºĨ": 5116,
      "é¢ĹæģĴæĺŁ": 5117,
      "é£Łçī©éĵ¾": 5118,
      "ä»ªåĻ¨": 5119,
      "æĳ¸ç´¢": 5120,
      "åıįé¦ĪåĽŀè·¯": 5121,
      "æµĵç¼©": 5122,
      "æľºæ¢°èĩĤ": 5123,
      "ç½ĹçĽĺ": 5124,
      "æĸĳé©³": 5125,
      "æ²¸èħ¾": 5126,
      "çļĦæĤ²": 5127,
      "è´¸æĺĵ": 5128,
      "ºå°ı": 5129,
      "Ġæ·±å¤ľ": 5130,
      "çļĦæĢĿç»´": 5131,
      "çļĦéŃħåĬĽ": 5132,
      "è¿İ": 5133,
      "åľ¨æĹ¶åħī": 5134,
      "æĸĹ": 5135,
      "ä¸Ńèİ·å¾Ĺ": 5136,
      "éĢļè´§": 5137,
      "æīĳ": 5138,
      "éĢļè¿ĩä¸įæĸŃ": 5139,
      "è´¯": 5140,
      "æĢ§æł¼": 5141,
      "æ³³": 5142,
      "çļĦçĳ": 5143,
      "èµŀ": 5144,
      "å¿ĥæĢģ": 5145,
      "å¯¹æĸ¹": 5146,
      "å¯¹çĶŁåĳ½": 5147,
      "çŃ¹": 5148,
      "å¤§è§Ħæ¨¡": 5149,
      "ä»¥ä¸º": 5150,
      "æ¸Ĺ": 5151,
      "æ·»": 5152,
      "å°ĨæĹłå½¢çļĦ": 5153,
      "æķĪçĽĬ": 5154,
      "æ±Ĳ": 5155,
      "è§£å¯Ĩ": 5156,
      "éģ®": 5157,
      "çķĮéĿ¢": 5158,
      "æ·±æ·±": 5159,
      "æĿ¥èĩª": 5160,
      "åĲĪä½ľ": 5161,
      "åĲĪä½ľçĶ¨": 5162,
      "ä¸įä»ħèĢĥéªĮ": 5163,
      "é«ĵ": 5164,
      "åħīä¸İ": 5165,
      "åħ±èĪŀ": 5166,
      "çĶµèį·": 5167,
      "æŃ£å¸¸": 5168,
      "çŃīæīĭæ®µ": 5169,
      "èº«å¤Ħ": 5170,
      "èĤ¤": 5171,
      "ä¸ĭä¸Ģ": 5172,
      "ä»İèĢĮæĺ¾èĳĹæıĲåįĩ": 5173,
      "æīĭå·¥èīº": 5174,
      "æĺ¯ä¸Ģä¸ª": 5175,
      "æķ´é½Ĳ": 5176,
      "è¢ħ": 5177,
      "çľŁä¼ª": 5178,
      "è¿Ļä¸Ģæ¨¡å¼ı": 5179,
      "åıįå¯¹": 5180,
      "æİ¢å¯»": 5181,
      "å½ĵä¸ĭçļĦ": 5182,
      "æĹ¨åľ¨æıĲåįĩ": 5183,
      "æĹ¢èĥ½": 5184,
      "å¾®å¼±": 5185,
      "æ¡¥": 5186,
      "èīºæľ¯æĺ¯": 5187,
      "æĺ¯ä¸Ģç§įåŁºäºİ": 5188,
      "æķ°åŃĹæĹ¶ä»£": 5189,
      "æĸĩåĮĸéģĹäº§": 5190,
      "æł¼å¾ĭ": 5191,
      "ç²¾åĩĨé¢Ħæµĭ": 5192,
      "åį³ä½¿": 5193,
      "å¤±æķĪ": 5194,
      "åĬŁèĥ½ä¸İ": 5195,
      "åıĪåĥı": 5196,
      "æ·±åĪ»æıŃç¤ºäºĨ": 5197,
      "åĲ¸å¼ķ": 5198,
      "æĪĲä¸ºè¿ŀæİ¥": 5199,
      "æĹ¶éĹ´çļĦ": 5200,
      "åī§æľ¬": 5201,
      "æ£Ĵ": 5202,
      "åł¡": 5203,
      "åĪĨæŀĲåĮĸåŃ¦": 5204,
      "èĩªåĬ¨åŃ¦ä¹ł": 5205,
      "åħįåıĹ": 5206,
      "è§Ĵåº¦": 5207,
      "ä¸įåı¯æĽ¿ä»£": 5208,
      "åŁºåĽłç¼ĸè¾ĳ": 5209,
      "çħ§æĸĻ": 5210,
      "å·®è·Ŀ": 5211,
      "ç´§ç´§": 5212,
      "ä¼łéĢĴä¿¡æģ¯": 5213,
      "è®¡ç®Ĺæľºç§ĳåŃ¦": 5214,
      "åıĬåħ¶çĽ¸äºĴä½ľçĶ¨": 5215,
      "çĽĳçĿ£": 5216,
      "çļĦç²¾å¯Ĩ": 5217,
      "å®ĥä¸įçĽ´æİ¥": 5218,
      "åĲ¬è§ī": 5219,
      "èĵ¬": 5220,
      "çŁŃè§Ĩé¢ĳ": 5221,
      "çªģçł´ä¼łç»Ł": 5222,
      "æĪ¿å±ĭ": 5223,
      "åĨ²åĩ»": 5224,
      "æĵįæİ§": 5225,
      "å½»åºķé¢łè¦Ĩ": 5226,
      "çĮĽ": 5227,
      "åĤ¨å¤ĩ": 5228,
      "ç¼ĵè§£åİĭåĬĽ": 5229,
      "éĿ©æĸ°": 5230,
      "çļĦçº¢": 5231,
      "çļĦçĶŁåĳ½åĬĽ": 5232,
      "èĨĢ": 5233,
      "ä¼´éļı": 5234,
      "å®ıå¤§åıĻäºĭ": 5235,
      "äºĶåĪĨéĴŁ": 5236,
      "åĬłå¯ĨæĬĢæľ¯": 5237,
      "èĶĵ": 5238,
      "éļĶç¦»": 5239,
      "è¾¹ç¼ĺè®¡ç®Ĺ": 5240,
      "æķıæĦŁ": 5241,
      "è¡°éĢĢ": 5242,
      "ç»½æĶ¾åĩº": 5243,
      "å¼¹æĢ§": 5244,
      "ç§¯æŀģå¿ĥçĲĨåŃ¦": 5245,
      "éĤ»éĩĮ": 5246,
      "ä¸»è¦ģçĶ±": 5247,
      "æĳĨèĦ±": 5248,
      "ä¸¥å¯ĨçļĦéĢ»è¾ĳ": 5249,
      "èĿ¶": 5250,
      "äº¬åī§": 5251,
      "çļĦæ¶Ī": 5252,
      "çļĦçİ°ä»£åĮĸ": 5253,
      "å£ģåŀĴ": 5254,
      "è¿ĻéĹ¨åŃ¦ç§ĳä¸įä»ħ": 5255,
      "æĭ¼åĩĳåĩº": 5256,
      "åĪ¹è½¦": 5257,
      "çļĦç»¼åĲĪæĢ§": 5258,
      "æŀģå¤§æıĲåįĩäºĨ": 5259,
      "åĪĽä¸ļç²¾ç¥ŀ": 5260,
      "åīĸæŀĲ": 5261,
      "åŀĤçĽ´": 5262,
      "æ·¹æ²¡": 5263,
      "éĢļè´§èĨ¨èĥĢ": 5264,
      "¯çĿĢ": 5265,
      "°æĺ¾": 5266,
      "ĠãĢĬ": 5267,
      "ĵèĻ¹": 5268,
      "çļĦä¼¦çĲĨ": 5269,
      "çļĦèĥ½éĩı": 5270,
      "çļĦå¯¹è¯Ŀ": 5271,
      "çļĦå®¶åĽŃ": 5272,
      "çļĦå±ĢéĻĲ": 5273,
      "çļĦåĴĮè°Ĳåħ±çĶŁ": 5274,
      "ä¸İæĻºæħ§": 5275,
      "æĺ¯åĪ©çĶ¨": 5276,
      "å¤ı": 5277,
      "æķĮ": 5278,
      "ä¹Ŀ": 5279,
      "çĲ¢": 5280,
      "å¼§": 5281,
      "è¿ĩæ»¤": 5282,
      "ä¸ŃèĩªçĦ¶": 5283,
      "äºĨä»İ": 5284,
      "å¿§": 5285,
      "æµĬ": 5286,
      "åĬ¨æľº": 5287,
      "å½°æĺ¾": 5288,
      "éĢļè¿ĩå»ºç«ĭ": 5289,
      "æĮ«": 5290,
      "è®©æ¯ıä¸Ģæ¬¡": 5291,
      "èµ¢": 5292,
      "éĻ¶": 5293,
      "æĥķ": 5294,
      "ä»¥åºĶå¯¹": 5295,
      "åľ°éĵģ": 5296,
      "æľºæİ¥åı£": 5297,
      "ç¨»": 5298,
      "è°¢": 5299,
      "ç²®": 5300,
      "å°ĨèĩªçĦ¶": 5301,
      "å¢Ł": 5302,
      "åı¯çĶ¨": 5303,
      "åı¯æİ§": 5304,
      "éľĵèĻ¹": 5305,
      "éĺĲ": 5306,
      "æĪĳåľ¨": 5307,
      "åī²": 5308,
      "è·Ł": 5309,
      "å±ķå¼Ģ": 5310,
      "åħ¶ä¸ŃçļĦ": 5311,
      "éĽª": 5312,
      "åħīåŃ¦": 5313,
      "åħīè¾ī": 5314,
      "éªĳ": 5315,
      "æ¯ıå¤©": 5316,
      "æķ´åº§": 5317,
      "é£İè²Į": 5318,
      "å¤ļä¸ª": 5319,
      "æ¸ħéĨĴ": 5320,
      "å¼ºçĥĪ": 5321,
      "å½±åŃĲ": 5322,
      "æ¼ı": 5323,
      "çľŁè¯ļ": 5324,
      "åį´ä¹Ł": 5325,
      "åıªçķĻä¸ĭ": 5326,
      "çĽ¸åĲĮ": 5327,
      "æĹ¨åľ¨å®ŀçİ°": 5328,
      "å¾®åŀĭ": 5329,
      "å¾®å¦Ļ": 5330,
      "æıĲä¾Ľåħ³éĶ®": 5331,
      "èīºæľ¯å½¢å¼ı": 5332,
      "æ°ĳéĹ´": 5333,
      "åįķåĲĳ": 5334,
      "èĮ§": 5335,
      "èĮ«": 5336,
      "åħ»æĬ¤": 5337,
      "å¤©çĦ¶": 5338,
      "æĺ¯ä¸Ģç§įå°Ĩ": 5339,
      "æĺ¯ä¸Ģç§įæ¸ħæ´ģ": 5340,
      "æķ°åŃĹä¸ĸçķĮ": 5341,
      "æ¢Ĺ": 5342,
      "å¹´åīį": 5343,
      "æĺ¯æĮĩä¸ªä½ĵåľ¨": 5344,
      "è¿½è¸ª": 5345,
      "ç»ıæµİåıĳå±ķ": 5346,
      "åħ±åĲĮä½ĵ": 5347,
      "ç©ºéĹ´ç«Ļ": 5348,
      "æĪĲä¸ºçİ°ä»£": 5349,
      "çªģåıĺ": 5350,
      "æ£®": 5351,
      "æł¹åŁº": 5352,
      "æīįæĺ¯": 5353,
      "åİĭç¼©": 5354,
      "æľ¬è´¨çļĦ": 5355,
      "åĨ³çŃĸå¿ĥçĲĨ": 5356,
      "ç²¾ç¥ŀçļĦ": 5357,
      "æ¸¸æ³³": 5358,
      "æĭ¥æĬ±": 5359,
      "å±±åĮº": 5360,
      "è¶ħè¶ĬäºĨ": 5361,
      "å¯»å¾Ĺ": 5362,
      "å»ºçŃĳå¸Ī": 5363,
      "èº«ä½ĵæľºèĥ½": 5364,
      "æľĪåħī": 5365,
      "èĬĤå¥ıä¸İ": 5366,
      "å®ĪæĬ¤çĿĢ": 5367,
      "åħ´èµ·": 5368,
      "æŁĲç§į": 5369,
      "åĪĽéĢłåĩº": 5370,
      "éģ¿å¼Ģ": 5371,
      "åħ¬åħ±äº¤éĢļ": 5372,
      "é¢ĳåıĳ": 5373,
      "åĬ¨æĢģå¹³è¡¡": 5374,
      "å®Įç¾İè¯łéĩĬäºĨ": 5375,
      "è´Łè´£": 5376,
      "æĿĳæ°ĳ": 5377,
      "åħĭéļĨ": 5378,
      "åºŁå¢Ł": 5379,
      "ç©ºæ°Ķæ±¡æŁĵ": 5380,
      "èŃ¦æĥķ": 5381,
      "ä¸ĩçī©äºĴèģĶ": 5382,
      "æ»ĭåħ»çĿĢ": 5383,
      "åŃ¤å²Ľ": 5384,
      "éĩİçĶŁåĬ¨": 5385,
      "è·³è·ĥ": 5386,
      "å¥¥è¿Ĳ": 5387,
      "ä¸İäººæĢ§": 5388,
      "æĦ¿æĻ¯": 5389,
      "æ´Ĵåľ¨": 5390,
      "å°Ĭä¸¥ä¸İ": 5391,
      "åĽ¢éĺŁåįıä½ľ": 5392,
      "çļĦç©ºæ°Ķ": 5393,
      "åĢ¾åĲ¬": 5394,
      "çªĹå¤ĸ": 5395,
      "èĢķä½ľ": 5396,
      "å°ģéĹŃ": 5397,
      "è®²ç©¶": 5398,
      "çĺ«": 5399,
      "åİ¨æĪ¿": 5400,
      "æĤ²åī§": 5401,
      "åĪĨå¸ĥå¼ıè´¦æľ¬": 5402,
      "è¿Ļç§įæ¨¡å¼ıä¸įä»ħ": 5403,
      "æ¬²æľĽ": 5404,
      "èī¯å¥½çļĦ": 5405,
      "çļĦç«ŀ": 5406,
      "åĮĹäº¬": 5407,
      "åħ¶æł¸å¿ĥåľ¨äºİ": 5408,
      "å¥ĸåĬ±": 5409,
      "çļĦæĻ®éģį": 5410,
      "çļĦæ½ľ": 5411,
      "ç´łè´¨æķĻèĤ²": 5412,
      "er": 5413,
      "or": 5414,
      "µĮ": 5415,
      "åµĮ": 5416,
      "Ġ5": 5417,
      "ĠæĦıè¯Ĩ": 5418,
      "ĠéĽ¶": 5419,
      "Ġçº³ç±³": 5420,
      "ľä¼½": 5421,
      "ï¼Ī": 5422,
      "ï¼ī": 5423,
      "çļĦåĵ²åŃ¦": 5424,
      "çļĦæĹ¶éĹ´": 5425,
      "çļĦçī©çĲĨ": 5426,
      "å®´": 5427,
      "åħµ": 5428,
      "åĪļ": 5429,
      "ä¸İèĬĤå¥ı": 5430,
      "è®¿": 5431,
      "åľ¨å®¶": 5432,
      "ä¸Ģäºº": 5433,
      "ä¸ĢéĿ¢": 5434,
      "ä¸Ģè¾Ĩ": 5435,
      "åĨ¬": 5436,
      "åĬ¨èĥ½": 5437,
      "å®ĥèŀįåĲĪäºĨ": 5438,
      "å®ĥåĢ¡å¯¼": 5439,
      "è¿Ļåı°": 5440,
      "çĽ¯çĿĢ": 5441,
      "åŁĭ": 5442,
      "æĢ§çĬ¶": 5443,
      "èĩªçĽ¸ä¼¼": 5444,
      "å¸Ŀ": 5445,
      "å®ŀçī©": 5446,
      "æľīäºĨ": 5447,
      "ç³Ļ": 5448,
      "å¹¶åľ¨": 5449,
      "åľ°çĲĨ": 5450,
      "è¡Įèµ°": 5451,
      "ä»İè¢«åĬ¨": 5452,
      "åħ¨èº«": 5453,
      "è´¨çĸĳ": 5454,
      "æµģå¤±": 5455,
      "ç²¾åº¦": 5456,
      "èĪį": 5457,
      "èĪŁ": 5458,
      "è§Ĥçľĭ": 5459,
      "æĿ¥æºĲ": 5460,
      "åħīåĲĪä½ľçĶ¨": 5461,
      "çī¹è´¨": 5462,
      "çĶµç½ĳ": 5463,
      "æ°´æ³¥": 5464,
      "çŃīæĮĳæĪĺ": 5465,
      "æľĢä½³": 5466,
      "æĮĩç§°": 5467,
      "å°±åĥıæĬĬ": 5468,
      "æķ°æį®åºĵ": 5469,
      "ä»İèĢĮæİ¨åĬ¨": 5470,
      "çĶŁåĳ½å½¢å¼ı": 5471,
      "åĪ°çļĦ": 5472,
      "è¿Ļç§įè¶ħè¶Ĭ": 5473,
      "èĩªçĦ¶è§Ħå¾ĭ": 5474,
      "è¢ĭ": 5475,
      "è¿Ļä¸ĢæĬĢæľ¯": 5476,
      "åį´ä¸į": 5477,
      "æ»©": 5478,
      "æĺİäº®": 5479,
      "æŁı": 5480,
      "äºĭæķħ": 5481,
      "ç¢Į": 5482,
      "é©»": 5483,
      "çīĩåĪ»": 5484,
      "çĶŁçī©åĪ¶": 5485,
      "åĬłå¼º": 5486,
      "åıĹæįŁ": 5487,
      "çŀ¬éĹ´å®ĮæĪĲ": 5488,
      "æĹ¥åŃĲ": 5489,
      "åĸĿ": 5490,
      "æķ°åŃĹæĬĢæľ¯": 5491,
      "æķ°åŃĹä¸ĸçķĮçļĦ": 5492,
      "åıĸæ¶Ī": 5493,
      "è¿ľè¶ħ": 5494,
      "è§Ħå¾ĭçļĦåŃ¦ç§ĳ": 5495,
      "åı²è§Ĥ": 5496,
      "åİĨç»ı": 5497,
      "å¤ĸåľ¨": 5498,
      "ä¹¦æ³ķ": 5499,
      "çİ°å®ŀçļĦ": 5500,
      "è®¾è®¡çļĦ": 5501,
      "æī¿è¯º": 5502,
      "ç¡®ä¿Ŀæķ°æį®": 5503,
      "æ£ĭ": 5504,
      "æĬĬæı¡": 5505,
      "çĲĨè®ºåŁºç¡Ģ": 5506,
      "æł¹äºİ": 5507,
      "éĽ¨éľ²": 5508,
      "è§¦åıĬ": 5509,
      "æ¤įæłĳ": 5510,
      "èĪªåĲĳ": 5511,
      "å¿«ä¹Ĳ": 5512,
      "å¿ħè¦ģ": 5513,
      "è¯´æĺİ": 5514,
      "åģıå¥½": 5515,
      "çļĦæĥĬ": 5516,
      "çŁŃç¼º": 5517,
      "æ··åĲĪ": 5518,
      "æ°ĶåĢĻåıĺæļĸ": 5519,
      "ç¾¤ä½ĵå¿ĥçĲĨ": 5520,
      "ä¸ĵæ³¨åĬĽ": 5521,
      "åĪĹè½¦": 5522,
      "æ²¿éĢĶ": 5523,
      "æĺłå°Ħ": 5524,
      "éĥ½æĺ¯å¯¹": 5525,
      "éľĩåĬ¨": 5526,
      "è¯¾åīį": 5527,
      "æĭ¥æľīäºĨ": 5528,
      "ç¼ĸç»ĩåĩº": 5529,
      "çļĦæ³¨": 5530,
      "å®ĥæĹ¢æĺ¯": 5531,
      "åĩĿèģļæĢģ": 5532,
      "è´Ńä¹°åĬĽ": 5533,
      "åĸľåī§": 5534,
      "çģŃç»Ŀ": 5535,
      "çļĦçĶŁåĬ¨åĨĻçħ§": 5536,
      "ç§ĳå¹»æĸĩåŃ¦": 5537,
      "å¥łå®ļäºĨåĿļå®ŀåŁºç¡Ģ": 5538,
      "é£İéĽ¨ä¸Ń": 5539,
      "ä¼ĳéĹ²": 5540,
      "åĦ¿ç«¥": 5541,
      "åĪĨå¸ĥå¼ıç³»ç»Ł": 5542,
      "éĴĪå¯¹": 5543,
      "åı¦ä¸Ģä¸ª": 5544,
      "çļĦæµģåĬ¨": 5545,
      "å¿½çķ¥äºĨ": 5546,
      "çħ®": 5547,
      "å¿Ļç¢Į": 5548,
      "æŃ£æ·±åĪ»éĩįå¡ĳ": 5549,
      "èľľèľĤ": 5550,
      "ç±»åŀĭçīĩ": 5551,
      "æľīæķĪç¼ĵè§£äºĨ": 5552,
      "å®ŀè¯ģæ³ķ": 5553,
      "ä»İæµ·éĩıæķ°æį®ä¸Ń": 5554,
      "çļĦæ¢¦å¢ĥ": 5555,
      "å¿ĹæĦ¿æľįåĬ¡": 5556,
      "åıĹéĻĲäºİ": 5557,
      "çļĦç¢İçīĩ": 5558,
      "çļĦçĳ°å®Ŀ": 5559,
      "éĩİçĶŁåĬ¨çī©": 5560,
      "´èĿ¶": 5561,
      "Ġä¹": 5562,
      "Ġä»İ": 5563,
      "Ġç»Ĩèĥŀ": 5564,
      "çļĦæĹł": 5565,
      "çļĦé«ĺæķĪ": 5566,
      "çļĦèĩªçĶ±": 5567,
      "çļĦå½¢æĢģ": 5568,
      "çļĦåħ·ä½ĵ": 5569,
      "ç»ļ": 5570,
      "åĬ²": 5571,
      "åŃĻ": 5572,
      "æĹ±": 5573,
      "æĺ¯ä¸Ńåįİ": 5574,
      "åľ¨æµ©çĢļ": 5575,
      "ä¸įèĥ½": 5576,
      "ä¸įåĲĮæĹ¶": 5577,
      "ä¸ºç¬Ķ": 5578,
      "å®ĥçļĦ": 5579,
      "éĢļè¿ĩæŀĦå»º": 5580,
      "è®©å¹³åĩ¡": 5581,
      "æĪĲåįĥ": 5582,
      "å¿ĥèĤº": 5583,
      "çķª": 5584,
      "å¤§èĩªçĦ¶": 5585,
      "ä»¥å®ŀçİ°": 5586,
      "åľ°å¤ĸ": 5587,
      "è¡Įé©¶": 5588,
      "èī°": 5589,
      "ä¼łçĲĥ": 5590,
      "åħ¨åľº": 5591,
      "é£ĺ": 5592,
      "åīĬ": 5593,
      "äººç±»è®¤çŁ¥": 5594,
      "ç²¾ç»Ĩ": 5595,
      "åģ·": 5596,
      "æĸ°ä¸Ģ": 5597,
      "é«ĺæ¥¼": 5598,
      "æ¶Ĥ": 5599,
      "æ¶Ŀ": 5600,
      "ä¸ļåĬ¡": 5601,
      "çī¹æ®Ĭ": 5602,
      "å½¢è±¡": 5603,
      "æ°´èµĦæºĲ": 5604,
      "æīĭæĮģ": 5605,
      "æĪĳä»¬çĲĨè§£": 5606,
      "ç§ĳåŃ¦çĲĨè®º": 5607,
      "èŀįèµĦ": 5608,
      "æĪĸè®¸": 5609,
      "é£İæµª": 5610,
      "å¥½çļĦ": 5611,
      "å®īæİĴ": 5612,
      "éĢłæŀĹ": 5613,
      "åĽ¾çīĩ": 5614,
      "å¼ºåº¦": 5615,
      "çĹª": 5616,
      "è¿Ļä¸Ģè¶ĭåĬ¿": 5617,
      "å¸Ĥæ°ĳ": 5618,
      "æİ¥åıĹ": 5619,
      "æĺİçĻ½": 5620,
      "åĨ³èµĽ": 5621,
      "ä¹Łå¸¦æĿ¥äºĨ": 5622,
      "çİ¯å¢ĥçļĦ": 5623,
      "æĹ¨åľ¨æŀĦå»º": 5624,
      "åīįæīĢ": 5625,
      "æĹ¢æľī": 5626,
      "èµ·æºĲäºİ": 5627,
      "åĻ¨å®ĺ": 5628,
      "çİ°ä»£åĮĸ": 5629,
      "é¢ĦæľŁ": 5630,
      "è·¯äºº": 5631,
      "ä»ĸäººçļĦ": 5632,
      "èīºæľ¯ä¸İ": 5633,
      "èīºæľ¯å®¶": 5634,
      "å¸¸è§Ħ": 5635,
      "å¤©ä½ĵ": 5636,
      "å¤©ç©º": 5637,
      "é¢ĨæĤŁ": 5638,
      "æľīæķĪæıĲåįĩäºĨ": 5639,
      "å¦Ĥä½ķåľ¨": 5640,
      "è¿ĺèĥ½æľīæķĪ": 5641,
      "æĺ¯æĮĩåľ°çĲĥä¸Ĭ": 5642,
      "å®ĩå®Ļä¸ŃçļĦ": 5643,
      "åĿļç¡¬": 5644,
      "è¯Ńè¨Ģç¬¦åı·": 5645,
      "åĲĦåľ°": 5646,
      "ä¸»ä¹īå¼ºè°ĥ": 5647,
      "åĩıè½»": 5648,
      "éĢĤå®ľ": 5649,
      "å¾·æĢ§": 5650,
      "èĢĥæį®": 5651,
      "æ¤įåħ¥": 5652,
      "æ¿ĢåĬ±": 5653,
      "åĮĸåŃ¦èĥ½": 5654,
      "éĩĳèŀįä½ĵç³»": 5655,
      "åĳ¼åĲ¸ä¸İ": 5656,
      "æŀ¶èµ·": 5657,
      "å¤ªå¥ĩ": 5658,
      "åĸĦæĦı": 5659,
      "ç¿¼": 5660,
      "èĭ¥åıª": 5661,
      "æĪĲæľ¬å¹¶": 5662,
      "çľ¼ç¥ŀ": 5663,
      "è¯ĨåĪ«å¹¶": 5664,
      "æĸĩæĺİçļĦ": 5665,
      "å®¤åĨħ": 5666,
      "åħ±é¸£ä¸İ": 5667,
      "å½Ĵå±ŀ": 5668,
      "æįķæįŀ": 5669,
      "æļĹçī©è´¨": 5670,
      "æ¶Īè´¹å¿ĥçĲĨ": 5671,
      "èĹıåľ¨": 5672,
      "äºĴèģĶç½ĳæĬĢæľ¯": 5673,
      "åīªè¾ĳ": 5674,
      "è®®é¢ĺ": 5675,
      "çģµéŃĤçļĦ": 5676,
      "è½¯ä»¶å·¥ç¨ĭ": 5677,
      "è¿Ļä¸Ģè¿ĩç¨ĭä¸įä»ħ": 5678,
      "çļĦæł¹åŁº": 5679,
      "åĬ³åĬ¨åĬĽ": 5680,
      "åĳĪçİ°åĩº": 5681,
      "æľªçŁ¥çļĦ": 5682,
      "ä¸ªæĢ§åĮĸåŃ¦ä¹ł": 5683,
      "æĪ´æ£®": 5684,
      "æ¾Ħ": 5685,
      "ĠäººçĶŁ": 5686,
      "ä¾µèļĢ": 5687,
      "æĮĩå¼ķæĸ¹åĲĳ": 5688,
      "è¦ĨçĽĸ": 5689,
      "å®ĥè¦ģæ±ĤæĪĳä»¬åľ¨": 5690,
      "åłĨç§¯": 5691,
      "çļĦæĶ¿": 5692,
      "æ¼«éķ¿çļĦ": 5693,
      "åĸ§åļ£ä¸Ń": 5694,
      "çļĦç½Ĺ": 5695,
      "æĩĤå¾Ĺ": 5696,
      "çļĦç¾İå¥½": 5697,
      "èĿ´èĿ¶": 5698,
      "çļĦç¢³": 5699,
      "çŃīå¤ļä¸ª": 5700,
      "æĻ¶ä½ĵç»ĵæŀĦ": 5701,
      "éĢĥèĦ±": 5702,
      "ç¼ĸç¨ĭè¯Ńè¨Ģ": 5703,
      "çļĦçº¿æĿ¡": 5704,
      "ç²Ĺç³Ļ": 5705,
      "ä¾§éĩį": 5706,
      "çªĥåĲ¬": 5707,
      "ĠçĶŁçī©å¤ļæł·æĢ§æĺ¯æĮĩåľ°çĲĥä¸Ĭ": 5708,
      "ĠèĪŀè¹Īæĺ¯": 5709,
      "èĢĲèį¯æĢ§": 5710,
      "æŃ§è§Ĩ": 5711,
      "åĮĸçŁ³çĩĥæĸĻ": 5712,
      "åĪĿå§ĭæĿ¡ä»¶": 5713,
      "çļĦçıį": 5714,
      "èĤ¡ç¥¨æĬķèµĦ": 5715,
      "åįļçī©é¦Ĩ": 5716,
      "çļĦçĭĤ": 5717,
      "å¥¥è¿Ĳä¼ļ": 5718,
      "çĺ«çĹª": 5719,
      "æ¤įæłĳéĢłæŀĹ": 5720,
      "åĩĿèģļæĢģçī©çĲĨ": 5721,
      "åīįæīĢæľª": 5722,
      "ĠçĶŁçī©å¤ļæł·æĢ§æĺ¯æĮĩåľ°çĲĥä¸ĬæīĢæľī": 5723,
      "å«": 5724,
      "Ġä¸Ĭ": 5725,
      "Ġç¤¾åĮº": 5726,
      "ĠåĮħè±ªæĸ¯": 5727,
      "ĥèĩ³": 5728,
      "Ĵä¹": 5729,
      "Łç¼ļ": 5730,
      "Ńèķ¾": 5731,
      "çļĦåĬŁèĥ½": 5732,
      "çļĦå¿ĥçĲĨ": 5733,
      "çļĦåĪĽæĸ°": 5734,
      "çļĦéŁ³ç¬¦": 5735,
      "æľĿ": 5736,
      "ä¸İçĶŁæĢģ": 5737,
      "ä¸İèīºæľ¯": 5738,
      "ä¸İçİ°å®ŀ": 5739,
      "ä¸İæĦıä¹ī": 5740,
      "ä¸İäº¤äºĴ": 5741,
      "å¤ķ": 5742,
      "ä¸Ģé¢Ĺ": 5743,
      "ä¹ĥèĩ³": 5744,
      "èĥ½çŀ¬éĹ´": 5745,
      "çīµ": 5746,
      "ä¸ŃæĤĦçĦ¶": 5747,
      "æĬ¼": 5748,
      "ä¸įåĩº": 5749,
      "çļĦæı": 5750,
      "ä½ĵåĨħ": 5751,
      "ä¸ºæľªæĿ¥": 5752,
      "å®ĥæĺ¯": 5753,
      "å®ĥæĬĬ": 5754,
      "éĢļè¿ĩåħīåĲĪä½ľçĶ¨": 5755,
      "è´¥": 5756,
      "æ³½": 5757,
      "è®©çĶŁåĳ½": 5758,
      "è®©æ¨¡åŀĭ": 5759,
      "èµĶ": 5760,
      "åĬĽçļĦ": 5761,
      "å¥Ī": 5762,
      "åĴĮåĪĨæŀĲ": 5763,
      "å¤§åŀĭ": 5764,
      "ä»İæºĲå¤´": 5765,
      "æĭ¾": 5766,
      "åı¯ä»¥": 5767,
      "ç§ĳçłĶ": 5768,
      "æ±ī": 5769,
      "ä¸Ĭä¸ĩ": 5770,
      "äººç±»è¡Įä¸º": 5771,
      "æµģæµª": 5772,
      "ç²¾å¦Ļ": 5773,
      "èĬŃèķ¾": 5774,
      "æĿ¥çļĦ": 5775,
      "åĲĪä¸Ģ": 5776,
      "ä¸»å¯¼": 5777,
      "åĳ½é¢ĺ": 5778,
      "æĸ°åŀĭ": 5779,
      "é«ĺå³°": 5780,
      "åħīéĢŁ": 5781,
      "çĸĨ": 5782,
      "èºģ": 5783,
      "çĶµåľº": 5784,
      "çĶµç£ģ": 5785,
      "æ°´æ±¡æŁĵ": 5786,
      "éľĢåľ¨": 5787,
      "äº¤ä»ĺ": 5788,
      "å¤įåĪ»": 5789,
      "ä¸ĭåįķ": 5790,
      "åĿ¦": 5791,
      "å®¶æĹı": 5792,
      "æĢĿè¾¨": 5793,
      "ç¥Ŀ": 5794,
      "å¤ļä½Ļ": 5795,
      "å½±çīĩ": 5796,
      "æ¼Ĩ": 5797,
      "è¿Ļä¸ĢåŃ¦ç§ĳ": 5798,
      "éĥ½æĹłæ³ķ": 5799,
      "åıįå°Ħ": 5800,
      "èĢĮæĺ¯çĶ¨": 5801,
      "æ¯Ķä½ľ": 5802,
      "åĵģæł¼": 5803,
      "çº¿æķĻèĤ²": 5804,
      "æŀģé«ĺ": 5805,
      "å¸¸è§ģ": 5806,
      "éĤ£æł·": 5807,
      "ç¬¼": 5808,
      "æĴĴ": 5809,
      "å£°æ³¢": 5810,
      "è¿ľå¤Ħ": 5811,
      "ä»·åĢ¼è§Ĥ": 5812,
      "è¿½å¯»": 5813,
      "åĮºåĪĨ": 5814,
      "ç»ıæµİåĳ¨æľŁ": 5815,
      "åĿļåĽº": 5816,
      "åħ±åĲĮæŀĦæĪĲäºĨ": 5817,
      "æłĩè®°": 5818,
      "éĢıè§Ĩ": 5819,
      "éĢıéķľ": 5820,
      "è¶³å°ĸ": 5821,
      "åİĭæĬĳ": 5822,
      "çĥŃåĬĽåŃ¦": 5823,
      "å§ĵ": 5824,
      "æ¸¸å®¢": 5825,
      "ç»¿èī²è½¬åŀĭ": 5826,
      "çħ§è§ģ": 5827,
      "æĬĹåİŁ": 5828,
      "åĨľä¸ļåĲĳ": 5829,
      "å¼ķå¯¼äººä»¬": 5830,
      "ç´§å¼ł": 5831,
      "åıĬåħ¶ä¸İ": 5832,
      "ç¥ŀç»ıç³»ç»Ł": 5833,
      "ä½ľä¸ºçİ°ä»£": 5834,
      "æĹ¶ç©ºçļĦ": 5835,
      "åįİä¸½": 5836,
      "åĲ¦å®ļ": 5837,
      "èĻļæĭŁä¸ĸçķĮ": 5838,
      "èĻļæĭŁçİ°å®ŀ": 5839,
      "å¤ľç©º": 5840,
      "éĿłè¿ĳ": 5841,
      "æĺ¯éĢļè¿ĩç§ĳåŃ¦": 5842,
      "æĹłå£°åľ°": 5843,
      "èī¯çŁ¥": 5844,
      "å®Įç¾İçļĦ": 5845,
      "éĶģå®ļ": 5846,
      "éĢŁåº¦ä¸İ": 5847,
      "åİļéĩį": 5848,
      "çļĦæĿŁç¼ļ": 5849,
      "çģ¾éļ¾": 5850,
      "å¤§å¹ħæıĲåįĩäºĨ": 5851,
      "è¡Ĺå¤´": 5852,
      "çļĦæī§": 5853,
      "çļĦåŁºç¡Ģä¸Ĭ": 5854,
      "çĳľä¼½": 5855,
      "èĶļ": 5856,
      "çļĦäººçĶŁ": 5857,
      "åıĤä¸İèĢħ": 5858,
      "è¯ĬçĸĹ": 5859,
      "æµģæ´¾æĺ¯": 5860,
      "ä¼¤å®³": 5861,
      "æ¡Įä¸Ĭ": 5862,
      "çĦķåıĳåĩº": 5863,
      "è¿Ļç±»ä½ľåĵģ": 5864,
      "éĽķçĲ¢": 5865,
      "æĭĨè§£ä¸º": 5866,
      "çļĦçĶ»éĿ¢": 5867,
      "æ¶īåıĬ": 5868,
      "é¢Ħè®¾çļĦ": 5869,
      "æ²īé»ĺçļĦ": 5870,
      "é¢¤æĬĸ": 5871,
      "çľĭä¸įè§ģçļĦ": 5872,
      "çļĦç¬Ķ": 5873,
      "äººæ°ĳå¸ģ": 5874,
      "è¾ħå¯¼": 5875,
      "åĨĴéĻ©": 5876,
      "æĮ¯åħ´": 5877,
      "æľ¬ä½ĵè®º": 5878,
      "è¶ħå¯¼çİ°è±¡": 5879,
      "çļĦçĹħ": 5880,
      "å¼¥æ¼«": 5881,
      "åİĺæ¸ħ": 5882,
      "çļĦç½ĳç»ľ": 5883,
      "å¤¸å¼ł": 5884,
      "åĨ»åľŁ": 5885,
      "åł¤åĿĿ": 5886,
      "çļĦçªģçł´": 5887,
      "çº¤ç»´": 5888,
      "éĴ¢çŃĭæ°´æ³¥": 5889,
      "åı°æ¢ŃåĪ©æķĻèĤ²": 5890,
      "å¼§çº¿": 5891,
      "Ġçº³ç±³æĬĢæľ¯": 5892,
      "çļĦç½ĹçĽĺ": 5893,
      "Ĵä¹ĵ": 5894,
      "00": 5895,
      "EM": 5896,
      "TEM": 5897,
      "¤æ°": 5898,
      "µå¢ŀ": 5899,
      "½æķ°": 5900,
      "¿çĹħ": 5901,
      "Ġæķ°": 5902,
      "ĠåĪĨåŃĲ": 5903,
      "ĠæĿİ": 5904,
      "ĠçľĭåĪ°": 5905,
      "Ġç»Łè®¡åŃ¦": 5906,
      "Ġç§¯æŀģå¿ĥçĲĨåŃ¦": 5907,
      "Ĵåį±": 5908,
      "ĸè®º": 5909,
      "ä¸Ī": 5910,
      "çļĦè®°å¿Ĩ": 5911,
      "çļĦåľŁå£¤": 5912,
      "çļĦåıĻäºĭ": 5913,
      "çļĦæĸ¹æ³ķ": 5914,
      "åħ«": 5915,
      "åľ£": 5916,
      "ä¸İç§©åºı": 5917,
      "è®¢": 5918,
      "åľ¨å®ĩå®Ļä¸Ń": 5919,
      "ä¸ĢæĹ¥": 5920,
      "å°¿çĹħ": 5921,
      "çī§": 5922,
      "ç§Ģ": 5923,
      "æĬĽ": 5924,
      "ä¸įå¹³çŃī": 5925,
      "åĩ½æķ°": 5926,
      "ä½ĵèĥ½": 5927,
      "å®ĥä¸º": 5928,
      "å®ĥæİ¢è®¨": 5929,
      "è¿Ļåľº": 5930,
      "èĢĮä¸Ĭ": 5931,
      "æ°¤æ°": 5932,
      "è´Ŀ": 5933,
      "æĢ§åıĬ": 5934,
      "æŃĩ": 5935,
      "çļĦçĤ": 5936,
      "åĬĽåŃ¦æĺ¯çłĶç©¶": 5937,
      "æĻĵ": 5938,
      "å¥ī": 5939,
      "å¹¶çĶŁæĪĲ": 5940,
      "åľ°çĤ¹": 5941,
      "åĩºåıĳ": 5942,
      "éģŃ": 5943,
      "å¹³ä»Ħ": 5944,
      "çķĮå®ļ": 5945,
      "å°±ä¼ļ": 5946,
      "æ·±åĲ¸": 5947,
      "ä¿¡ä»¶": 5948,
      "ä¸»è§Ĵ": 5949,
      "è½¬åĬ¨": 5950,
      "è½¬åıĺä¸º": 5951,
      "åħīèĬĴ": 5952,
      "ç»ıåİĨ": 5953,
      "ä»İèĢĮæľīæķĪ": 5954,
      "ä»İèĢĮèİ·å¾Ĺ": 5955,
      "ä¸ĸä»£": 5956,
      "åĪ»æľº": 5957,
      "åĪĻåĥı": 5958,
      "è®¾æĥ³": 5959,
      "åħ¬çĲĨ": 5960,
      "åħ¬åĽŃ": 5961,
      "ç¥ŀç§ĺ": 5962,
      "æµ·æ°´": 5963,
      "åıĳå±ķçļĦ": 5964,
      "è¯Ńæ³ķ": 5965,
      "ä¿¡æģ¯ä¸Ń": 5966,
      "åŁİéķĩ": 5967,
      "æĻºèĥ½ä½ĵ": 5968,
      "ç»ĵæŀĦåĮĸ": 5969,
      "éħ·": 5970,
      "åĬłå·¥": 5971,
      "æ°ĳçĶŁ": 5972,
      "èĭį": 5973,
      "æĺ¯ä¸Ģç§įä»¥": 5974,
      "æ¶Īæķ£": 5975,
      "å¹´é¾Ħ": 5976,
      "è¿ŀåħī": 5977,
      "è¿ŀéĶģ": 5978,
      "åıĪè¦ģ": 5979,
      "å¸¦è´§": 5980,
      "åħ±åĲĮæŀĦå»º": 5981,
      "ç¨³åģ¥": 5982,
      "åı°é£İ": 5983,
      "æĶ¶åĪ°": 5984,
      "åħ¨çĲĥèĮĥåĽ´åĨħ": 5985,
      "å¹¶éĿŀç»Ŀå¯¹": 5986,
      "è®¾è®¡ä¸İ": 5987,
      "çĲĨæĢ§åĪĨæŀĲ": 5988,
      "å°ĳæķ°": 5989,
      "ç¡®ä¿ĿäºĨ": 5990,
      "éĽĨå¸Ĥ": 5991,
      "æŀľå®ŀ": 5992,
      "çĬ¶åĨµ": 5993,
      "éĻħäº¤å¾Ģ": 5994,
      "å®Ľå¦Ĥåľ¨": 5995,
      "åı¯æĮģç»ŃçļĦ": 5996,
      "ç§¯èĵĦ": 5997,
      "ä¸įåı¯éģ¿åħį": 5998,
      "å¤ĦçĲĨä¿¡æģ¯": 5999,
      "ç»¿èī²èĥ½æºĲ": 6000,
      "æĹłéľĢä¸Ńä»ĭ": 6001,
      "èĲ½åı¶": 6002,
      "ç¹ģæ®ĸ": 6003,
      "èº«ä½ĵçļĦ": 6004,
      "ä¼łéĢĴçĿĢ": 6005,
      "æĦıè¯ĨåĪ°": 6006,
      "ç»Ĩèĥŀæł¸": 6007,
      "å·¥ä½ľæķĪçİĩ": 6008,
      "æĺ¯ä¸ĢéĹ¨éĢļè¿ĩ": 6009,
      "çŁŃçŁŃ": 6010,
      "éĩįæĸ°å®ļä¹ī": 6011,
      "çļĦè¿ĩç¨ĭä¸Ń": 6012,
      "çļĦæµª": 6013,
      "æĹ§å°ıåĮº": 6014,
      "åĨ²åĪ·": 6015,
      "è®°å½ķçĿĢ": 6016,
      "æĬ½è±¡è¡¨çİ°": 6017,
      "åĲ«éĩı": 6018,
      "ç¿»è½¬": 6019,
      "çģ¯åħī": 6020,
      "é£ŀèĪ¹": 6021,
      "åĽĽåŃ£": 6022,
      "æĹłè®ºåĩºèº«": 6023,
      "æįŁå¤±": 6024,
      "æİĮèĪµ": 6025,
      "ç²ĴåŃĲçī©çĲĨ": 6026,
      "åį±éĻ©": 6027,
      "å¢ŀå¼ºçİ°å®ŀ": 6028,
      "åİŁåŃĲæł¸": 6029,
      "çĨµå¢ŀ": 6030,
      "çļĦæ·±åĪ»åıįæĢĿ": 6031,
      "çļĦçĶŁæ´»æĸ¹å¼ı": 6032,
      "æ½®æ±Ĳ": 6033,
      "ç§ĳåŃ¦å®¶éĢļè¿ĩ": 6034,
      "çļĦä¸Ģç§į": 6035,
      "æĸĩåŃ¦åĪĽä½ľ": 6036,
      "çĽ®çļĦåľ°": 6037,
      "çĳ°å®Ŀ": 6038,
      "è¿ĺåİŁè®º": 6039,
      "èĶ½": 6040,
      "åĮłå¿ĥ": 6041,
      "ä¼¸æīĭ": 6042,
      "ĠèĢģæĹ§å°ıåĮº": 6043,
      "åĮºåĿĹéĵ¾æĬĢæľ¯": 6044,
      "åĩĿåĽºæĪĲ": 6045,
      "è¿ĽåĮĸè®º": 6046,
      "æĳĦåħ¥": 6047,
      "ç³ĸå°¿çĹħ": 6048,
      "æ¯«æĹł": 6049,
      "çļ®èĤ¤": 6050,
      "ä¿®åīªæŀĿåı¶": 6051,
      "åħ¨éĿ¢åıĳå±ķ": 6052,
      "èĥľåĪ©": 6053,
      "Ġç½ĳç»ľæĸĩåĮĸ": 6054,
      "ä¼Łå¤§": 6055,
      "çļĦç®¡": 6056,
      "æ®ĭçķĻ": 6057,
      "åįĩåįİä¸º": 6058,
      "Ġæĥ³è±¡ä¸Ģä¸ĭ": 6059,
      "éĻĮçĶŁçļĦ": 6060,
      "ä¹īåĬ¡è®º": 6061,
      "åĮħå®¹æĢ§": 6062,
      "çĽĨæĻ¯": 6063,
      "èĩ³ä»Ĭä»į": 6064,
      "åħ¼åħ·": 6065,
      "åºŀå¤§": 6066,
      "ä¸¥å³»æĮĳæĪĺ": 6067,
      "æ¸©å®¤æ°Ķä½ĵæİĴæĶ¾": 6068,
      "åĲĮæł·çļĦ": 6069,
      "æ©¡": 6070,
      "ĠSTEM": 6071,
      "æľĢå°ıåĮĸ": 6072,
      "é¾ĦåĮĸç¤¾ä¼ļ": 6073,
      "ç¾İå¥½çĶŁæ´»çļĦåĲĳå¾Ģ": 6074,
      "çĲĨè´¢è§ĦåĪĴ": 6075,
      "çļĦç«ŀæĬĢ": 6076,
      "æĪĲåįĥä¸Ĭä¸ĩ": 6077,
      "æ°¤æ°²": 6078,
      "ºåŃĲ": 6079,
      "ĠèĢĥ": 6080,
      "Ġèĭı": 6081,
      "ĠæĬĳ": 6082,
      "Ġæ·±åº¦åŃ¦ä¹ł": 6083,
      "Ġå¯Ĩå®¤": 6084,
      "Ġåį°è±¡æ´¾": 6085,
      "Ĵæģ¯": 6086,
      "çļĦä½ľçĶ¨": 6087,
      "çļĦèįĴ": 6088,
      "çļĦè¶ħçº§": 6089,
      "åħ½": 6090,
      "åľ¨æķ°æį®": 6091,
      "åľ¨åħ¶ä¸Ń": 6092,
      "ä¸ĢçĽı": 6093,
      "æĸĵ": 6094,
      "äººæīį": 6095,
      "èĥ½ç²¾åĩĨ": 6096,
      "ç§Ł": 6097,
      "æĬļ": 6098,
      "çļĦæ¬": 6099,
      "å®ĥæıŃç¤º": 6100,
      "éĢļè¿ĩæīĭæľº": 6101,
      "å·¡": 6102,
      "çļĦçĪ": 6103,
      "å¿ĥæĻº": 6104,
      "åıĳéĢģ": 6105,
      "å¯¹ä¸ĸçķĮ": 6106,
      "åĴĮå¹³": 6107,
      "å¤§è¯Ńè¨Ģ": 6108,
      "å¹¶è¡Į": 6109,
      "å¹¶ä¼ĺåĮĸ": 6110,
      "å¹¶ç»´æĮģ": 6111,
      "ä»İä¸Ń": 6112,
      "ç³»åĪĹ": 6113,
      "æĬĢæ³ķ": 6114,
      "æŀĦæĥ³": 6115,
      "å°Ĩå¹³åĩ¡": 6116,
      "æľ¬åľ°": 6117,
      "åħ¨è¿ĩç¨ĭ": 6118,
      "åħ¨éĥ¨": 6119,
      "è§£å¼Ģ": 6120,
      "ä»ħæĺ¯": 6121,
      "äººç±»æĸĩæĺİ": 6122,
      "èĬ¬": 6123,
      "æĬĢæľ¯å°Ĩ": 6124,
      "åħ±çĶŁ": 6125,
      "çĸ¯": 6126,
      "æ°´åľŁ": 6127,
      "ç´«": 6128,
      "èĤĨ": 6129,
      "æľĢçĶŁåĬ¨": 6130,
      "âĢĶ": 6131,
      "éķ¿æĪĲ": 6132,
      "éķ¿ä¹ħ": 6133,
      "ä¹ĭä¸į": 6134,
      "æĪĳä»¬èĥ½": 6135,
      "æİ¨å¼Ģ": 6136,
      "åĪ»çĶ»": 6137,
      "æķ´çīĩ": 6138,
      "èĦĬ": 6139,
      "è¿Ļä¸ĢæĢĿæĥ³": 6140,
      "æ»ŀ": 6141,
      "å¾ĹåĪ°": 6142,
      "ç¾İçļĦ": 6143,
      "æŁ±": 6144,
      "å°ıéķĩ": 6145,
      "è¢«èªī": 6146,
      "åĪĽç«ĭ": 6147,
      "å¦ĤåĲĮä¸º": 6148,
      "åĵģå°Ŀ": 6149,
      "æĤĸè®º": 6150,
      "å¾®åħī": 6151,
      "æĶ¾æĿ¾": 6152,
      "è·¯åĨµ": 6153,
      "æıĲä¾Ľç§ĳåŃ¦ä¾Ŀæį®": 6154,
      "å¼Ģå±ķ": 6155,
      "å¼ĢæĶ¾": 6156,
      "æ¬§": 6157,
      "å¸¸ä»¥": 6158,
      "å¥½æ¯Ķä¸Ģä¸ª": 6159,
      "æĺŁåħī": 6160,
      "æĺŁæ²³": 6161,
      "ä½İæĶ¶åħ¥": 6162,
      "åĸĤ": 6163,
      "åĸĬ": 6164,
      "æŃ¥è¡Į": 6165,
      "éļıåį³": 6166,
      "é£Łåĵģ": 6167,
      "è¿ŀç»Ń": 6168,
      "è¿½éĢĲ": 6169,
      "æľŁå¾ħ": 6170,
      "æĪĺçķ¥": 6171,
      "éĺ²æ²»": 6172,
      "éĺ²æİ§": 6173,
      "å¹¿åľº": 6174,
      "çĶ»å¸ĥä¸Ĭ": 6175,
      "é¥ºåŃĲ": 6176,
      "èģļåıĺ": 6177,
      "èĩªåĬ¨æıĲåıĸ": 6178,
      "è½»è½»": 6179,
      "ä¿ĿæĬ¤åħ³ä¹İ": 6180,
      "åı£æµģåĬ¨": 6181,
      "èĪ¬çļĦ": 6182,
      "åı¤ä»£": 6183,
      "æ¿Ĵåį±": 6184,
      "åı¯æĮģç»Ńå»ºçŃĳ": 6185,
      "åıĺåĮĸçļĦ": 6186,
      "åľ°çĲĥçĶŁåĳ½": 6187,
      "è¿ĲåĬ¨åģ¥èº«": 6188,
      "å¤ĦçĲĨèĥ½åĬĽ": 6189,
      "å±±å·Ŀ": 6190,
      "è¯Ŀè¯Ń": 6191,
      "å®¢æĪ·": 6192,
      "ä¿ĿéļľäºĨ": 6193,
      "çĽĳæİ§": 6194,
      "è§£åĨ³å¤įæĿĤ": 6195,
      "è§£åĨ³éĹ®é¢ĺ": 6196,
      "æĶ¹åıĺçĿĢ": 6197,
      "ç¼ºå¤±": 6198,
      "å¸®åĬ©äººä»¬åľ¨": 6199,
      "æĮ¥æ´Ĵ": 6200,
      "çº¯åĩĢ": 6201,
      "åĬ¿ç¾¤ä½ĵ": 6202,
      "èĮ¶åı¶": 6203,
      "ä¸°æĶ¶": 6204,
      "éĢģè¾¾": 6205,
      "æĪĳä»¬åľ¨å¤įæĿĤ": 6206,
      "çļĦæ²Ł": 6207,
      "å¼±åĬ¿ç¾¤ä½ĵ": 6208,
      "æķ´ä¸ªè¿ĩç¨ĭ": 6209,
      "è´ŁéĿ¢": 6210,
      "ç¡¬ç§ĳå¹»": 6211,
      "åĨ·åį´": 6212,
      "ç«Ļåľ¨": 6213,
      "å°Ĭéĩįä¸İ": 6214,
      "çļĦæ¸©åº¦": 6215,
      "çļĦæ¸©æļĸ": 6216,
      "å²¸çº¿": 6217,
      "éĺ»ç¢į": 6218,
      "å°ĺå°ģ": 6219,
      "éĿĴå°ĳå¹´": 6220,
      "èį£èĢĢ": 6221,
      "åŀĥåľ¾åĪĨç±»": 6222,
      "ç©¿æ¢Ńäºİ": 6223,
      "éĺħè¯»ä¹łæĥ¯": 6224,
      "æģ¶åĮĸ": 6225,
      "ĠéĩıåŃĲçºłç¼ł": 6226,
      "çĽĽå®´": 6227,
      "çĸ²åĢ¦": 6228,
      "åĳ¨æľŁæĢ§": 6229,
      "éŃĶæľ¯": 6230,
      "åĳĬè¯ī": 6231,
      "å¹³éĿĻä¸İ": 6232,
      "åĤ¬çĶŁ": 6233,
      "æģ°ä¼¼": 6234,
      "åĭĥåĭĥ": 6235,
      "çļĦç®Ģ": 6236,
      "çļĦç®Ĺ": 6237,
      "æµĩæ°´": 6238,
      "åıłåĬłæĢģ": 6239,
      "æĸĳæĸĵ": 6240,
      "å¤§æ°Ķä¸Ń": 6241,
      "æīĭæľ¯æľºåĻ¨äºº": 6242,
      "äººéĻħåħ³ç³»": 6243,
      "Ġæķ°æį®ç§ĳåŃ¦": 6244,
      "åĪĨæķ£çļĦ": 6245,
      "åıĳæĮ¥çĿĢä¸įåı¯æĽ¿ä»£": 6246,
      "æ±ŁåįĹ": 6247,
      "éĹ²ç½®": 6248,
      "çº¢èī²æĺŁçĲĥ": 6249,
      "åĭĩæ°Ķ": 6250,
      "è®©è§Ĥä¼Ĺåľ¨": 6251,
      "çŀ¬æģ¯": 6252,
      "æľĪçĲĥè®¡åĪĴ": 6253,
      "çļĦæİ¢ç´¢": 6254,
      "çļĦç´§": 6255,
      "è¿Ńä»£": 6256,
      "æµĳæµĬ": 6257,
      "èĵ¬åĭĥ": 6258,
      "åĪĨå¸ĥå¼ıè´¦æľ¬æĬĢæľ¯": 6259,
      "èĶļèĵĿ": 6260,
      "ç¿»è½¬è¯¾åłĤ": 6261,
      "å¤§è¯Ńè¨Ģæ¨¡åŀĭ": 6262,
      "an": 6263,
      "Ġçľĭ": 6264,
      "ĠéĢ»è¾ĳ": 6265,
      "Ġåħĥ": 6266,
      "Ġè¶³": 6267,
      "Ġæĥħç»ª": 6268,
      "Ġå¤§æķ°æį®": 6269,
      "Ġå¹¸ç¦ı": 6270,
      "Ġåĩłä½ķ": 6271,
      "Ġæ¤įçī©": 6272,
      "Ġéĺ¿": 6273,
      "Ġçī©èģĶç½ĳ": 6274,
      "Ġç¥ŀç»ıç½ĳç»ľ": 6275,
      "ĠåĨľèį¯": 6276,
      "Ġæ¦Ĥçİĩ": 6277,
      "Ġè¡ĮæĺŁ": 6278,
      "ĠæľºåĻ¨åŃ¦ä¹ł": 6279,
      "Ġåħ¬åħ±åį«çĶŁ": 6280,
      "ĠæŃ»äº¡": 6281,
      "ĠèĩªçĦ¶è¯Ńè¨Ģå¤ĦçĲĨ": 6282,
      "Ġç»ĺçĶ»": 6283,
      "Ġå¤ªéĺ³èĥ½": 6284,
      "Ġæļ´éĽ¨": 6285,
      "Ġç¯®": 6286,
      "Ġè¿ĲåĬ¨åĳĺ": 6287,
      "ĠæĹħè¡Į": 6288,
      "Ġåľ°éľĩ": 6289,
      "Ġæĸ¹è¨Ģ": 6290,
      "Ġäº¤éĢļæĭ¥åłµ": 6291,
      "Ġç²®é£Łå®īåħ¨": 6292,
      "Ġé©¬æĭīæĿ¾": 6293,
      "Ġå¾®çĶŁçī©": 6294,
      "Ġè¡°èĢģ": 6295,
      "ĠåĤ¬åĮĸ": 6296,
      "ĠåĨ¥æĥ³": 6297,
      "ĠåĮĸåŃ¦åıįåºĶ": 6298,
      "Ġä¼łç»ŁæĸĩåĮĸ": 6299,
      "ĠæĳĦå½±": 6300,
      "Ġæī¹åĪ¤æĢ§æĢĿç»´": 6301,
      "Ġå®¶å±ħ": 6302,
      "ĠæĿĲæĸĻç§ĳåŃ¦": 6303,
      "Ġä¸´åºĬè¯ķéªĮ": 6304,
      "Ġéĵ¶æ²³ç³»": 6305,
      "ĠæľĽè¿ľéķľ": 6306,
      "Ġæħ¢æĢ§çĹħ": 6307,
      "Ġæĵįä½ľç³»ç»Ł": 6308,
      "ĠèĩªæĪĳè®¤çŁ¥": 6309,
      "ĠéĽķå¡ĳ": 6310,
      "Ġé«ĺåĪĨåŃĲ": 6311,
      "Ġé»ĳæ´ŀ": 6312,
      "Ġç¤¾äº¤åªĴä½ĵ": 6313,
      "ĠåĪĨå½¢åĩłä½ķ": 6314,
      "Ġè®¡ç®Ĺæľºè§Ĩè§ī": 6315,
      "Ġå¸Ĥåľºç»ıæµİ": 6316,
      "Ġæīĭå·¥èīº": 6317,
      "ĠåĪĨæŀĲåĮĸåŃ¦": 6318,
      "Ġäº¬åī§": 6319,
      "ĠåĪĽä¸ļç²¾ç¥ŀ": 6320,
      "ĠéĢļè´§èĨ¨èĥĢ": 6321,
      "Ġæ°ĳéĹ´": 6322,
      "Ġç©ºéĹ´ç«Ļ": 6323,
      "ĠåĨ³çŃĸå¿ĥçĲĨ": 6324,
      "Ġæ¸¸æ³³": 6325,
      "Ġåħ¬åħ±äº¤éĢļ": 6326,
      "Ġç´łè´¨æķĻèĤ²": 6327,
      "Ġä¹¦æ³ķ": 6328,
      "Ġç¾¤ä½ĵå¿ĥçĲĨ": 6329,
      "ĠåĪĨå¸ĥå¼ıç³»ç»Ł": 6330,
      "Ġå¿ĹæĦ¿æľįåĬ¡": 6331,
      "ĠæļĹçī©è´¨": 6332,
      "Ġæ¶Īè´¹å¿ĥçĲĨ": 6333,
      "Ġè½¯ä»¶å·¥ç¨ĭ": 6334,
      "Ġç¼ĸç¨ĭè¯Ńè¨Ģ": 6335,
      "ĠèĤ¡ç¥¨æĬķèµĦ": 6336,
      "Ġå¥¥è¿Ĳä¼ļ": 6337,
      "Ġæ°´æ±¡æŁĵ": 6338,
      "Ġç»ıæµİåĳ¨æľŁ": 6339,
      "Ġçĳľä¼½": 6340,
      "ĠæĸĩåŃ¦åĪĽä½ľ": 6341,
      "Ġè¿ĽåĮĸè®º": 6342,
      "ĠçĲĨè´¢è§ĦåĪĴ": 6343,
      "Ġåŀĥåľ¾åĪĨç±»": 6344,
      "çļĦä¾Ŀèµĸ": 6345,
      "çļĦå¹»": 6346,
      "çļĦåŃ©åŃĲ": 6347,
      "çļĦå®Įæķ´": 6348,
      "çļĦç»Ŀå¯¹": 6349,
      "å®¿": 6350,
      "ä»Ģ": 6351,
      "æľĹ": 6352,
      "åŃĶ": 6353,
      "ä¸İèĩªçĶ±": 6354,
      "ä¸İæĢĿç»´": 6355,
      "åľ¨ä¸Ģ": 6356,
      "åľ¨ä¸į": 6357,
      "åľ¨éĢ»è¾ĳ": 6358,
      "ä¸Ģåı°": 6359,
      "å°¼": 6360,
      "èĥ½èĢĹ": 6361,
      "åºĨ": 6362,
      "è¯¸": 6363,
      "æĬ¢": 6364,
      "åĨł": 6365,
      "æİ©": 6366,
      "å®ĥåħ³æ³¨": 6367,
      "å®ĥæīĵçł´äºĨ": 6368,
      "çİ°åľ¨": 6369,
      "è¿ĻéĩĮ": 6370,
      "è¿Ļæł·": 6371,
      "è´ª": 6372,
      "æĢ§ä½ıæĪ¿": 6373,
      "èĩªçĽĳçĿ£": 6374,
      "è½°": 6375,
      "è®©éĿĻæŃ¢": 6376,
      "æĹ¶æľŁ": 6377,
      "åĳµ": 6378,
      "æ´Ĺ": 6379,
      "åľ°è´¨": 6380,
      "æľºå¯Ĩ": 6381,
      "å°Ĩä¼łç»Ł": 6382,
      "å°Ĩæ³¨æĦıåĬĽ": 6383,
      "æ²ĥ": 6384,
      "ä¼ļå¯¼èĩ´": 6385,
      "åĵ¥": 6386,
      "æľ¬æł¼": 6387,
      "ä¸Ĭå¸Ĥ": 6388,
      "æº¢": 6389,
      "äººç±»ç¦ıç¥ī": 6390,
      "ç«¹": 6391,
      "å¹³åĴĮ": 6392,
      "å»ºæŀĦ": 6393,
      "æ·±åıĹ": 6394,
      "æ³ķåĵ²åŃ¦": 6395,
      "åħ¶çĭ¬çī¹çļĦ": 6396,
      "åĪ¶çº¦": 6397,
      "æĬĢæľ¯ä¸İ": 6398,
      "æĬĢæľ¯æīĭæ®µ": 6399,
      "åħīçļĦ": 6400,
      "æ¶¡": 6401,
      "æ¶¸": 6402,
      "å¤įä¸ĢæĹ¥": 6403,
      "ç¤¾ä¼ļç»ĵæŀĦ": 6404,
      "ç¤¾ä¼ļåħ¬å¹³": 6405,
      "å°±åĥıä¸º": 6406,
      "å¯¼çĶµ": 6407,
      "å®¶ä¸ĩ": 6408,
      "æ¯ıåıª": 6409,
      "å¤ļæķ°": 6410,
      "æ¸ħçĲĨ": 6411,
      "èĬĤçľģ": 6412,
      "ç®ĹåĬĽ": 6413,
      "çĤ¹åĩ»": 6414,
      "å¦ĤåĲĮä¸Ģåľº": 6415,
      "ç©¶ç«Ł": 6416,
      "å½ĵä½ł": 6417,
      "åīįçļĦ": 6418,
      "æĹ¢æ»¡è¶³": 6419,
      "æľªç»ı": 6420,
      "éħ¿": 6421,
      "è¡¨è±¡": 6422,
      "æıŃç¤ºçĶŁåĳ½": 6423,
      "åįķä¸ª": 6424,
      "å¤įæĿĤæĢ§": 6425,
      "å¥½æ¯Ķä¸º": 6426,
      "æĹ¥å¤įä¸ĢæĹ¥": 6427,
      "æľĢç»Īå°Ĩ": 6428,
      "èĢģå¸Ī": 6429,
      "åº·å¤į": 6430,
      "æŃ¥éª¤": 6431,
      "æľīæķĪçļĦ": 6432,
      "è¶ħäººç±»": 6433,
      "é«ĺæķĪåľ°": 6434,
      "æŃ¤åĪ»": 6435,
      "è¯ģå®ŀ": 6436,
      "æĪĺäºī": 6437,
      "æĳ§": 6438,
      "éħįéĢģ": 6439,
      "åĵ²æĢĿ": 6440,
      "ç¨³ç¨³": 6441,
      "ä¹¦é¡µ": 6442,
      "éĺ²æĬ¤": 6443,
      "çļĦæ··": 6444,
      "éĽĨä¸Ń": 6445,
      "éŃĦ": 6446,
      "ç´łåħ»": 6447,
      "ä¸ĩåıĺ": 6448,
      "æĿĥéĩį": 6449,
      "æľįåĬ¡åĻ¨": 6450,
      "åºķçº¿": 6451,
      "çŁ¥è¯ĨåĽ¾è°±": 6452,
      "æķ°åŃ¦å¯¹è±¡": 6453,
      "å®ĥä»¬éĢļè¿ĩ": 6454,
      "å¼ĤæĢ§": 6455,
      "ä¼ĺåĮĸèµĦæºĲéħįç½®": 6456,
      "ç©¿ä¸Ĭ": 6457,
      "ç©¿æĪ´": 6458,
      "æ¤įæł¹äºİ": 6459,
      "ä¸įåı¯é¢Ħæµĭ": 6460,
      "åĮĸåŃ¦éĶ®": 6461,
      "åĮĸåŃ¦æĢ§è´¨": 6462,
      "èĪªæµ·": 6463,
      "çħ§çīĩ": 6464,
      "ç§ĳæĬĢä¸İ": 6465,
      "è¯Ĺç¯ĩ": 6466,
      "ç¹ģåįİ": 6467,
      "åĨĻæĦı": 6468,
      "éĩıåŃĲå¯Ĩçłģ": 6469,
      "åįĥéĩĮ": 6470,
      "åįĥå®¶ä¸ĩ": 6471,
      "é¢Ħæµĭè¯¯å·®": 6472,
      "ç¨³å®ļæĢ§": 6473,
      "æıĲä¾ĽäºĨéĩįè¦ģ": 6474,
      "å¹²æ¶ī": 6475,
      "å¹²æ¶¸": 6476,
      "æĦŁåıĹè´¨": 6477,
      "å®ĪæĬ¤è¿Ļçīĩ": 6478,
      "çļĦæĥ³": 6479,
      "æĸ½èĤ¥": 6480,
      "å¥ĩè¿¹": 6481,
      "çĶµåŃĲè®¾å¤ĩ": 6482,
      "æĴŃç§į": 6483,
      "è¡Ģåİĭ": 6484,
      "æĢĿèĢĥä¸İ": 6485,
      "æ¶Įåħ¥": 6486,
      "åľ¨äºİåħ¶": 6487,
      "æĪ¿åŃĲ": 6488,
      "æĭīåĽ¾": 6489,
      "å¾ªçİ¯åĪ©çĶ¨": 6490,
      "è¯¥æĬĢæľ¯": 6491,
      "æĪĲéķ¿çļĦ": 6492,
      "é£ŀè¡Į": 6493,
      "è§ĦåĪĴä¸İ": 6494,
      "Ġåľ¨çº¿æķĻèĤ²": 6495,
      "çļĦæĦıè¯Ĩ": 6496,
      "çĩĥçĥ§": 6497,
      "ç©ºæ°Ķä¸Ń": 6498,
      "çľŁçĲĨçļĦ": 6499,
      "èĨľ": 6500,
      "åºĵåŃĺ": 6501,
      "çĴĢçĴ¨": 6502,
      "çļĦæİ¥": 6503,
      "çº¸ä¸Ĭ": 6504,
      "çļĦæ¸©æŁĶ": 6505,
      "è§£éĩĬäºĨ": 6506,
      "åĴĮè°Ĳåħ±çĶŁçļĦ": 6507,
      "èĢķåľ°": 6508,
      "æ·±å¤ĦçļĦ": 6509,
      "çļĦçŁĽçĽ¾": 6510,
      "çĻ¾å§ĵ": 6511,
      "å°±åĥıä¸Ģä½įç²¾": 6512,
      "å¤§éĩıéĩįå¤į": 6513,
      "ç²¾å¿ĥç¼ĸæİĴ": 6514,
      "ä¼ĺè´¨æķĻèĤ²èµĦæºĲ": 6515,
      "ĠèĢģé¾ĦåĮĸç¤¾ä¼ļ": 6516,
      "Ġæķ°åŃĹè´§å¸ģ": 6517,
      "Ġæķ°åŃĹé¸¿æ²Ł": 6518,
      "åı¸æľº": 6519,
      "ĠäººéĻħäº¤å¾Ģ": 6520,
      "Ġäººåı£æµģåĬ¨": 6521,
      "æĿ¡ä»¶ä¸ĭ": 6522,
      "çł´ç¢İçļĦ": 6523,
      "åĿĲåľ¨": 6524,
      "ç¬¬äºĮ": 6525,
      "Ġç½ĳç»ľå®īåħ¨": 6526,
      "Ġæķ°åŃ¦å»ºæ¨¡": 6527,
      "çļĦæµ·æ´ĭ": 6528,
      "ä¸ľæĸ¹åĵ²åŃ¦": 6529,
      "Ġçİ°ä»£åĨľä¸ļ": 6530,
      "åĻªå£°": 6531,
      "Ġæķ°æį®åºĵ": 6532,
      "ĠåŁİå¸ĤåĮĸ": 6533,
      "ĠåŁİå¸Ĥè§ĦåĪĴ": 6534,
      "å¿ĺäºĨ": 6535,
      "çļĦæ¸ħæ´ģ": 6536,
      "Ġç²¾åĩĨåĨľä¸ļ": 6537,
      "Ġç»¿èī²åĮĸåŃ¦": 6538,
      "Ġç»¿èī²å»ºçŃĳ": 6539,
      "ĠçĶµåĮĸåŃ¦": 6540,
      "è¯Ńä¹īç½ĳ": 6541,
      "ĠæĻºæħ§åŁİå¸Ĥ": 6542,
      "æĳ©å°Ķ": 6543,
      "ĠèĩªçĶ±æĦıå¿Ĺ": 6544,
      "éĥģçĹĩ": 6545,
      "Ġä¸ŃåĮ»åħ»çĶŁ": 6546,
      "ĠæľīæľºåĨľä¸ļ": 6547,
      "ĠæľīæľºåĲĪæĪĲ": 6548,
      "Ġä½ĵèĤ²ç²¾ç¥ŀ": 6549,
      "ĠèĬĤæĹ¥ä¹łä¿Ĺ": 6550,
      "ä¸²èģĶ": 6551,
      "åĨ°åĨ·çļĦ": 6552,
      "Ġçģ«æĺŁæİ¢æµĭ": 6553,
      "æĲºå¸¦": 6554,
      "Ġå·¥ä¸ļè®¾è®¡": 6555,
      "Ġæµģè¡ĮçĹħ": 6556,
      "åĭ¾åĭĴåĩº": 6557,
      "Ġåģ¥åº·é¥®é£Ł": 6558,
      "Ġåħ¨çĲĥåĮĸ": 6559,
      "Ġä¼¦çĲĨéģĵå¾·": 6560,
      "Ġå»ºçŃĳè®¾è®¡": 6561,
      "ĠèĮ¶æĸĩåĮĸ": 6562,
      "ĠéŁ³ä¹Ĳæ¬£èµı": 6563,
      "ĠæĪıåī§è¡¨æ¼Ķ": 6564,
      "ĠèĴĻåı°æ¢ŃåĪ©æķĻèĤ²": 6565,
      "ĠåĬ¨çī©è¡Įä¸º": 6566,
      "ä¸Ģåı£æ°Ķ": 6567,
      "æĲľç´¢å¼ķæĵİ": 6568,
      "Ġåı¤è¯Ĺè¯į": 6569,
      "ĠåĽŃèīº": 6570,
      "Ġäºĳè®¡ç®Ĺ": 6571,
      "ç¿ħèĨĢ": 6572,
      "Ġç¾İåŃ¦æĢĿèĢĥ": 6573,
      "çĽ´æĴŃå¸¦è´§": 6574,
      "å²©çŁ³": 6575,
      "æŁıæĭīåĽ¾": 6576,
      "Ġä¹Ĵä¹ĵ": 6577,
      "å¾·æĢ§ä¼¦çĲĨ": 6578,
      "Ġç¤¾åĮºæ²»çĲĨ": 6579,
      "ĠæĬĳéĥģçĹĩ": 6580,
      "çļĦæ²ŁéĢļ": 6581,
      "Ġè¡ĮæĺŁç§ĳåŃ¦": 6582,
      "Ġå®¶å±ħæķ´çĲĨ": 6583,
      "Ġæ°ĳéĹ´æķħäºĭ": 6584,
      "åįĥå®¶ä¸ĩæĪ·": 6585,
      "¡çĮ®": 6586,
      "ªçĶŁ": 6587,
      "³é£Ł": 6588,
      "ĠC": 6589,
      "Ġè§£æŀĦ": 6590,
      "Ġåı¯åĨįçĶŁèĥ½æºĲ": 6591,
      "Ġé£İèĥ½": 6592,
      "Ġä¿¡æģ¯è¿ĩè½½": 6593,
      "Ġç©ºæ°Ķæ±¡æŁĵ": 6594,
      "ĠæĻ¶ä½ĵç»ĵæŀĦ": 6595,
      "Ġç²ĴåŃĲçī©çĲĨ": 6596,
      "ĠæľĪçĲĥè®¡åĪĴ": 6597,
      "çļĦå·¥ä½ľ": 6598,
      "çļĦå¾®å°ı": 6599,
      "çļĦæĹĭå¾ĭ": 6600,
      "çļĦè¿Ĳä½ľ": 6601,
      "çļĦåīįæıĲä¸ĭ": 6602,
      "åħ°": 6603,
      "çĶ³": 6604,
      "ä¸İç»ĵæŀĦ": 6605,
      "ä¸İåºĶçĶ¨": 6606,
      "æĺ¯çĶ¨äºİ": 6607,
      "åľ¨æĹł": 6608,
      "åľ¨éĿĻè°§": 6609,
      "è§Ī": 6610,
      "èĥİ": 6611,
      "ä¸Ģä»¶": 6612,
      "ä¸Ģè¾¹": 6613,
      "ä¸Ģæŀļ": 6614,
      "ä¸ŃæĮģç»Ń": 6615,
      "ä¸įåĪ°": 6616,
      "ä¸įåħ¬": 6617,
      "äºĨä¸Ģä¸ª": 6618,
      "éĢļéģĵ": 6619,
      "çļĦæ¦Ĥ": 6620,
      "ä¸ºè½½ä½ĵ": 6621,
      "åĬ¨çļĦ": 6622,
      "æī¬": 6623,
      "å®ĥä¸įåĨį": 6624,
      "çİ°æľī": 6625,
      "éĢļè¿ĩçĲĨæĢ§": 6626,
      "éĢļè¿ĩèŀįåĲĪ": 6627,
      "éĢļè¿ĩç²¾å¿ĥ": 6628,
      "è´¡çĮ®": 6629,
      "éĿ¶": 6630,
      "æı´": 6631,
      "è®©æ¯ıä¸ªäººéĥ½èĥ½": 6632,
      "çļĦç¦": 6633,
      "çļĦçĻ": 6634,
      "æ´²": 6635,
      "åıĳèĬ½": 6636,
      "å¯¹åºĶ": 6637,
      "å¯¹çĶŁæ´»": 6638,
      "ç©·": 6639,
      "å¥ĭ": 6640,
      "å¹¶åŃĺ": 6641,
      "å¹¶éĻįä½İ": 6642,
      "æ¸łéģĵ": 6643,
      "çº¬": 6644,
      "è°Ĭ": 6645,
      "æ·ĭ": 6646,
      "ä¼ļè®®": 6647,
      "åĩºåı£": 6648,
      "æĽ´éĢļè¿ĩ": 6649,
      "æĽ´æİ¨åĬ¨äºĨ": 6650,
      "æĸ¹ç¨ĭ": 6651,
      "ä»£è°¢": 6652,
      "æµģä¼ł": 6653,
      "åģ¿": 6654,
      "è§ĤåĲİ": 6655,
      "åº¦çļĦ": 6656,
      "æ¶Łæ¼ª": 6657,
      "åħ±åĴĮ": 6658,
      "çī¹å¼ĤæĢ§": 6659,
      "æŃ£æİ¨åĬ¨": 6660,
      "æĸĩçī©": 6661,
      "æ°´è´¨": 6662,
      "åĨħåĮĸ": 6663,
      "æľĢçŁŃ": 6664,
      "éĶĪ": 6665,
      "åĿł": 6666,
      "è°ĥéħį": 6667,
      "ä¹ĭç®Ń": 6668,
      "ä»İèĢĮæŀĦå»º": 6669,
      "çĶŁåĳ½ä¼¦çĲĨ": 6670,
      "æīĭæĮĩ": 6671,
      "çĤ¸": 6672,
      "æĪĸæĺ¯": 6673,
      "æ¸ħæĸ°": 6674,
      "å®īç¨³": 6675,
      "éĿŀæ³ķ": 6676,
      "è¿Ļä¸ĢæľºåĪ¶": 6677,
      "æ°Ķæ¸©": 6678,
      "é¡½": 6679,
      "åħ¬äº¤": 6680,
      "æĺİç¡®": 6681,
      "åıįéĿ¢": 6682,
      "åŃĹåı·": 6683,
      "ä¹Łä¼ļ": 6684,
      "ä¹Łåı¯èĥ½": 6685,
      "çĤ¹ä¸İ": 6686,
      "æ¯Ķå¦Ĥ": 6687,
      "é©°": 6688,
      "è¿ĩç¨ĭä¸ŃçļĦ": 6689,
      "éĵ¸": 6690,
      "æıŃå¼Ģ": 6691,
      "æŀĦå»ºçļĦ": 6692,
      "æĶ¾å¼ĥ": 6693,
      "çİ°ä»£çĶŁæ´»": 6694,
      "çĹħæĥħ": 6695,
      "çªĴæģ¯": 6696,
      "æŀģåħ·": 6697,
      "èĲİ": 6698,
      "èģĶéĤ¦": 6699,
      "ä»»çĶ±": 6700,
      "ä¹Ĳæīĭ": 6701,
      "ç²¾åĩĨçļĦ": 6702,
      "æ¶Īè§£": 6703,
      "æ¶ĪéĢĿ": 6704,
      "è§īéĨĴ": 6705,
      "æ¸©æĥħ": 6706,
      "æĺ¯æĮĩç³»ç»Ł": 6707,
      "æĺ¯æĮĩæĮ¥": 6708,
      "æ¯ıä¸Ģéģĵ": 6709,
      "ç»ıæµİå¢ŀéķ¿": 6710,
      "åıĪèĥ½": 6711,
      "æĳĬ": 6712,
      "å¤ĸæĺŁ": 6713,
      "çī©è´¨æĸĩåĮĸéģĹäº§": 6714,
      "èĩªçĶ±éĢīæĭ©": 6715,
      "åħ¨çĲĥåıĺæļĸ": 6716,
      "è½¬åĮĸä¸ºæľºåĻ¨": 6717,
      "ä¹¦æŀ¶": 6718,
      "ä¹¦ç¬Ķè®°": 6719,
      "é¥¼": 6720,
      "èģļéĽĨ": 6721,
      "ä¿ĿæĬ¤äºĨ": 6722,
      "ä¸ĵéĹ¨": 6723,
      "å®ĥä»¬åľ¨": 6724,
      "ç®¡çĲĨå¹¶éĿŀåįķçº¯": 6725,
      "å¯Łè§ī": 6726,
      "ä¼ĺåĮĸäºĨ": 6727,
      "ä¼ĺåĮĸéħįç½®": 6728,
      "æ¤įè¢«": 6729,
      "æ¿Ģæ´»": 6730,
      "æ¿ĢçĥĪ": 6731,
      "èĪªçº¿": 6732,
      "æĭ¥æĮ¤": 6733,
      "åĪĴåĩº": 6734,
      "åĳ¼åĲ¸éĥ½": 6735,
      "èħ¿": 6736,
      "èħķ": 6737,
      "ç´§æı¡": 6738,
      "å¹¿æ³ĽåŃĺåľ¨äºİ": 6739,
      "èµ°åĩº": 6740,
      "åºĶå¯¹çĶŁæ´»": 6741,
      "èĥ½éĩıæµģåĬ¨": 6742,
      "å¤ļæł·æĢ§çļĦ": 6743,
      "äººå·¥æĻºèĥ½æĬĢæľ¯": 6744,
      "ç®Ĺæ³ķåģıè§ģ": 6745,
      "æįķèİ·": 6746,
      "å®ĮæĪĲäºĨ": 6747,
      "çĶµåŃĲæ¸¸æĪı": 6748,
      "åľŁå£¤ä¸Ń": 6749,
      "åĽ´å¢Ļ": 6750,
      "ç¼©çŁŃ": 6751,
      "åĳ¨è¾¹": 6752,
      "è¿Ĳè¡ĮçļĦ": 6753,
      "ç¬Ķå¢¨": 6754,
      "æĹħäºº": 6755,
      "éĩĩè´Ń": 6756,
      "æľīåºıçļĦ": 6757,
      "æħ¢æħ¢": 6758,
      "èĹıçĿĢ": 6759,
      "å¹ķå¢Ļ": 6760,
      "æī¿è½½çĿĢæ·±åİļ": 6761,
      "çĶŁæĪĲåĻ¨": 6762,
      "çļĦçº¯": 6763,
      "çļĦçľ¼": 6764,
      "ç¡¬å¸ģ": 6765,
      "æ¸ħæĻ°çļĦ": 6766,
      "éĥ½èĥ½äº«æľī": 6767,
      "èĥ½æľīæķĪåĩıå°ĳ": 6768,
      "è¯ķåĽ¾çĶ¨": 6769,
      "èĨ³é£Ł": 6770,
      "ä¸¥æł¼éģµå¾ª": 6771,
      "è°±åĨĻ": 6772,
      "åģļåĩºæĽ´": 6773,
      "æł¸èģļåıĺ": 6774,
      "æ°§æ°Ķ": 6775,
      "éĩĬæĶ¾åĩº": 6776,
      "äº¿é¢ĹæģĴæĺŁ": 6777,
      "è¸©": 6778,
      "è¾¨è¯ģ": 6779,
      "å§ĭç»ĪæľįåĬ¡äºİ": 6780,
      "è®¸å¤ļ": 6781,
      "é¤Ĳæ¡Į": 6782,
      "çł´åĿıçĶŁæĢģå¹³è¡¡": 6783,
      "ç¤¾äº¤ç½ĳç»ľ": 6784,
      "åĨħå¿ĥçļĦå®ģéĿĻä¸İ": 6785,
      "æ¨¡æĭŁäººç±»": 6786,
      "åĸľæĤ¦": 6787,
      "åĲ¯åĬ¨": 6788,
      "åħ³æĢĢä¼¦çĲĨ": 6789,
      "æŃĮåī§": 6790,
      "æµĵåº¦": 6791,
      "ç¬¬ä¸ī": 6792,
      "æ¯įäº²": 6793,
      "ç´§å¯ĨçĽ¸è¿ŀ": 6794,
      "è¥¿æĸ¹ç»ĺçĶ»": 6795,
      "é¢¤åĬ¨": 6796,
      "çŃīå¤ļç§į": 6797,
      "çĽĳç®¡ç§ĳæĬĢ": 6798,
      "çļĦç¼Ŀ": 6799,
      "åĬłåī§äºĨ": 6800,
      "æļĤæĹ¶": 6801,
      "å¹½é»ĺ": 6802,
      "èļģç¾¤": 6803,
      "æĤ¬æµ®": 6804,
      "æľīå®³çī©è´¨": 6805,
      "çĲ´å¼¦": 6806,
      "æľ¬ä½ĵå·¥ç¨ĭ": 6807,
      "èĮĥå¼ıè½¬æį¢": 6808,
      "çļĦç¡¬": 6809,
      "åħ¼é¡¾": 6810,
      "åī¥èĮ§": 6811,
      "ĠèĩªçĦ¶çģ¾å®³": 6812,
      "ä¸įçŁ¥çĸ²åĢ¦": 6813,
      "éĢ¼çľŁ": 6814,
      "Ġä½ĵèĤ²äº§ä¸ļ": 6815,
      "ĠèĬĤæĹ¥ç¾İé£Ł": 6816,
      "Ġå®ĩå®Ļæİ¢ç´¢": 6817,
      "èŃ¦ç¤ºæĪĳä»¬": 6818,
      "æ²¿æµ·åŁİå¸Ĥ": 6819,
      "èĶ¬èıľ": 6820,
      "æī©æķ£æ¨¡åŀĭ": 6821,
      "Ġç»Īèº«åŃ¦ä¹ł": 6822,
      "æĪªçĦ¶ä¸įåĲĮ": 6823,
      "è¿ĿèĥĮ": 6824,
      "çļĦæºĲ": 6825,
      "æĴķè£Ĥ": 6826,
      "è¿ĶåĽŀ": 6827,
      "å»Ĭéģĵ": 6828,
      "ç»ıéªĮä¸°å¯ĮçļĦèĢģ": 6829,
      "å¼¯æĽ²": 6830,
      "æµĵç¼©äºİ": 6831,
      "çļĦæĶ¿æ²»": 6832,
      "çļĦç¬Ķè§¦": 6833,
      "ä¸Īéĩı": 6834,
      "æ·±åĲ¸ä¸Ģåı£æ°Ķ": 6835,
      "çŀ¬æģ¯ä¸ĩåıĺ": 6836,
      "Ġè¿ĲåĬ¨åĳĺè®Ńç»ĥ": 6837,
      "åĳµæĬ¤": 6838,
      "ç©¿æĪ´è®¾å¤ĩ": 6839,
      "æĳ©å°Ķå®ļå¾ĭ": 6840,
      "ĠåĽŃèīºç§įæ¤į": 6841,
      "è§ĤåĲİæĦŁ": 6842,
      "¶ä½ĵ": 6843,
      "ĠU": 6844,
      "Ġå£°": 6845,
      "ĠçĶŁæĢģå¹³è¡¡": 6846,
      "ĠçĶµæ±ł": 6847,
      "Ġå¹¸ç¦ıæĦŁ": 6848,
      "ĠéļĲç§ģä¿ĿæĬ¤": 6849,
      "Ġåģĩè®¾": 6850,
      "Ġè¾¹ç¼ĺè®¡ç®Ĺ": 6851,
      "ĠåĩĿèģļæĢģçī©çĲĨ": 6852,
      "Ġè¿ĲåĬ¨åģ¥èº«": 6853,
      "Ġç¿»è½¬è¯¾åłĤ": 6854,
      "Ħ¦": 6855,
      "çļĦé«ĺ": 6856,
      "çļĦä½ĵéªĮ": 6857,
      "çļĦåĨ³çŃĸ": 6858,
      "çļĦæĹ¥å¸¸": 6859,
      "çļĦåĬ¨æĢģ": 6860,
      "çļĦå®¡ç¾İ": 6861,
      "çļĦå®ŀéĻħ": 6862,
      "çļĦæĢ§è´¨": 6863,
      "çļĦç»ĵæŀľ": 6864,
      "çļĦåīįæ²¿": 6865,
      "çļĦå¿ħçĦ¶": 6866,
      "çļĦè¯ĹæĦı": 6867,
      "åŃªçĶŁ": 6868,
      "ä¸İå¹³è¡¡": 6869,
      "ä¸İèĩªæĪĳ": 6870,
      "ä¸İæĥħç»ª": 6871,
      "ä¸İåĪĽæĸ°": 6872,
      "ä¸İæ´»åĬĽ": 6873,
      "ä¸İå¤§æķ°æį®": 6874,
      "åľ¨çŀ¬éĹ´": 6875,
      "åľ¨çº¿": 6876,
      "åľ¨åħīå½±": 6877,
      "ä¼Ĳ": 6878,
      "ä¼ŀ": 6879,
      "çĶŁæŃ»": 6880,
      "äººäºº": 6881,
      "äººåĳĺ": 6882,
      "èĥ½åİŁçĲĨ": 6883,
      "ä¸Ńæįķæįī": 6884,
      "æĬĴ": 6885,
      "ä¸įåºĶ": 6886,
      "ä¸įå¼Ģ": 6887,
      "éĢļåĭ¤": 6888,
      "çļĦæį": 6889,
      "åĨĹ": 6890,
      "æĿ°": 6891,
      "æī£": 6892,
      "æī¶": 6893,
      "çİ°åľº": 6894,
      "éĢļè¿ĩåħ±": 6895,
      "éĢļè¿ĩæĮģç»Ń": 6896,
      "æ³¼": 6897,
      "è®©æĪĳ": 6898,
      "è®©ä¿¡æģ¯": 6899,
      "è®©åı¤èĢģ": 6900,
      "çļĦçĦ¦": 6901,
      "å¿ĥçİĩ": 6902,
      "å¿ĥèĦı": 6903,
      "åıĳè¡Į": 6904,
      "åĲĮæĢģ": 6905,
      "å¤§éĥ¨åĪĨ": 6906,
      "å¹¶åĩıå°ĳ": 6907,
      "ä½ľæģ¯": 6908,
      "ä»İæķ°æį®ä¸Ń": 6909,
      "æ·ĺ": 6910,
      "åĥıäººç±»": 6911,
      "å°ĨåİŁæľ¬": 6912,
      "æĭĽ": 6913,
      "åĵ¨": 6914,
      "åı¯ç©¿æĪ´è®¾å¤ĩ": 6915,
      "æ±¤": 6916,
      "æĽ´åľ¨äºİ": 6917,
      "äººç±»çļĦ": 6918,
      "å·¥ç»ıæµİ": 6919,
      "æµģéĢļ": 6920,
      "æ·±æ¸Ĭ": 6921,
      "æ³ķåĽ½": 6922,
      "åĪ¶ä½ľ": 6923,
      "ä¸įä»ħæıĲåįĩäºĨ": 6924,
      "æĬĢæľ¯åĪĽæĸ°": 6925,
      "æĬĢæľ¯è¿ĽæŃ¥": 6926,
      "è½¬è´¦": 6927,
      "æ¶©": 6928,
      "çĸ¾": 6929,
      "èº¯": 6930,
      "çĶµæ¢¯": 6931,
      "çŃīå¤įæĿĤ": 6932,
      "æĦıåĽ¾": 6933,
      "äº¤æĽ¿": 6934,
      "ä¸ĭæĿ¥": 6935,
      "ç»ĵæĻ¶": 6936,
      "ç¤¾ä¼ļæ´¾": 6937,
      "äº§çī©": 6938,
      "ä¹ĭéģĵ": 6939,
      "çĶŁåĳ½çİ°è±¡": 6940,
      "æ¯ıç§į": 6941,
      "å£¶": 6942,
      "è¿Ļç§įæľºåĪ¶": 6943,
      "è¿Ļç§įç²¾ç¥ŀ": 6944,
      "ç³»ç»ŁåĮĸ": 6945,
      "ç³»ç»ŁæĢ§": 6946,
      "é£İåĳ³": 6947,
      "åŀĦ": 6948,
      "åĽ¾è®º": 6949,
      "è¿Ļä¸Ģçİ°è±¡": 6950,
      "å¯Ĩåº¦": 6951,
      "åħ¬å¼Ģ": 6952,
      "ç¥ŀè¯Ŀ": 6953,
      "ç¥ŀåľ£": 6954,
      "æµ·åŁŁ": 6955,
      "æµ·å²¸çº¿": 6956,
      "è¢«åĽ°": 6957,
      "æ¯Ķå¯¹": 6958,
      "æ¯Ķçī¹": 6959,
      "åīįæĸ¹": 6960,
      "éħµ": 6961,
      "èµ·èĪŀ": 6962,
      "çĽ´éĿ¢": 6963,
      "æ¡¶": 6964,
      "æŀģåº¦": 6965,
      "åĨľæĿĳ": 6966,
      "éĤ£æĺ¯": 6967,
      "éĤ£ç§į": 6968,
      "æ³¨å®ļ": 6969,
      "åħ»èĢģ": 6970,
      "æľĢç»Īå¯¼èĩ´": 6971,
      "èĤ²ç§į": 6972,
      "æĸĩåĮĸçļĦ": 6973,
      "ä¹Ĳè°±": 6974,
      "åģ¥åº·ç®¡çĲĨ": 6975,
      "æ¶ĪåĮĸ": 6976,
      "åıĸä¹ĭä¸į": 6977,
      "åĪ©çĶ¨çī©èģĶç½ĳ": 6978,
      "é«ĺæķĪè¿Ĳè½¬": 6979,
      "å¿µå¤´": 6980,
      "å¿µåģļ": 6981,
      "æŃ¤ç±»": 6982,
      "åĬŁèĥ½åıĬåħ¶": 6983,
      "èĩªçĶ±ç©¿æ¢Ń": 6984,
      "ä¸»ä¹īæĺ¯": 6985,
      "ä¸»ä¹īå¥½æ¯Ķ": 6986,
      "èĥ½åĬĽçļĦ": 6987,
      "æĺ¾çİ°": 6988,
      "æĺ¾ç¤º": 6989,
      "æĹ¶éĹ´åĨħ": 6990,
      "ä¿®åħ»": 6991,
      "éĢĤåĲĪ": 6992,
      "åİĨåı²æķħäºĭ": 6993,
      "çļĦæł¸å¿ĥåŁºç¡Ģ": 6994,
      "å½¢å¼ıä¸»ä¹ī": 6995,
      "å®ĪæģĴ": 6996,
      "çĥŃæĥħ": 6997,
      "è§¦åĬ¨": 6998,
      "æİ¢ç´¢æľªçŁ¥": 6999,
      "çĪ·": 7000,
      "å°±åĥıä¸Ģæľ¬": 7001,
      "åŁºåĽłç»Ħ": 7002,
      "éķľåĥı": 7003,
      "ç¹ģå¤į": 7004,
      "åĮħè£ħ": 7005,
      "ä¿ĿéļľæĢ§ä½ıæĪ¿": 7006,
      "åĸĦæģ¶": 7007,
      "çĽ¸äºĴä¾ĿåŃĺ": 7008,
      "å·¨å¤§èĥ½éĩı": 7009,
      "çļĦæĻ¶ä½ĵ": 7010,
      "é¢Ħæµĭç¼ĸçłģ": 7011,
      "åĮ»çĸĹèµĦæºĲ": 7012,
      "åĽ¢ç»ĵ": 7013,
      "å·¥ç¨ĭå¸Ī": 7014,
      "äºĴåĬ¨ä¸Ń": 7015,
      "åħħè¶³": 7016,
      "æĬ½ä¸Ŀ": 7017,
      "æīįèĥ½åľ¨": 7018,
      "æĬµæ¶Ī": 7019,
      "éĩįæĸ°å®¡è§Ĩ": 7020,
      "ä»ĬæĹ¥": 7021,
      "ç§»æ¤į": 7022,
      "å½Ĵä½į": 7023,
      "æĬķç¯®": 7024,
      "çļĦæĥħèĬĤ": 7025,
      "æŃ»è®°": 7026,
      "è¯¥åŃ¦ç§ĳ": 7027,
      "å®Įç¾İèŀįåĲĪ": 7028,
      "å°±åĥıç»Ļåľ°çĲĥ": 7029,
      "çŃīé¢ĨåŁŁå±ķçİ°åĩº": 7030,
      "éĥ½æĺ¯çĭ¬çī¹çļĦ": 7031,
      "å¸ĤåľºæľºåĪ¶": 7032,
      "å¥Ķæµģ": 7033,
      "èĩªä¸»åŃ¦ä¹ł": 7034,
      "èĪ¹åıª": 7035,
      "åĨ·æ¼ł": 7036,
      "è´¢åĬ¡": 7037,
      "ä»įèĥ½": 7038,
      "ä¼´éļıçĿĢ": 7039,
      "æ¹Ľ": 7040,
      "å¤§å¹ħéĻįä½İäºĨ": 7041,
      "éĢĢèĢķ": 7042,
      "æµ¸éĢı": 7043,
      "æĶ¯æĴĳçĿĢ": 7044,
      "å¯»æī¾å¹³è¡¡": 7045,
      "çĶŁæľºåĭĥåĭĥ": 7046,
      "åį«æĺŁ": 7047,
      "åĴĮè°Ĳåħ±å¤Ħ": 7048,
      "è¾¨åĪ«": 7049,
      "æīİæł¹": 7050,
      "åĸľçĪ±": 7051,
      "æ¶µçĽĸäºĨä»İ": 7052,
      "ä¸ºäººç±»æıĲä¾Ľ": 7053,
      "å¦ĤåĲĮåľ¨è¿·éĽ¾ä¸Ń": 7054,
      "ĠéĩıåŃĲè®¡ç®Ĺ": 7055,
      "ç¼ĿéļĻ": 7056,
      "æĺ¥èĬĤ": 7057,
      "çļĦç¥ŀç§ĺ": 7058,
      "ä½ľèĢħçĶµå½±": 7059,
      "æ··ä¹±çļĦ": 7060,
      "è¯¾åłĤæĹ¶éĹ´": 7061,
      "éĶĢåĶ®": 7062,
      "åģ¶çĦ¶": 7063,
      "çļĦç¾İåŃ¦": 7064,
      "çİ©å®¶åľ¨": 7065,
      "åį³åħ´è¡¨æ¼Ķ": 7066,
      "èĤ¢ä½ĵè¯Ńè¨Ģ": 7067,
      "ç«ŀäºīåĬĽ": 7068,
      "éĻĪè¿°": 7069,
      "èĲ¥éĢłåĩº": 7070,
      "æļ´éĽ¨ä¸Ń": 7071,
      "çļĦé£İæĻ¯": 7072,
      "åıĳæĮ¥çĿĢåħ³éĶ®ä½ľçĶ¨": 7073,
      "çļĦå·¨åŀĭ": 7074,
      "æĺ¯ä¸ŃåĽ½ä¼łç»Ł": 7075,
      "çª¥æİ¢": 7076,
      "çļĦå¾®å¦Ļ": 7077,
      "æĹģè§ĤèĢħ": 7078,
      "çļĦç¡®": 7079,
      "éĿĻé»ĺä¸Ń": 7080,
      "åĶ±å¿µåģļ": 7081,
      "åİ»ä¸Ńå¿ĥåĮĸéĩĳèŀį": 7082,
      "èķ´åĲ«çĿĢ": 7083,
      "çļĦæĭ¼": 7084,
      "éī´èµı": 7085,
      "è¨Ģè¯Ńè¡Įä¸º": 7086,
      "åħīä¼ıæĿ¿": 7087,
      "Ġä¸ŃåĮ»èį¯": 7088,
      "è¿Ļé¡¹è¿ĲåĬ¨ä¸įä»ħèĢĥéªĮ": 7089,
      "Ġè¯»ä¹¦ç¬Ķè®°": 7090,
      "çļĦæ²īæµ¸": 7091,
      "æĶ¿æ²»åĵ²åŃ¦": 7092,
      "Ġçĸ«èĭĹçłĶåıĳ": 7093,
      "èĬĤèĥ½åĩıæİĴ": 7094,
      "åĴ¬åĲĪ": 7095,
      "è·ĮåĢĴ": 7096,
      "æķ°åįģäº¿": 7097,
      "çĶµåĬ¨æ±½è½¦": 7098,
      "èĶĵå»¶": 7099,
      "åħĭéļĨæĬĢæľ¯": 7100,
      "çĶŁçī©åĪ¶èį¯": 7101,
      "å¿ĥèĤºåĬŁèĥ½": 7102,
      "åīĬå¼±": 7103,
      "æĪ´æ£®çĲĥ": 7104,
      "çļĦæī§çĿĢ": 7105,
      "è®¢åįķ": 7106,
      "ĠéĽķå¡ĳèīºæľ¯": 7107,
      "æľ¬æł¼æİ¨çĲĨ": 7108,
      "ç¤¾ä¼ļæ´¾æİ¨çĲĨ": 7109,
      "åıĸä¹ĭä¸įå°½": 7110,
      "æĬ½ä¸Ŀåī¥èĮ§": 7111,
      "åĶ±å¿µåģļæīĵ": 7112,
      "mer": 7113,
      "åĹ": 7114,
      "è¤": 7115,
      "ĠåŃĺåľ¨": 7116,
      "Ġå¹³åı°": 7117,
      "ĠèĲ¥åħ»": 7118,
      "ĠåºıåĪĹ": 7119,
      "Ġè®¤çŁ¥åģıå·®": 7120,
      "çļĦä¼łç»Ł": 7121,
      "çļĦçī©è´¨": 7122,
      "çļĦæľºåĪ¶": 7123,
      "çļĦéĹ®é¢ĺ": 7124,
      "çļĦéĽĨä½ĵ": 7125,
      "çļĦåĪĽéĢłæĢ§": 7126,
      "äº¦": 7127,
      "è¿¸": 7128,
      "ç»³": 7129,
      "ä¸İç§ĳåŃ¦": 7130,
      "ä¸İèµĦæºĲ": 7131,
      "ä¸İåĪĨæŀĲ": 7132,
      "ä¸İäº§ä¸ļ": 7133,
      "ä¸İè¡ĮåĬ¨": 7134,
      "ä¸İå¤ĸéĥ¨": 7135,
      "æĹº": 7136,
      "æĺ¯æ°ĳæĹı": 7137,
      "åľ¨èĩªçĦ¶": 7138,
      "åľ¨å¹³åĩ¡": 7139,
      "æĸľ": 7140,
      "åĮ¿": 7141,
      "è¯¡": 7142,
      "è¿ĩéĩı": 7143,
      "ä¸įå¾Ĺ": 7144,
      "åŃ¦æł¡": 7145,
      "éĢļçĶ¨": 7146,
      "çļĦæ®": 7147,
      "åĩ¶": 7148,
      "æİł": 7149,
      "å®ĥå¼ķå¯¼": 7150,
      "éĢļè¿ĩå°Ĩ": 7151,
      "éĢļè¿ĩé«ĺ": 7152,
      "æĮĤ": 7153,
      "çĽ¼": 7154,
      "è®©æľºåĻ¨": 7155,
      "è®©åŃ©åŃĲ": 7156,
      "æĪĲçĺ": 7157,
      "æĪĲçĨŁ": 7158,
      "æľīä»·åĢ¼": 7159,
      "æį§": 7160,
      "æĹłç¼Ŀ": 7161,
      "æĹłæįŁèĢĹ": 7162,
      "å¹¶åıĳ": 7163,
      "å¹¶äº§çĶŁ": 7164,
      "å¹¶åģļåĩº": 7165,
      "è¾Ľ": 7166,
      "ç²¥": 7167,
      "äºİä¸Ģ": 7168,
      "æĭ¨": 7169,
      "æĭ¿": 7170,
      "æĭĤ": 7171,
      "åıĬçİ¯å¢ĥ": 7172,
      "åıĬæĥħæĦŁ": 7173,
      "åħ¨ç¤¾ä¼ļ": 7174,
      "åħ¨æ°ĳ": 7175,
      "è´¨æĦŁ": 7176,
      "ä»ħåĩŃ": 7177,
      "ä¸Ĭæ¶¨": 7178,
      "åīĳ": 7179,
      "åīĶ": 7180,
      "äººç±»è¯Ńè¨Ģ": 7181,
      "æ´»åĮĸ": 7182,
      "å¹³è¡Į": 7183,
      "å·¥äºº": 7184,
      "ç¨ĭå¼ı": 7185,
      "æ·±åĳ¼åĲ¸": 7186,
      "åĲĪçī©": 7187,
      "åĲĪçĲĨæĢ§": 7188,
      "åĲĪä¹İ": 7189,
      "ä¸įä»ħæĭĵå±ķäºĨ": 7190,
      "ä¿¡ä½¿": 7191,
      "ä¸»æĴŃ": 7192,
      "è½¬ä¸º": 7193,
      "æĮģæľī": 7194,
      "åħīå¹´": 7195,
      "åħ±åŃĺ": 7196,
      "çŃīåŁºæľ¬": 7197,
      "æľĢåħ·": 7198,
      "æľĢåŁºæľ¬": 7199,
      "æĮĩæłĩ": 7200,
      "å°±åĥıæĺ¯ä¸Ģ": 7201,
      "æķ°æį®åĪĨæŀĲ": 7202,
      "è°ĥåĳ³": 7203,
      "çĶŁåĳ½åĳ¨æľŁ": 7204,
      "è¿Ĳè¾ĵ": 7205,
      "ç»Īç«¯": 7206,
      "èĦĤ": 7207,
      "çĶŁæ´»åĵģè´¨": 7208,
      "å¥½å¥ĩ": 7209,
      "è®¤åı¯": 7210,
      "èĻ¾": 7211,
      "éĢłåŀĭ": 7212,
      "è§ĨåĲ¬": 7213,
      "è¿Ļä¸Ģè§ĤçĤ¹": 7214,
      "æŁľ": 7215,
      "å°ıå¾®": 7216,
      "ç¡®ä¿¡": 7217,
      "æµ·ä¸Ń": 7218,
      "æ¯Ķä¾ĭ": 7219,
      "åıĳå±ķä¸Ń": 7220,
      "å½ĵåľ°": 7221,
      "æĹ¢è¦ģ": 7222,
      "æľªè¢«": 7223,
      "åĻ¨çī©": 7224,
      "åĬłçıŃ": 7225,
      "è¡¨ç¤º": 7226,
      "é¢ĦåħĪ": 7227,
      "çĽ´èĩ³": 7228,
      "è·¯åı£": 7229,
      "æµĭè¯ķ": 7230,
      "ä¼ĺç§Ģ": 7231,
      "è®°è´¦": 7232,
      "å¸¸åĽł": 7233,
      "åŁİå¸Ĥç©ºéĹ´": 7234,
      "è£ķ": 7235,
      "èĢģå¹´": 7236,
      "æĺ¯ä¸Ģç§įä¸į": 7237,
      "æŃ¥æ²ŁéĢļ": 7238,
      "æİ¨åĬ¨åħ¨çĲĥ": 7239,
      "å¦Ĥä½ķäº§çĶŁ": 7240,
      "è½¦èģĶç½ĳ": 7241,
      "é«ĺæķĪåĪ©çĶ¨": 7242,
      "è¿ĺæŀĹ": 7243,
      "æ¸©çĥŃ": 7244,
      "è®¤çŁ¥ç§ĳåŃ¦": 7245,
      "çĽ®åħī": 7246,
      "åİĨç¨ĭ": 7247,
      "éĥ¨ä»¶": 7248,
      "çİ°å®ŀéĹ®é¢ĺ": 7249,
      "éĢ»è¾ĳæİ¨çĲĨ": 7250,
      "éĢĤæĹ¶": 7251,
      "çļĦæł¸å¿ĥåľ¨äºİ": 7252,
      "çī©çĲĨæ³ķåĪĻ": 7253,
      "åħ³ç³»çļĦæķ°åŃ¦åĪĨæĶ¯": 7254,
      "ä¸įä»ħæĺ¯åĳ³èķ¾": 7255,
      "åı£å¤´": 7256,
      "åĴĮè°Ĳä¸İ": 7257,
      "å®Ľå¦Ĥä¸Ģä½į": 7258,
      "æĽ´æĺ¯å¯¹": 7259,
      "æĽ´æĺ¯äººç±»": 7260,
      "çŁ¥è¯Ĩè¯ģæĺİ": 7261,
      "å¼ĤæŃ¥æ²ŁéĢļ": 7262,
      "åľ°çĲĥçĶŁæĢģå¹³è¡¡": 7263,
      "æ¸¸æ°ĳ": 7264,
      "åħįè´¹": 7265,
      "è¿ŀæİ¥èĢĮæĪĲ": 7266,
      "ç»¿èī²åĩºè¡Į": 7267,
      "éĩįå¡ĳçĿĢ": 7268,
      "èĬ±èīº": 7269,
      "èĩªæĪĳä»·åĢ¼": 7270,
      "éĩıåŃĲçºłç¼ł": 7271,
      "æĬĹæĭĴ": 7272,
      "æ°¸åĨ»åľŁ": 7273,
      "è´¹ç±³": 7274,
      "å®¢åİħ": 7275,
      "åĩıå°ĳç¢³æİĴæĶ¾": 7276,
      "æ¡Īä»¶": 7277,
      "æħ°": 7278,
      "çĸ¾çĹħæ²»çĸĹ": 7279,
      "Ġå½ĵæĪĳä»¬": 7280,
      "çĸ«æĥħ": 7281,
      "åĶ¯æľīåľ¨": 7282,
      "çľ¼çĿĽ": 7283,
      "çļĦæ¸´æľĽ": 7284,
      "ç¼ºéĻ·": 7285,
      "åıĮæīĭ": 7286,
      "è¡Ģç³ĸ": 7287,
      "åĽ´åĿĲ": 7288,
      "åıĺå¾Ĺè§¦æīĭåı¯åıĬ": 7289,
      "éĺ³åħīéĽ¨éľ²": 7290,
      "èµĸä»¥": 7291,
      "çļĦæ²»": 7292,
      "é©±åĬ¨åĬĽ": 7293,
      "ç¿»éĺħ": 7294,
      "çģ¯å¡Ķ": 7295,
      "çĭ¬ç«ĭåĪ¤æĸŃ": 7296,
      "æķ´ä¸ªçĶŁæĢģç³»ç»Ł": 7297,
      "èĢĹå°½": 7298,
      "åıĤæķ°": 7299,
      "éģĹä¼łåıĺå¼Ĥ": 7300,
      "ä»ĭåħ¥": 7301,
      "æĮīçħ§": 7302,
      "ä¿¡åı·çģ¯": 7303,
      "çĶ°åĽŃ": 7304,
      "åģľæŃĩ": 7305,
      "å±ıæģ¯": 7306,
      "èį¯çī©çłĶåıĳ": 7307,
      "èĴ¸": 7308,
      "è¡ĹèĪŀ": 7309,
      "çļĦæİĮ": 7310,
      "åĲĪæĪĲçĶŁçī©åŃ¦": 7311,
      "åħ¶ä¸Ńä¸Ģä¸ª": 7312,
      "éļĶç»Ŀ": 7313,
      "éļĶå¤ļè¿ľ": 7314,
      "æĢ¥äºİ": 7315,
      "åĩĿèģļçĿĢ": 7316,
      "åıĭè°Ĭ": 7317,
      "è®²è§£": 7318,
      "æ¶µçĽĸä»İ": 7319,
      "èĭ¦éļ¾": 7320,
      "éĺ¿å§": 7321,
      "æĻ®éĢļäºº": 7322,
      "åĽ¾ä¹¦ç®¡çĲĨåĳĺ": 7323,
      "å¥łå®ļäºĨåĿļå®ŀ": 7324,
      "åı¯éĿłæĢ§": 7325,
      "æŀ¯ç«Ń": 7326,
      "ç¬¬ä¸Ģ": 7327,
      "åľ°åŁŁéĻĲåĪ¶": 7328,
      "Ġ19": 7329,
      "çļĦæĶ¹": 7330,
      "çļĦæĻºèĥ½åĮĸ": 7331,
      "å°ıè¯´ä»¥": 7332,
      "ç»ĨèıĮæĦŁæŁĵ": 7333,
      "ĠçĶµå½±è§ĤåĲİæĦŁ": 7334,
      "æĻļå¹´": 7335,
      "é¢ľæĸĻ": 7336,
      "çĭĤé£İ": 7337,
      "çłĸçŁ³": 7338,
      "çļĦæ¶Łæ¼ª": 7339,
      "åľ¨æĸ¹å¯¸ä¹ĭéĹ´": 7340,
      "æī«æıı": 7341,
      "å¹´è½»äºº": 7342,
      "çĪ¶äº²": 7343,
      "åĪĽä½ľèĢħç»ıæµİ": 7344,
      "éģ¥è¿ľçļĦ": 7345,
      "çļĦçĸ¾çĹħ": 7346,
      "ç¨Ģç¼º": 7347,
      "éĽĨæĪĲçĶµè·¯": 7348,
      "å·¥åĮłç²¾ç¥ŀ": 7349,
      "æľ´ç´ł": 7350,
      "æ²īçĿ¡çļĦ": 7351,
      "æ£µæłĳ": 7352,
      "æ¯ıä¸ĢæŃ¥éĥ½": 7353,
      "åıĳçĶµæľº": 7354,
      "åĨ°å·ĿèŀįåĮĸ": 7355,
      "æµ·ç»µåŁİå¸Ĥ": 7356,
      "çĹķè¿¹": 7357,
      "å°¾æ°Ķ": 7358,
      "ä¸Ńå¤®æĮĩæĮ¥": 7359,
      "æºĲæºĲä¸įæĸŃåľ°": 7360,
      "ĠéĿŀçī©è´¨æĸĩåĮĸéģĹäº§": 7361,
      "å¤©å¤§æ¥¼": 7362,
      "æĲ¬è¿Ĳ": 7363,
      "è·¨åŃ¦ç§ĳé¢ĨåŁŁ": 7364,
      "æĹłè®ºçĽ¸éļĶå¤ļè¿ľ": 7365,
      "åŀĤçĽ´åĨľåľº": 7366,
      "å°ģéĹŃç©ºéĹ´": 7367,
      "ç»ļçĥĤ": 7368,
      "èī°éļ¾": 7369,
      "åīįæīĢæľªæľīçļĦ": 7370,
      "ĠçĶŁçī©å¤ļæł·æĢ§æĺ¯æĮĩåľ°çĲĥä¸ĬæīĢæľīçĶŁåĳ½å½¢å¼ı": 7371,
      "çĸĨåŁŁ": 7372,
      "å¥īçĮ®": 7373,
      "è¿ŀéĶģåıįåºĶ": 7374,
      "åĮħå®¹æĢ§å¢ŀéķ¿": 7375,
      "ä»Ģä¹Ī": 7376,
      "è½°é¸£": 7377,
      "æľºå¯ĨæĢ§": 7378,
      "çļĦç¼ĿéļĻ": 7379,
      "åĨĹä½Ļ": 7380,
      "åĲĮæĢģåĬłå¯Ĩ": 7381,
      "åŀĦæĸŃ": 7382,
      "éĢĢèĢķè¿ĺæŀĹ": 7383,
      "æĪĲçĺ¾": 7384,
      "è´¹ç±³æĤĸè®º": 7385,
      "Tr": 7386,
      "for": 7387,
      "on": 7388,
      "sfor": 7389,
      "æĨ": 7390,
      "ç°": 7391,
      "Ġå¼ł": 7392,
      "ĠèµĽ": 7393,
      "ĠæĹ©": 7394,
      "Ġç¾İé£Ł": 7395,
      "Ġç¥ŀç»ıç§ĳåŃ¦": 7396,
      "Ġæ·±æµ·": 7397,
      "Ġåıĸæ¶Ī": 7398,
      "ĠèģĶéĤ¦": 7399,
      "Ŀ¡": 7400,
      "çļĦç»ıæµİ": 7401,
      "çļĦæĹ¶ç©º": 7402,
      "çļĦèī²å½©": 7403,
      "çļĦçĲĨå¿µ": 7404,
      "çļĦåĽ¢éĺŁ": 7405,
      "çļĦå·§å¦Ļ": 7406,
      "æĺı": 7407,
      "ä¸İè´£ä»»": 7408,
      "ä¸İæ¸©åº¦": 7409,
      "ä¸İåĵģè´¨": 7410,
      "ä¸İçĶŁæ´»æĸ¹å¼ı": 7411,
      "è®¯": 7412,
      "æĺ¯å®ŀçİ°": 7413,
      "æĺ¯äººå·¥æĻºèĥ½": 7414,
      "æĺ¯å®ĪæĬ¤": 7415,
      "åľ¨æķ°åŃĹ": 7416,
      "åľ¨ä¿Ŀéļľ": 7417,
      "åľ¨éķ¿æľŁ": 7418,
      "ä¸Ģéģĵ": 7419,
      "çĶŁä¸į": 7420,
      "äººæĸĩ": 7421,
      "äººå±ħ": 7422,
      "äººåĲĪä¸Ģ": 7423,
      "å¹¼": 7424,
      "ä¸ŃéĹ´": 7425,
      "ä¸ŃçļĦæł¸å¿ĥ": 7426,
      "ä¸ŃéĢĲæ¸Ĳ": 7427,
      "æĬ«": 7428,
      "ä½ĵéŃĦ": 7429,
      "çĲĨèµĶ": 7430,
      "æĿ¨": 7431,
      "åĮĸèĤ¥": 7432,
      "å®ĥèĩ´åĬĽäºİ": 7433,
      "éĢļè¿ĩæķ´åĲĪ": 7434,
      "å±¥": 7435,
      "è¿Ļç¬Ķ": 7436,
      "æĮº": 7437,
      "èĢĮåĩº": 7438,
      "çī©ä»·": 7439,
      "èĩªåŃ¦": 7440,
      "å¸Ń": 7441,
      "æıĴ": 7442,
      "æĪĲæŀľ": 7443,
      "æľīå½¢": 7444,
      "çļĦç¿": 7445,
      "çļĦçĵ": 7446,
      "çļĦçĿ¡": 7447,
      "å¦Ĥåħ¶": 7448,
      "å¯¹çİ°å®ŀ": 7449,
      "æ¯ķ": 7450,
      "æ¸ºå°ı": 7451,
      "å°Ĩå¤įæĿĤ": 7452,
      "æĦŁåºĶ": 7453,
      "åı¯æĦŁ": 7454,
      "æĽ´é«ĺæķĪ": 7455,
      "æĽ´å¼ºè°ĥ": 7456,
      "åŃĲåħ³ç³»": 7457,
      "åŃĲåŃĻ": 7458,
      "ä¼łæİĪ": 7459,
      "æº¶": 7460,
      "æµģéĩı": 7461,
      "ç²¾æ¹Ľ": 7462,
      "èĪ±": 7463,
      "è§Ĥå½±": 7464,
      "ç½ļ": 7465,
      "åĪ¶å¤ĩ": 7466,
      "èĬľ": 7467,
      "æĿ¥çĲĨè§£": 7468,
      "ä¸įä»ħéĩįå¡ĳäºĨ": 7469,
      "ä¸»äºº": 7470,
      "åħ±æ²»": 7471,
      "çĶµè§£": 7472,
      "å½¢èĢĮä¸Ĭ": 7473,
      "æ°´éĿ¢": 7474,
      "çŃīæĸ¹éĿ¢": 7475,
      "èĤĥ": 7476,
      "éĿ¢ä¸Ĭ": 7477,
      "éĶ¤": 7478,
      "éĶļ": 7479,
      "åįĩèħ¾": 7480,
      "äº§åĩº": 7481,
      "éķ¿è¿ľ": 7482,
      "åĪ°è´¦": 7483,
      "åĲĳåĸĦ": 7484,
      "å®¶ä¸Ń": 7485,
      "ç¥ĸ": 7486,
      "è¿Ļç§įæĬĢæľ¯": 7487,
      "èĩªçĦ¶æ³ķåĪĻ": 7488,
      "æĪĸåĪĨåŃĲ": 7489,
      "çĶŁæ´»åľĪ": 7490,
      "ä¸ĸçķĮéĩĮ": 7491,
      "åĽ¾çº¸": 7492,
      "åį´æĺ¯": 7493,
      "åĲİç»Ń": 7494,
      "æİ¥ç§į": 7495,
      "çĶ±æŃ¤": 7496,
      "çĽ¸åºĶ": 7497,
      "çĽ¸éģĩ": 7498,
      "å¦ĤåĲĮå°Ĩ": 7499,
      "çĭ¬æľīçļĦ": 7500,
      "éĻĲåº¦": 7501,
      "åŁİåł¡": 7502,
      "åħ·èº«": 7503,
      "çīĩä¸Ĭ": 7504,
      "æĹ¢ä¿ĿçķĻäºĨ": 7505,
      "æĻºèĥ½è®¾å¤ĩ": 7506,
      "èµ·è·ĳ": 7507,
      "åĬłä»¥": 7508,
      "å¾®éĩįåĬĽ": 7509,
      "è·¯ä¸Ĭ": 7510,
      "è·¯ç½ĳ": 7511,
      "ä¼łç»ŁæĬĢèīº": 7512,
      "åģ¥åħ¨": 7513,
      "èµĦæºĲæ¶ĪèĢĹ": 7514,
      "å¼Ģåħ³": 7515,
      "åĢ¼å¾Ĺ": 7516,
      "å¤©äººåĲĪä¸Ģ": 7517,
      "ä½İæĹ¶": 7518,
      "åĸ»": 7519,
      "çļĦæłĳ": 7520,
      "çĲĨè§£è¿ĻäºĽ": 7521,
      "åŃ¦ä¹łèĢħ": 7522,
      "åĮ»èį¯": 7523,
      "æĺ¯æĮĩåĪ©çĶ¨": 7524,
      "è¿ŀçº¿": 7525,
      "ç»ĻäºĪ": 7526,
      "åı²ä¸Ĭ": 7527,
      "å¤±çľł": 7528,
      "åĿļä¿¡": 7529,
      "å¸¦åĬ¨": 7530,
      "å¤ĸåįĸ": 7531,
      "åĲĦå¼Ĥ": 7532,
      "èĩªçĶ±çļĦ": 7533,
      "ä¾ĭå¦Ĥ": 7534,
      "åįıè®®": 7535,
      "è®¾è®¡å¸Ī": 7536,
      "çĲĨæĢ§ä¸İ": 7537,
      "èĩ³ä¸Ĭ": 7538,
      "éĺ²çģ¾": 7539,
      "åķ¸": 7540,
      "æ»¡æĦı": 7541,
      "å¿ĥçĲĨåĴ¨è¯¢": 7542,
      "å·¨åŀĭ": 7543,
      "çĲĨè®ºä¸Ĭ": 7544,
      "åºĶçĶ¨ä¼¦çĲĨ": 7545,
      "ç¼ĸåĨĻ": 7546,
      "å®ĥä»¬ä»¥": 7547,
      "ç®¡çĲĨå¹¶éĿŀ": 7548,
      "å¥ıåĵį": 7549,
      "åŁºåĽłå·¥ç¨ĭ": 7550,
      "ç½®èº«": 7551,
      "éĩĳèŀįç§ĳæĬĢ": 7552,
      "åĪĴçł´": 7553,
      "ç¹ģå¿Ļ": 7554,
      "éĩıåŃĲæĢģ": 7555,
      "åĨľä¸ļæĹłäººæľº": 7556,
      "ç´§æĢ¥": 7557,
      "æ³¢åĩ½æķ°": 7558,
      "æīĵçł´æĹ¶ç©ºéĻĲåĪ¶": 7559,
      "åĮ»çĸĹè¯ĬæĸŃ": 7560,
      "æĦŁçŁ¥çİ¯å¢ĥ": 7561,
      "çļĦç²¾å¦Ļ": 7562,
      "çıĢ": 7563,
      "åºĶå¯¹åħ¨çĲĥ": 7564,
      "åĩłç§Ĵ": 7565,
      "Ġå½ĵä»£": 7566,
      "å®ĥä¸įè¿½æ±Ĥ": 7567,
      "æłĳåı¶": 7568,
      "åħ¸èĮĥ": 7569,
      "çľ¼ä¸Ń": 7570,
      "å¥ĩå¦Ļ": 7571,
      "è¡ĢèĦī": 7572,
      "ä¸¤å¹´": 7573,
      "éĽ¶æİĴæĶ¾": 7574,
      "åįģäºĶåĪĨéĴŁ": 7575,
      "æµªæ¼«": 7576,
      "åĽ°æī°": 7577,
      "åıįæĢĿä¸İ": 7578,
      "çļĦæ°Ķ": 7579,
      "å¾ªçİ¯ç»ıæµİ": 7580,
      "ä¸°çĽĪ": 7581,
      "äº²åŃĲåħ³ç³»": 7582,
      "çĩ¥": 7583,
      "è´Ńçī©": 7584,
      "é£ŀéĢŁ": 7585,
      "ç¼ĵè§£äºĨ": 7586,
      "æįķæįīçŀ¬éĹ´": 7587,
      "çĶŁæĪĲå¯¹æĬĹ": 7588,
      "è°ĥèĬĤæĥħç»ª": 7589,
      "çļĦæĸ°åħ´": 7590,
      "äººä½ĵåħįçĸ«ç³»ç»Ł": 7591,
      "æĭ¼åĳ½": 7592,
      "æĭ¼æĲı": 7593,
      "åį°è®°": 7594,
      "åºŁæ°´": 7595,
      "å¤§æķ°æį®ä¸İäººå·¥æĻºèĥ½": 7596,
      "è¯ķåĽ¾åľ¨": 7597,
      "çļĦæ³¥": 7598,
      "è¯ĦåĪ¤": 7599,
      "éĢĢä¼ĳ": 7600,
      "æĤ£èĢħéĩıèº«å®ļåĪ¶": 7601,
      "èįīæľ¨": 7602,
      "å®ŀéªĮæĪıåī§": 7603,
      "æ¶²ä½ĵ": 7604,
      "æ·±åħ¥æİ¢è®¨": 7605,
      "é¼»": 7606,
      "èĲ¥åħ»ç´ł": 7607,
      "å°ģåŃĺ": 7608,
      "æķıæį·": 7609,
      "ç§įåŃĲæĶ¹èī¯": 7610,
      "çļĦæ´ªæµģ": 7611,
      "çļĦæ¯Ĵ": 7612,
      "åľ°åŁŁæĸĩåĮĸ": 7613,
      "å®ĥè¦ģæ±ĤæĪĳä»¬": 7614,
      "å¹³éĿ¢è®¾è®¡": 7615,
      "æĤ²è§Ĥ": 7616,
      "äºĮæ°§åĮĸç¢³æİĴæĶ¾": 7617,
      "æĬĳåĪ¶": 7618,
      "ä¾¿åĪ©çļĦåĲĮæĹ¶": 7619,
      "é¡¾å®¢": 7620,
      "æĻ¶ä½ĵç®¡": 7621,
      "æĤ¬çĸĳ": 7622,
      "é¡¿æĤŁ": 7623,
      "æ±Ĺæ°´æµ¸éĢı": 7624,
      "æİ¨èįĲç®Ĺæ³ķ": 7625,
      "ä¸»ä¹īæĺ¯ä¸Ģç§įå¼ºè°ĥ": 7626,
      "åŃ£èĬĤ": 7627,
      "é¢Īé¹¿": 7628,
      "çļĦçº¿ç´¢": 7629,
      "æıĲåĩºäºĨ": 7630,
      "åĭĩæķ¢": 7631,
      "è°ĥåĴĮéĺ´éĺ³": 7632,
      "æķĻåŃ¦æ¨¡å¼ı": 7633,
      "å°ºåº¦ä¸Ĭ": 7634,
      "åºŀå¤§çļĦ": 7635,
      "çī¹èī²å°ıéķĩ": 7636,
      "æĻºèĥ½åĮĸè½¬åŀĭ": 7637,
      "çļĦäº¤åĵįä¹ĲåĽ¢": 7638,
      "è´·æ¬¾": 7639,
      "åĪ¹éĤ£": 7640,
      "çīĽå¥¶": 7641,
      "äººä»¬å¯¹ç¾İå¥½çĶŁæ´»çļĦåĲĳå¾Ģ": 7642,
      "éĢĤåºĶçİ¯å¢ĥåıĺåĮĸ": 7643,
      "çĶŁåŃĺä¸İåıĳå±ķ": 7644,
      "ĠåħīåĪ»æľº": 7645,
      "æĪĲå°±æĦŁ": 7646,
      "çĶ»å®¶ä»¬": 7647,
      "åŃķèĤ²åĩº": 7648,
      "æ´ªæµģä¸Ń": 7649,
      "æķ²åĩ»": 7650,
      "äºĮåįģä¸ĸçºª": 7651,
      "ç²īä¸Ŀç»ıæµİ": 7652,
      "ĠåŁºåĽłç¼ĸè¾ĳæĬĢæľ¯": 7653,
      "çļĦæ³ķå¾ĭ": 7654,
      "ĠèĦĳç§ĳåŃ¦": 7655,
      "åı¯åĨįçĶŁçļĦèĥ½æºĲ": 7656,
      "å»¶å±ķå¿ĥçģµ": 7657,
      "çļĦæ³¨èĦļ": 7658,
      "ä¸įåĲĮæĹ¶ä»£": 7659,
      "çļĦæıĲ": 7660,
      "æ¼Ĩé»ĳ": 7661,
      "éĥ½æĹłæ³ķéĢĥèĦ±": 7662,
      "çī§åľº": 7663,
      "ĠèĢģæĹ§å°ıåĮºæĶ¹éĢł": 7664,
      "çļĦç®¡å®¶": 7665,
      "çļĦç®Ĺæ³ķ": 7666,
      "ansfor": 7667,
      "ç¬¬ä¸īæĸ¹": 7668,
      "åĥıäººç±»ä¸Ģæł·": 7669,
      "çļĦæĻ¶ä½ĵç®¡": 7670,
      "åīĶéĻ¤": 7671,
      "çļĦæİĮæİ§": 7672,
      "Transfor": 7673,
      "Ġç¾İé£Łçĥ¹é¥ª": 7674,
      "çĶŁä¸įèĢģ": 7675,
      "å½¢èĢĮä¸ĬåŃ¦": 7676,
      "çĶŁæĪĲå¯¹æĬĹç½ĳç»ľ": 7677,
      "Transformer": 7678,
      "¡è¶³": 7679,
      "ªæ°´": 7680,
      "Ġè¯Ńè¨Ģ": 7681,
      "Ġç¢³": 7682,
      "Ġæľ«": 7683,
      "Ġè®¤è¯Ĩè®º": 7684,
      "Ġæ°¢": 7685,
      "ĠçĽ¸å¯¹è®º": 7686,
      "Ġæīĭæľ¯æľºåĻ¨äºº": 7687,
      "ĠèĩªçĽĳçĿ£": 7688,
      "Ġæ³ķåĵ²åŃ¦": 7689,
      "ĠåħĭéļĨæĬĢæľ¯": 7690,
      "Ġç¤¾ä¼ļæ´¾æİ¨çĲĨ": 7691,
      "Ġè¡ĹèĪŀ": 7692,
      "ĠåŀĤçĽ´åĨľåľº": 7693,
      "çļĦå»ºçŃĳ": 7694,
      "çļĦè¡¨è¾¾": 7695,
      "çļĦåĩłä½ķ": 7696,
      "çļĦä½ĵèĤ²": 7697,
      "çļĦåľŁåľ°": 7698,
      "çļĦåĴĸåķ¡": 7699,
      "çļĦé»ĳæļĹ": 7700,
      "çļĦåĽŃä¸ģ": 7701,
      "çļĦæĢĿç»ª": 7702,
      "æĺ¨": 7703,
      "åĬ£": 7704,
      "ä¸İåıĳå±ķ": 7705,
      "ä¸İå®ĩå®Ļ": 7706,
      "ä¸İåĨħå¿ĥ": 7707,
      "ä¸İæķ´ä½ĵ": 7708,
      "ä¸İå®īå®ģ": 7709,
      "åľ¨å¤įæĿĤ": 7710,
      "åľ¨æ»¡è¶³": 7711,
      "åľ¨ä¸īç»´": 7712,
      "åľ¨æ¯«ç§Ĵ": 7713,
      "åľ¨é£İéĽ¨ä¸Ń": 7714,
      "åĲ¹": 7715,
      "åĲĲ": 7716,
      "ä¼Ļ": 7717,
      "çĶŁæł¹": 7718,
      "çĶŁæ®ĸ": 7719,
      "ä¸įè¿ĩ": 7720,
      "åŃ¦éĻ¢": 7721,
      "çļĦæĲ": 7722,
      "ä½ĵæ£Ģ": 7723,
      "æµħ": 7724,
      "åĬ¨äººçļĦ": 7725,
      "å®ĥå¹¿æ³ĽåºĶçĶ¨äºİ": 7726,
      "å®ĥåĨ³å®ļäºĨ": 7727,
      "å®ĥåħģè®¸": 7728,
      "éĢļè¿ĩå¤ļå±Ĥ": 7729,
      "è¿Ļå¹¶éĿŀ": 7730,
      "èĩªä¿¡": 7731,
      "å¸Ĩ": 7732,
      "æ³Ĭ": 7733,
      "è®©ä¼ĺè´¨æķĻèĤ²èµĦæºĲ": 7734,
      "èµ¤": 7735,
      "åıĳèĤ²": 7736,
      "åıĳå°Ħ": 7737,
      "åĲĮçŃī": 7738,
      "åĲĮäºĭ": 7739,
      "åĲĮä½Ļ": 7740,
      "æįı": 7741,
      "å¦Ĥæµģæ°´": 7742,
      "å¯¹åħ¨çĲĥ": 7743,
      "å¯¹ç§°": 7744,
      "åĴĮä½¿çĶ¨": 7745,
      "æĹłæķĪ": 7746,
      "å¹¶æľª": 7747,
      "å¹¶ä¿Ŀéļľ": 7748,
      "å¹¶å¨ģèĥģ": 7749,
      "åľ°å£³": 7750,
      "çº±": 7751,
      "éĩįçİ°": 7752,
      "éĩįçĦķ": 7753,
      "åĥµ": 7754,
      "æŀĦåĽ¾": 7755,
      "æŀĦçŃĳ": 7756,
      "å°Ĩä¸ªäºº": 7757,
      "å°Ĩç®Ģåįķ": 7758,
      "çĦ°": 7759,
      "æĦŁè§ī": 7760,
      "åĪĨåĮĸ": 7761,
      "åħ¨çĶŁåĳ½åĳ¨æľŁ": 7762,
      "å»ºè®®": 7763,
      "æĿ¥è¶Ĭ": 7764,
      "çģ¶": 7765,
      "ä¿¡çĶ¨": 7766,
      "é«ĺç§¯æľ¨": 7767,
      "åħīå½©": 7768,
      "æŃ£æĤĦçĦ¶": 7769,
      "æ°´èĤ¥": 7770,
      "å¤įèĭı": 7771,
      "è§Ħéģ¿": 7772,
      "ç©ºåİĨåı²": 7773,
      "ç©ºèį¡": 7774,
      "ä¹īä½ĵ": 7775,
      "æĥħæĢĢ": 7776,
      "åįĩé«ĺ": 7777,
      "ç»ĵæĿŁ": 7778,
      "ç¤¾ä¼ļéľĢæ±Ĥ": 7779,
      "å°±åĥıçĶ¨": 7780,
      "ä¹ĭåľ°": 7781,
      "çĶŁåĳ½ä½ĵ": 7782,
      "çĶŁåĳ½è´¨éĩı": 7783,
      "æĪĳä»¬æĽ´": 7784,
      "ç§ĳåŃ¦æĸ¹æ³ķ": 7785,
      "è¿Ļç§įåľ¨": 7786,
      "è¿Ļç§įå°Ĩ": 7787,
      "å¼ķé¢Ĩ": 7788,
      "é£İåĬĽ": 7789,
      "äºĴéĢļ": 7790,
      "åİŁåľ°": 7791,
      "è¢¤": 7792,
      "éĿŀäººç±»": 7793,
      "åľºä¸Ĭ": 7794,
      "æıĲåįĩæķ´ä½ĵ": 7795,
      "èĬĤæĭį": 7796,
      "åį´åħ±åĲĮ": 7797,
      "åį´æĹłæ³ķ": 7798,
      "åį´å¿ĺäºĨ": 7799,
      "åħ¬éĩĮ": 7800,
      "åıªåī©": 7801,
      "å°ıæĹ¶": 7802,
      "å°ıæĺİ": 7803,
      "æµ·åºķ": 7804,
      "åĵģåĳ³": 7805,
      "åĵģèĮ¶": 7806,
      "éĩĮéĿ¢": 7807,
      "çİ¯å¢ĥä¹ĭéĹ´": 7808,
      "å½ĵæĢ§": 7809,
      "å½ĵä½ľ": 7810,
      "ä¿¡æģ¯å®īåħ¨": 7811,
      "ç«ĭåľº": 7812,
      "éħ¶": 7813,
      "å¾®åĪĽ": 7814,
      "è¡¨æĺİ": 7815,
      "çİ°ä»£ç¤¾ä¼ļçļĦ": 7816,
      "é¢ĦåĪ¤": 7817,
      "è¶ĬæĿ¥è¶Ĭ": 7818,
      "æ¡¨": 7819,
      "èĲ¨": 7820,
      "èĮµ": 7821,
      "ç®¡å®¶": 7822,
      "åĨįçİ°": 7823,
      "ä½İæ¸©": 7824,
      "æľīæķĪéģıåĪ¶": 7825,
      "ç²¾åĩĨè¯ĨåĪ«": 7826,
      "ç²¾åĩĨåĸ·æ´Ĵ": 7827,
      "è¶ħæłĩ": 7828,
      "åŃ¦ä¹łæĸ¹æ³ķ": 7829,
      "å¦Ĥä½ķå¡ĳéĢł": 7830,
      "æ¶Īæģ¯": 7831,
      "è¿ĺèĥ½åľ¨": 7832,
      "æİĴæ¯Ĵ": 7833,
      "æľŁçĽ¼": 7834,
      "ç»ıæµİç¤¾ä¼ļ": 7835,
      "åıĪæĺ¯": 7836,
      "åĽŀçĶĺ": 7837,
      "èį¯åīĤ": 7838,
      "è½¬åĮĸä¸ºæ¸ħæ´ģ": 7839,
      "æĹ¶éĹ´ä¸İ": 7840,
      "æĹ¶éĹ´ä¸İç©ºéĹ´": 7841,
      "æĹ¶éĹ´æµģéĢĿ": 7842,
      "çªģå¦Ĥåħ¶": 7843,
      "å¹¿è¢¤": 7844,
      "ä¿®èº«": 7845,
      "æī¿è®¤": 7846,
      "æĻ¯è±¡": 7847,
      "éĢĤåº¦": 7848,
      "éĽĨåĲĪ": 7849,
      "åİĨåı²è®°å¿Ĩ": 7850,
      "çī©çĲĨå®ļå¾ĭ": 7851,
      "æł¹æºĲ": 7852,
      "åĽŃæŀĹ": 7853,
      "æľįåĬ¡çļĦ": 7854,
      "æľįåĬ¡æ¨¡å¼ı": 7855,
      "è¶³è¿¹": 7856,
      "ä¸įåĲĮç¾¤ä½ĵ": 7857,
      "å§ľ": 7858,
      "åı¯æĮģç»ŃåĪ©çĶ¨": 7859,
      "å®ĥä»¬ä¸įä»ħ": 7860,
      "åĨ³çŃĸä¸Ń": 7861,
      "æ¤įä¿Ŀ": 7862,
      "ä¼¦çĲĨåŃ¦": 7863,
      "ç¢³æ±ĩ": 7864,
      "éĩįå¡ĳä¼łç»Ł": 7865,
      "å¿«éĢĴ": 7866,
      "æĪıæĽ²": 7867,
      "ä½Ĩä¹Ł": 7868,
      "æŀ¶ç©ºåİĨåı²": 7869,
      "ç¹ģçĲĲ": 7870,
      "å®ŀæĹ¶éĩĩéĽĨ": 7871,
      "çĽ¸äºĴè½¬åĮĸ": 7872,
      "æ¡Īä¾ĭ": 7873,
      "å¯Įè£ķ": 7874,
      "æħĮ": 7875,
      "å¹¿æ³ĽåĪĨå¸ĥ": 7876,
      "è®¡ç®Ĺæľºç¡¬ä»¶": 7877,
      "åĮ»çĸĹåıĬ": 7878,
      "èĢĮéĿŀåįķçº¯": 7879,
      "æĦıè¯Ĩåľ°": 7880,
      "çľŁå®ŀåİĨåı²": 7881,
      "æĪĲæľ¬å¹¶æıĲåįĩ": 7882,
      "å·¥ä¸ļäºĴèģĶç½ĳ": 7883,
      "åĪĨåŃĲæľºåĪ¶": 7884,
      "å½¢æĪĲäºĨ": 7885,
      "å¡ĳéĢłçĿĢ": 7886,
      "äºĳæľµ": 7887,
      "çŁŃæľŁ": 7888,
      "åľŁå£¤ä¿®å¤į": 7889,
      "éĢĤåºĶæĢ§": 7890,
      "éĢĤåºĶæľªæĿ¥": 7891,
      "åĪĽéĢłåĬĽ": 7892,
      "åıĺå¾Ĺæ¸ħæĻ°": 7893,
      "éĺ³åħīæ´Ĵåľ¨": 7894,
      "ä¹°åħ¥": 7895,
      "åįģåĪĨéĴŁ": 7896,
      "æĬķå°Ħ": 7897,
      "åĨ²åĪº": 7898,
      "æĵįçºµ": 7899,
      "æĬ½è±¡çļĦ": 7900,
      "ä½¿çĶ¨åĮĸåŃ¦": 7901,
      "äºīå¤º": 7902,
      "å¹»æĥ³": 7903,
      "æ¶Īè´¹èĢħçļĦ": 7904,
      "è´§çī©": 7905,
      "çĭ¬ç«ĭçļĦ": 7906,
      "è´Łèį·": 7907,
      "éľ²çıł": 7908,
      "è¿ĳä¹İ": 7909,
      "æ¶µåħ»": 7910,
      "éģĹä¼łæī¿": 7911,
      "ä»»ä½ķçªĥåĲ¬": 7912,
      "æįŁå®³": 7913,
      "æĭ¼åĽ¾": 7914,
      "èĦļä¸ĭ": 7915,
      "éŁµåĳ³": 7916,
      "é©¬è½¦": 7917,
      "åħ±äº«ç»ıæµİ": 7918,
      "çĶ°éĩİ": 7919,
      "å®ŀè·µèĥ½åĬĽ": 7920,
      "åģľæŃ¢": 7921,
      "è¯Ħä»·": 7922,
      "æ³ķå¾ĭè§ĦèĮĥ": 7923,
      "åĬłå¯Ĩç®Ĺæ³ķ": 7924,
      "ä¸İäººçī©": 7925,
      "å°±æĺ¯å®ĪæĬ¤": 7926,
      "èµĦéĩĳæµģåĲĳ": 7927,
      "éĺ¶å±Ĥ": 7928,
      "åĢĴå½±": 7929,
      "å®ŀéªĮå®¤": 7930,
      "æĸ¯åĿ¦": 7931,
      "çģĮè¾ĵ": 7932,
      "éĢĨå¢ĥä¸Ń": 7933,
      "æĹ©é¤Ĳ": 7934,
      "å®ĥåĥıä¸Ģä½į": 7935,
      "äº¤ç»ĩæĪĲ": 7936,
      "åĩĿèģļåĬĽ": 7937,
      "æ²ŁéĢļçļĦæ¡¥æ¢ģ": 7938,
      "åĩĿåĽºçļĦ": 7939,
      "ç¼łç»ķ": 7940,
      "å®¶åºŃæķĻèĤ²": 7941,
      "æ··æ²Įä¸Ń": 7942,
      "æŁ¥çľĭ": 7943,
      "åıĺæĪĲäºĨ": 7944,
      "æ¢¦å¢ĥ": 7945,
      "ç½Ĺå°Ķ": 7946,
      "æŀģç«¯çİ¯å¢ĥ": 7947,
      "æ®ĸæ°ĳ": 7948,
      "éĽķåĪ»": 7949,
      "Ġ15": 7950,
      "èģļçĦ¦åħ³éĶ®": 7951,
      "æ¼«éķ¿å²ģæľĪ": 7952,
      "Ġæķ°åŃ¦åŁºç¡Ģ": 7953,
      "éļıæľºçİ°è±¡": 7954,
      "ĠçĶµå½±çĲĨè®º": 7955,
      "éĹªçĶµ": 7956,
      "å·²æĪĲä¸ºåħ¨çĲĥ": 7957,
      "åģ¶å°Ķ": 7958,
      "Ġçİ°ä»£è¯Ĺ": 7959,
      "å£«åħµ": 7960,
      "åĬłåī§ç¤¾ä¼ļ": 7961,
      "æĹłå£°çļĦå¯¹è¯Ŀ": 7962,
      "çļĦæĮĩä»¤": 7963,
      "çħĮ": 7964,
      "èĤĮçĲĨ": 7965,
      "æľĢåĲİä¸Ģ": 7966,
      "æ°¸ä¸įåģľæŃĩ": 7967,
      "æ°¸è¿ľæĹłæ³ķ": 7968,
      "ç¯ĩç«ł": 7969,
      "åĵªéĩĮ": 7970,
      "å±ŀäºİèĩªå·±çļĦ": 7971,
      "äººä¸İèĩªçĦ¶çļĦåĴĮè°Ĳåħ±çĶŁ": 7972,
      "ä¿ĿéĻ©ç§ĳæĬĢ": 7973,
      "çº·ç¹ģå¤įæĿĤçļĦ": 7974,
      "Ġ200": 7975,
      "ä¸ĢæŃ¥æŃ¥": 7976,
      "èĥ¶æ°´": 7977,
      "è¯ĹæŃĮéī´èµı": 7978,
      "å»¶éķ¿å¯¿åĳ½": 7979,
      "æ¯ģçģŃ": 7980,
      "è¿ģç§»åŃ¦ä¹ł": 7981,
      "çļĦæ¯ıä¸Ģ": 7982,
      "åģıè¿ľå±±åĮº": 7983,
      "å¤¸åħĭ": 7984,
      "æĬĵåıĸ": 7985,
      "çļĦæŃ£ä¹ī": 7986,
      "çĭ¬ä¸ĢæĹłäºĮçļĦ": 7987,
      "çļĦæ»ĭ": 7988,
      "çļĦæ»¡è¶³": 7989,
      "èĬĤçº¦èµĦæºĲ": 7990,
      "æµ·ç»µä¸Ģæł·": 7991,
      "Ġæµģè¡ĮæĸĩåĮĸ": 7992,
      "èµĦæºĲåĪ©çĶ¨æķĪçİĩ": 7993,
      "éĹªçĥģçļĦ": 7994,
      "ĠçĶµåŃĲç«ŀæĬĢæĺ¯ä»¥": 7995,
      "çļĦçģ¯å¡Ķ": 7996,
      "åįĪåĲİ": 7997,
      "ä¸įåı¯èĥ½çĬ¯ç½ª": 7998,
      "éĢļè¡ĮæķĪçİĩ": 7999
    },
    "merges": [
      [
        "ä",
        "¸"
      ],
      [
        "ï",
        "¼"
      ],
      [
        "ï¼",
        "Į"
      ],
      [
        "ç",
        "ļ"
      ],
      [
        "çļ",
        "Ħ"
      ],
      [
        "ã",
        "Ģ"
      ],
      [
        "ä",
        "º"
      ],
      [
        "ãĢ",
        "Ĥ"
      ],
      [
        "å",
        "®"
      ],
      [
        "å",
        "ı"
      ],
      [
        "è",
        "¿"
      ],
      [
        "ä",
        "»"
      ],
      [
        "æ",
        "ľ"
      ],
      [
        "å",
        "ħ"
      ],
      [
        "å",
        "ľ"
      ],
      [
        "ç",
        "Ķ"
      ],
      [
        "ç",
        "»"
      ],
      [
        "æ",
        "ĺ"
      ],
      [
        "č",
        "Ċ"
      ],
      [
        "ä",
        "½"
      ],
      [
        "å",
        "Ī"
      ],
      [
        "å",
        "Ĭ"
      ],
      [
        "é",
        "Ģ"
      ],
      [
        "å",
        "Ń"
      ],
      [
        "ä¸",
        "İ"
      ],
      [
        "è",
        "®"
      ],
      [
        "æ",
        "Ĺ"
      ],
      [
        "æĺ",
        "¯"
      ],
      [
        "åľ",
        "¨"
      ],
      [
        "å",
        "¤"
      ],
      [
        "å",
        "Ĳ"
      ],
      [
        "è",
        "§"
      ],
      [
        "æ",
        "Ī"
      ],
      [
        "æ",
        "ķ"
      ],
      [
        "è",
        "ĥ"
      ],
      [
        "ä¸",
        "Ģ"
      ],
      [
        "ä",
        "¼"
      ],
      [
        "æ",
        "Ģ"
      ],
      [
        "çĶ",
        "Ł"
      ],
      [
        "æ",
        "ĸ"
      ],
      [
        "è",
        "Ģ"
      ],
      [
        "å",
        "°"
      ],
      [
        "ä",
        "¹"
      ],
      [
        "é",
        "ĩ"
      ],
      [
        "å",
        "Į"
      ],
      [
        "ç",
        "İ"
      ],
      [
        "äº",
        "º"
      ],
      [
        "èĥ",
        "½"
      ],
      [
        "å",
        "¯"
      ],
      [
        "å",
        "¹"
      ],
      [
        "ç",
        "Ĳ"
      ],
      [
        "å",
        "¼"
      ],
      [
        "ç",
        "ī"
      ],
      [
        "ç",
        "§"
      ],
      [
        "å",
        "º"
      ],
      [
        "è",
        "¯"
      ],
      [
        "å",
        "į"
      ],
      [
        "è¿",
        "ĩ"
      ],
      [
        "ä¸",
        "Ń"
      ],
      [
        "æ",
        "Ĭ"
      ],
      [
        "å",
        "¾"
      ],
      [
        "ä¸",
        "į"
      ],
      [
        "åŃ",
        "¦"
      ],
      [
        "äº",
        "Ĩ"
      ],
      [
        "éĢ",
        "ļ"
      ],
      [
        "ãĢ",
        "ģ"
      ],
      [
        "å",
        "¿"
      ],
      [
        "çļĦ",
        "æ"
      ],
      [
        "å",
        "Ĩ"
      ],
      [
        "å",
        "ĩ"
      ],
      [
        "ä½",
        "ĵ"
      ],
      [
        "çĲ",
        "Ĩ"
      ],
      [
        "è",
        "ĩ"
      ],
      [
        "æ",
        "ŀ"
      ],
      [
        "æ",
        "Ŀ"
      ],
      [
        "å",
        "Ľ"
      ],
      [
        "ä¸",
        "º"
      ],
      [
        "æ",
        "µ"
      ],
      [
        "è",
        "¡"
      ],
      [
        "åĮ",
        "ĸ"
      ],
      [
        "æ",
        "İ"
      ],
      [
        "åĬ",
        "¨"
      ],
      [
        "å",
        "½"
      ],
      [
        "æ",
        "ī"
      ],
      [
        "å®",
        "ĥ"
      ],
      [
        "é",
        "Ĺ"
      ],
      [
        "ä",
        "¿"
      ],
      [
        "çİ",
        "°"
      ],
      [
        "éĢļ",
        "è¿ĩ"
      ],
      [
        "å",
        "±"
      ],
      [
        "è¿",
        "Ļ"
      ],
      [
        "æ",
        "Į"
      ],
      [
        "æ",
        "Ħ"
      ],
      [
        "èĢ",
        "Į"
      ],
      [
        "æ",
        "°"
      ],
      [
        "è",
        "´"
      ],
      [
        "ç",
        "Ľ"
      ],
      [
        "çī",
        "©"
      ],
      [
        "å",
        "Ł"
      ],
      [
        "æĢ",
        "§"
      ],
      [
        "é",
        "Ŀ"
      ],
      [
        "ä",
        "¾"
      ],
      [
        "èĩ",
        "ª"
      ],
      [
        "å",
        "·"
      ],
      [
        "å",
        "¸"
      ],
      [
        "è",
        "½"
      ],
      [
        "å®",
        "ŀ"
      ],
      [
        "æ",
        "³"
      ],
      [
        "æ",
        "ı"
      ],
      [
        "è®",
        "©"
      ],
      [
        "æĹ",
        "¶"
      ],
      [
        "æĪ",
        "Ĳ"
      ],
      [
        "æ",
        "Ń"
      ],
      [
        "çĶ",
        "¨"
      ],
      [
        "å",
        "ĳ"
      ],
      [
        "æľ",
        "ī"
      ],
      [
        "çļĦ",
        "ç"
      ],
      [
        "è",
        "µ"
      ],
      [
        "æ",
        "ł"
      ],
      [
        "å",
        "¦"
      ],
      [
        "å¿",
        "ĥ"
      ],
      [
        "åĬ",
        "Ľ"
      ],
      [
        "æ",
        "´"
      ],
      [
        "éĹ",
        "´"
      ],
      [
        "å",
        "İ"
      ],
      [
        "åı",
        "ĳ"
      ],
      [
        "æķ",
        "°"
      ],
      [
        "é",
        "Ļ"
      ],
      [
        "åĲ",
        "Į"
      ],
      [
        "æ",
        "į"
      ],
      [
        "å",
        "Ĵ"
      ],
      [
        "å¦",
        "Ĥ"
      ],
      [
        "æ",
        "Ļ"
      ],
      [
        "å¯",
        "¹"
      ],
      [
        "ç",
        "Ń"
      ],
      [
        "æ",
        "ĥ"
      ],
      [
        "ç",
        "¤"
      ],
      [
        "ç",
        "©"
      ],
      [
        "ç§",
        "į"
      ],
      [
        "é",
        "¢"
      ],
      [
        "å",
        "¥"
      ],
      [
        "æ",
        "Ķ"
      ],
      [
        "ç",
        "ķ"
      ],
      [
        "åĴ",
        "Į"
      ],
      [
        "ç",
        "³"
      ],
      [
        "å¤",
        "§"
      ],
      [
        "ç",
        "Ł"
      ],
      [
        "æĹ",
        "ł"
      ],
      [
        "æ",
        "¯"
      ],
      [
        "ä»",
        "¥"
      ],
      [
        "å¹",
        "¶"
      ],
      [
        "åľ",
        "°"
      ],
      [
        "è",
        "¾"
      ],
      [
        "æ",
        "¸"
      ],
      [
        "æ",
        "Ľ"
      ],
      [
        "ç",
        "±"
      ],
      [
        "ç",
        "º"
      ],
      [
        "ä¸",
        "ª"
      ],
      [
        "æľ",
        "¯"
      ],
      [
        "è¡",
        "Į"
      ],
      [
        "ä½",
        "ľ"
      ],
      [
        "ä»",
        "İ"
      ],
      [
        "æľ",
        "º"
      ],
      [
        "ç",
        "¨"
      ],
      [
        "è",
        "°"
      ],
      [
        "ç³",
        "»"
      ],
      [
        "è",
        "ī"
      ],
      [
        "ç",
        "²"
      ],
      [
        "æĬ",
        "Ģ"
      ],
      [
        "éĩ",
        "į"
      ],
      [
        "å",
        "ĥ"
      ],
      [
        "äº",
        "İ"
      ],
      [
        "æ",
        "·"
      ],
      [
        "ç±",
        "»"
      ],
      [
        "æŀ",
        "Ħ"
      ],
      [
        "åĥ",
        "ı"
      ],
      [
        "å°",
        "Ĩ"
      ],
      [
        "ç",
        "ł"
      ],
      [
        "æ",
        "²"
      ],
      [
        "ä¼",
        "ļ"
      ],
      [
        "æ",
        "ĭ"
      ],
      [
        "ä»",
        "¬"
      ],
      [
        "æı",
        "Ĳ"
      ],
      [
        "å",
        "ĵ"
      ],
      [
        "ç»",
        "Ł"
      ],
      [
        "ç",
        "Ħ"
      ],
      [
        "åı",
        "Ĭ"
      ],
      [
        "æĦ",
        "Ł"
      ],
      [
        "ç",
        "ľ"
      ],
      [
        "ç",
        "Ŀ"
      ],
      [
        "å",
        "»"
      ],
      [
        "å",
        "¢"
      ],
      [
        "å®",
        "ļ"
      ],
      [
        "åĪ",
        "Ĩ"
      ],
      [
        "åı",
        "¯"
      ],
      [
        "æķ",
        "Ī"
      ],
      [
        "éĩ",
        "ı"
      ],
      [
        "ç§",
        "ĳ"
      ],
      [
        "æ",
        "±"
      ],
      [
        "åĩ",
        "º"
      ],
      [
        "æĽ",
        "´"
      ],
      [
        "æľ",
        "¬"
      ],
      [
        "ç",
        "®"
      ],
      [
        "åŃ",
        "Ĳ"
      ],
      [
        "ä¼",
        "ł"
      ],
      [
        "é",
        "ļ"
      ],
      [
        "æĸ",
        "¹"
      ],
      [
        "åħ",
        "¨"
      ],
      [
        "è",
        "¶"
      ],
      [
        "çĿ",
        "Ģ"
      ],
      [
        "è´",
        "¨"
      ],
      [
        "è§",
        "£"
      ],
      [
        "é",
        "ģ"
      ],
      [
        "é",
        "£"
      ],
      [
        "é",
        "ľ"
      ],
      [
        "æĢ",
        "ģ"
      ],
      [
        "ä»",
        "ħ"
      ],
      [
        "æ",
        "ģ"
      ],
      [
        "ä¸",
        "Ĭ"
      ],
      [
        "é",
        "ĺ"
      ],
      [
        "æ",
        "º"
      ],
      [
        "æĪ",
        "ĳ"
      ],
      [
        "å",
        "ī"
      ],
      [
        "äºº",
        "ç±»"
      ],
      [
        "åħ",
        "³"
      ],
      [
        "ç",
        "¡"
      ],
      [
        "æ´",
        "»"
      ],
      [
        "ç",
        "«"
      ],
      [
        "å¹",
        "³"
      ],
      [
        "çĦ",
        "¶"
      ],
      [
        "å·",
        "¥"
      ],
      [
        "ä»",
        "£"
      ],
      [
        "å¼",
        "ı"
      ],
      [
        "æµ",
        "ģ"
      ],
      [
        "åŁ",
        "º"
      ],
      [
        "åº",
        "Ķ"
      ],
      [
        "çķ",
        "Į"
      ],
      [
        "åı",
        "ĺ"
      ],
      [
        "å°",
        "±"
      ],
      [
        "è",
        "·"
      ],
      [
        "ç¨",
        "ĭ"
      ],
      [
        "å»",
        "º"
      ],
      [
        "å±",
        "ķ"
      ],
      [
        "ç²",
        "¾"
      ],
      [
        "æ·",
        "±"
      ],
      [
        "è",
        "Ī"
      ],
      [
        "ç",
        "¼"
      ],
      [
        "é",
        "ķ"
      ],
      [
        "æ³",
        "ķ"
      ],
      [
        "å",
        "ģ"
      ],
      [
        "å",
        "Ģ"
      ],
      [
        "æį",
        "®"
      ],
      [
        "æº",
        "Ĳ"
      ],
      [
        "ä¿",
        "Ŀ"
      ],
      [
        "åħ",
        "¶"
      ],
      [
        "è§",
        "Ĥ"
      ],
      [
        "ç",
        "½"
      ],
      [
        "åĪ",
        "¶"
      ],
      [
        "çŁ",
        "¥"
      ],
      [
        "è",
        "Ĭ"
      ],
      [
        "æĿ",
        "¥"
      ],
      [
        "åĲ",
        "Ī"
      ],
      [
        "ç",
        "ģ"
      ],
      [
        "ä¸į",
        "ä»ħ"
      ],
      [
        "ä¿",
        "¡"
      ],
      [
        "ä¸",
        "»"
      ],
      [
        "é",
        "ĥ"
      ],
      [
        "åĳ",
        "½"
      ],
      [
        "æĸ",
        "°"
      ],
      [
        "é",
        "«"
      ],
      [
        "ç¤",
        "¾"
      ],
      [
        "æĬĢ",
        "æľ¯"
      ],
      [
        "ç",
        "¾"
      ],
      [
        "èĢ",
        "ħ"
      ],
      [
        "è½",
        "¬"
      ],
      [
        "é«",
        "ĺ"
      ],
      [
        "æĮ",
        "ģ"
      ],
      [
        "é",
        "Ľ"
      ],
      [
        "åº",
        "¦"
      ],
      [
        "åħ",
        "ī"
      ],
      [
        "æ",
        "¶"
      ],
      [
        "åħ",
        "±"
      ],
      [
        "è",
        "±"
      ],
      [
        "ä¸",
        "ļ"
      ],
      [
        "ç",
        "ĸ"
      ],
      [
        "çī",
        "¹"
      ],
      [
        "è",
        "º"
      ],
      [
        "çĶ",
        "µ"
      ],
      [
        "æŃ",
        "£"
      ],
      [
        "æĸ",
        "ĩ"
      ],
      [
        "å½",
        "¢"
      ],
      [
        "æ°",
        "´"
      ],
      [
        "éľ",
        "Ģ"
      ],
      [
        "è¿",
        "Ľ"
      ],
      [
        "ç",
        "´"
      ],
      [
        "çŃ",
        "ī"
      ],
      [
        "èº",
        "«"
      ],
      [
        "æĦ",
        "ı"
      ],
      [
        "è",
        "Ĥ"
      ],
      [
        "å¢",
        "ĥ"
      ],
      [
        "è±",
        "¡"
      ],
      [
        "äº",
        "¤"
      ],
      [
        "åĨ",
        "ħ"
      ],
      [
        "å¤",
        "į"
      ],
      [
        "éĿ",
        "¢"
      ],
      [
        "æľ",
        "Ģ"
      ],
      [
        "è§",
        "Ħ"
      ],
      [
        "ç©",
        "º"
      ],
      [
        "ç»",
        "ı"
      ],
      [
        "ä¸",
        "ĭ"
      ],
      [
        "é",
        "Ķ"
      ],
      [
        "æĮ",
        "ĩ"
      ],
      [
        "ä¹",
        "ī"
      ],
      [
        "æĥ",
        "ħ"
      ],
      [
        "åį",
        "ĩ"
      ],
      [
        "é",
        "ª"
      ],
      [
        "ç»",
        "ĵ"
      ],
      [
        "ç¤¾",
        "ä¼ļ"
      ],
      [
        "å°±",
        "åĥı"
      ],
      [
        "äº",
        "§"
      ],
      [
        "å¯",
        "¼"
      ],
      [
        "å",
        "Ŀ"
      ],
      [
        "çĲ",
        "ĥ"
      ],
      [
        "è",
        "¦"
      ],
      [
        "â",
        "Ģ"
      ],
      [
        "è",
        "ģ"
      ],
      [
        "éķ",
        "¿"
      ],
      [
        "æķ°",
        "æį®"
      ],
      [
        "è°",
        "ĥ"
      ],
      [
        "ä¹",
        "ĭ"
      ],
      [
        "ä»İ",
        "èĢĮ"
      ],
      [
        "çİ",
        "¯"
      ],
      [
        "çĶŁ",
        "åĳ½"
      ],
      [
        "ä¸",
        "ĸ"
      ],
      [
        "åĪ",
        "°"
      ],
      [
        "åĲ",
        "ĳ"
      ],
      [
        "å®",
        "¶"
      ],
      [
        "è®",
        "º"
      ],
      [
        "æĢ",
        "Ŀ"
      ],
      [
        "æī",
        "ĭ"
      ],
      [
        "è®",
        "¡"
      ],
      [
        "ç",
        "¥"
      ],
      [
        "æĺ¯",
        "ä¸Ģ"
      ],
      [
        "æĻ",
        "º"
      ],
      [
        "åŃ",
        "ĺ"
      ],
      [
        "æĪĳ",
        "ä»¬"
      ],
      [
        "è¦",
        "ģ"
      ],
      [
        "è¿",
        "Ĳ"
      ],
      [
        "æİ",
        "¨"
      ],
      [
        "ä¾",
        "¿"
      ],
      [
        "æ¯",
        "ı"
      ],
      [
        "ç»",
        "Ī"
      ],
      [
        "åĪ",
        "»"
      ],
      [
        "æķ",
        "´"
      ],
      [
        "æģ",
        "¯"
      ],
      [
        "ç",
        "Ĥ"
      ],
      [
        "ç§ĳ",
        "åŃ¦"
      ],
      [
        "è¯",
        "Ĩ"
      ],
      [
        "å",
        "£"
      ],
      [
        "å¾",
        "ĭ"
      ],
      [
        "è¿Ļ",
        "ç§į"
      ],
      [
        "¨",
        "¡"
      ],
      [
        "è",
        "Ħ"
      ],
      [
        "è",
        "į"
      ],
      [
        "ç³»",
        "ç»Ł"
      ],
      [
        "è",
        "ŀ"
      ],
      [
        "èĩª",
        "çĦ¶"
      ],
      [
        "èŀ",
        "į"
      ],
      [
        "åĽ",
        "ł"
      ],
      [
        "æĪ",
        "ĸ"
      ],
      [
        "ç»",
        "´"
      ],
      [
        "å¼",
        "ķ"
      ],
      [
        "é£",
        "İ"
      ],
      [
        "çĶŁ",
        "æ´»"
      ],
      [
        "åĪ",
        "Ļ"
      ],
      [
        "ç½",
        "ĳ"
      ],
      [
        "åĪ",
        "©"
      ],
      [
        "å¤",
        "ļ"
      ],
      [
        "å¥",
        "½"
      ],
      [
        "èµ",
        "Ħ"
      ],
      [
        "äº",
        "Ĵ"
      ],
      [
        "åİ",
        "Ł"
      ],
      [
        "ĭ",
        "¬"
      ],
      [
        "æ¸",
        "ħ"
      ],
      [
        "å",
        "ŀ"
      ],
      [
        "è",
        "¢"
      ],
      [
        "è®",
        "¤"
      ],
      [
        "è",
        "Ļ"
      ],
      [
        "åħ",
        "¥"
      ],
      [
        "ä¸ĸ",
        "çķĮ"
      ],
      [
        "è®",
        "¾"
      ],
      [
        "æ",
        "¨¡"
      ],
      [
        "å®",
        "ī"
      ],
      [
        "éª",
        "Į"
      ],
      [
        "éĢ",
        "ł"
      ],
      [
        "åĽ",
        "¾"
      ],
      [
        "éĿ",
        "ŀ"
      ],
      [
        "å¼",
        "º"
      ],
      [
        "å½",
        "±"
      ],
      [
        "åľ",
        "º"
      ],
      [
        "ä½",
        "ķ"
      ],
      [
        "èī",
        "²"
      ],
      [
        "æıĲ",
        "åįĩ"
      ],
      [
        "èĬ",
        "Ĥ"
      ],
      [
        "è§",
        "Ĩ"
      ],
      [
        "æ",
        "¼"
      ],
      [
        "çľ",
        "Ł"
      ],
      [
        "æ±",
        "Ĥ"
      ],
      [
        "ç",
        "Ĺ"
      ],
      [
        "è¿Ļ",
        "ä¸Ģ"
      ],
      [
        "å¯",
        "Ĩ"
      ],
      [
        "å¸",
        "Ĥ"
      ],
      [
        "åį",
        "´"
      ],
      [
        "æ",
        "»"
      ],
      [
        "æ°",
        "Ķ"
      ],
      [
        "é",
        "¡"
      ],
      [
        "å®ŀ",
        "çİ°"
      ],
      [
        "åĲ",
        "İ"
      ],
      [
        "ç¤",
        "º"
      ],
      [
        "æİ",
        "¥"
      ],
      [
        "å¾",
        "Ĺ"
      ],
      [
        "ç¾",
        "İ"
      ],
      [
        "åħ",
        "¬"
      ],
      [
        "èī",
        "º"
      ],
      [
        "ä¾",
        "Ľ"
      ],
      [
        "æĺ",
        "İ"
      ],
      [
        "åĨ",
        "³"
      ],
      [
        "éĥ",
        "½"
      ],
      [
        "å",
        "¡"
      ],
      [
        "åı",
        "ª"
      ],
      [
        "åı",
        "į"
      ],
      [
        "æ",
        "Ł"
      ],
      [
        "çĶ",
        "±"
      ],
      [
        "åĩ",
        "Ĩ"
      ],
      [
        "æĬ",
        "¤"
      ],
      [
        "èĢĮ",
        "æĺ¯"
      ],
      [
        "çĽ",
        "¸"
      ],
      [
        "åŃ",
        "Ĺ"
      ],
      [
        "å°",
        "ı"
      ],
      [
        "æİ",
        "¢"
      ],
      [
        "ç¡",
        "®"
      ],
      [
        "ç¥",
        "ŀ"
      ],
      [
        "äº",
        "ĭ"
      ],
      [
        "ç®",
        "Ĺ"
      ],
      [
        "æµ",
        "·"
      ],
      [
        "é",
        "Ĥ"
      ],
      [
        "ä¹",
        "Ł"
      ],
      [
        "è¢",
        "«"
      ],
      [
        "ç",
        "¢"
      ],
      [
        "çĤ",
        "¹"
      ],
      [
        "æ¯",
        "Ķ"
      ],
      [
        "çł",
        "´"
      ],
      [
        "éģ",
        "ĵ"
      ],
      [
        "å",
        "Ļ"
      ],
      [
        "åıĳ",
        "å±ķ"
      ],
      [
        "è¯",
        "Ń"
      ],
      [
        "åĪ",
        "Ľ"
      ],
      [
        "ç",
        "ĥ"
      ],
      [
        "é",
        "©"
      ],
      [
        "ç»",
        "Ń"
      ],
      [
        "å¦Ĥ",
        "åĲĮ"
      ],
      [
        "ç",
        "ĭ¬"
      ],
      [
        "ä¹",
        "ł"
      ],
      [
        "è¿ĩ",
        "ç¨ĭ"
      ],
      [
        "åĵ",
        "ģ"
      ],
      [
        "éĩ",
        "Į"
      ],
      [
        "æĿ",
        "Ĥ"
      ],
      [
        "çİ¯",
        "å¢ĥ"
      ],
      [
        "¨",
        "åľ¨"
      ],
      [
        "ç©",
        "¶"
      ],
      [
        "å½",
        "ĵ"
      ],
      [
        "ŀ",
        "¬"
      ],
      [
        "éĻ",
        "Ĳ"
      ],
      [
        "ä¿¡",
        "æģ¯"
      ],
      [
        "æ",
        "Ĥ"
      ],
      [
        "åŁ",
        "İ"
      ],
      [
        "æĥ",
        "³"
      ],
      [
        "ç«",
        "ĭ"
      ],
      [
        "æĹ",
        "¨åľ¨"
      ],
      [
        "åŁ",
        "Ł"
      ],
      [
        "åħ",
        "·"
      ],
      [
        "çł",
        "Ķ"
      ],
      [
        "åī",
        "į"
      ],
      [
        "åŀ",
        "ĭ"
      ],
      [
        "æĸ",
        "Ń"
      ],
      [
        "çī",
        "ĩ"
      ],
      [
        "æĹ",
        "¢"
      ],
      [
        "çĶŁ",
        "çī©"
      ],
      [
        "é",
        "ĵ"
      ],
      [
        "æĻº",
        "èĥ½"
      ],
      [
        "å®",
        "Į"
      ],
      [
        "ç»ĵ",
        "æŀĦ"
      ],
      [
        "æľ",
        "ª"
      ],
      [
        "é",
        "ħ"
      ],
      [
        "æı",
        "Ń"
      ],
      [
        "èµ",
        "·"
      ],
      [
        "ŀ¬",
        "éĹ´"
      ],
      [
        "èĩ",
        "´"
      ],
      [
        "åĻ",
        "¨"
      ],
      [
        "åĬ",
        "ł"
      ],
      [
        "çİ",
        "ĩ"
      ],
      [
        "å¾",
        "®"
      ],
      [
        "æŀĦ",
        "å»º"
      ],
      [
        "è¡",
        "¨"
      ],
      [
        "æĶ",
        "¾"
      ],
      [
        "ä»",
        "·"
      ],
      [
        "çİ°",
        "ä»£"
      ],
      [
        "è¡",
        "¡"
      ],
      [
[...]
